#version: 0.2
Ġ Ġ
Ġ t
Ġ a
i n
e r
o n
e n
e s
ã ģ
Ġt h
Ġ s
Ġ d
o r
a t
Ġ c
a n
ĠĠ ĠĠ
Ġ p
r e
Ġth e
i s
i t
a r
a l
Ġ o
Ġ m
Ġ w
Ġ l
Ġ f
o u
e d
Ġ b
a s
in g
i c
i on
Ġa n
ã Ĥ
en t
e l
Ġ in
Ġ h
r o
ï ¼
Ġo f
Ġt o
ä ¸
e t
ã Ģ
Ġd e
Ġan d
i l
ã ĥ
o s
â Ģ
Ġ n
o m
c t
l e
a d
Ġ e
u s
i d
u n
. Ċ
ï¼ Į
a m
u r
i m
q u
ĠĠ Ġ
Ġ re
u t
ĠĠĠĠ ĠĠĠĠ
Ġ y
o l
a c
Ġ g
ç ļ
e m
çļ Ħ
Ã ©
Ġ S
o t
i g
ä º
v e
Ġ I
Ġ T
Ġ A
at ion
Ġ C
es t
Ø §
ãĢ Ĥ
c h
Ġ v
u l
Ġ r
Ġ is
Ġc on
i r
s t
Ġ (
Ġf or
h e
o w
a y
Ġb e
er s
c e
Ċ Ċ
l y
i f
a b
Ġ P
a g
Ġ M
æ ľ
Ġ on
ä »
Ù Ħ
Ġs t
o d
å ı
Ġp ro
u m
es s
Ġ qu
Ġ en
i v
ãĢ ģ
t er
Ġth at
Ġy ou
Ġ un
Ġc om
it h
âĢ Ļ
Ġw h
t h
Ġa l
e ct
Ġl a
å ¤
Ġa s
an t
is t
å ħ
a p
at e
Ġ B
Ġs e
Ġ =
ãģ ®
an d
Ġ it
r i
å ®
v er
Ġ D
c i
Ġw ith
å Ī
- -
ä ½
è ¿
; Ċ
ĠĠĠĠ ĠĠĠ
Ġ E
a k
2 0
æ ĺ
or t
r a
Ġe x
å Ĳ
Ġ R
Ġs u
Ġ L
Ġ or
o p
p l
en d
il l
er e
Ù Ĭ
Ġ F
ç Ķ
Ġp ar
å ľ
Ġ H
Ġ k
Ġ Ø
Ã ³
Ġqu e
h t
Ġ el
o c
Ø§ ÙĦ
ou r
Ġa re
Ġ Ð
Ġl e
Ù ħ
u d
an g
s e
æ Ī
ä¸ Ģ
m ent
a in
ãģ Ħ
Ġ N
Ġn e
Ġ G
Ġa t
it y
ä ¹
âĢ Ŀ
Ġ W
âĢ ľ
t e
p e
ou n
Ġ j
i e
å °
ro m
æĺ ¯
Ġ \
ãĢĤ Ċ
l d
æ ĸ
Ġ $
i z
ãģ «
å Ĭ
Ġ "
or e
o g
ãģ §
Ġc h
Ġp r
Ã ¡
Ġh a
æ Ĺ
u e
Ù Ī
Ð ¾
Ġ ì
u p
Ġ {
Ġt r
ãģ Ĺ
Ġ us
0 0
Ġ Ø§ÙĦ
å Ľ
i ve
Ġn ot
ĠT he
i a
p ort
p t
u re
Ġw as
è ¯
ç »
in e
Ù Ĩ
å Ń
) Ċ
p er
us t
Ġb y
i es
ãģ Ļ
ig ht
Ġ O
ä¸ į
al l
Ð °
ä ¼
an s
u b
ãģ ¦
Ã Ń
Ġh e
ãģ ¨
Ġth is
æ Ŀ
ãĤ ĭ
ag e
Ø§ Ø
äº Ĩ
ãĤ Ĵ
Ġs h
å ¹
Ġf rom
at h
Ġd es
i re
el l
Ġd o
Ġp l
am e
Ġw e
or m
æ ī
Ġc an
ul t
äº º
ou t
Ð µ
i b
Ġ J
ar d
i k
ãĥ ¼
p r
ãģ ª
Ġr es
å į
ct ion
Ġha ve
ĠI n
f f
i p
c l
os t
Ġ im
æľ ī
ãģ Į
ãģ ¾
ĠĠĠĠĠĠĠĠ ĠĠĠ
} Ċ
Ġ est
åľ ¨
as s
ãģ Ł
Ġa d
å ¾
Ġa b
ar t
ãģ ¯
Ð ¸
ou ld
Ġ U
ou s
è ®
, Ċ
Ġcon t
o k
ab le
é ĩ
Ġs o
in d
ac k
1 9
Ø ±
as t
) ;Ċ
ic h
å ·
è Ģ
å ĩ
å ¼
c on
Ġc l
å Ĩ
al ly
Ġp er
Ã³ n
/ /
å ¸
d er
è ¡
.Ċ Ċ
Ġ Ã
å º
om e
Ġ &
id e
Ġm e
Ġyou r
a re
ic e
-- --
. .
Ġ{ Ċ
c c
é Ģ
Ġa r
Ġ et
Ġa p
t o
Ġ *
a ct
d u
en s
ig n
Ð ½
ion s
Ġw or
Ġ -
ĠT h
å ¥
a v
g r
d e
âĢĻ s
ĥ ½
at ed
Ñ Ĥ
in t
æ Ģ
em ent
å ¯
en ce
ĉ ĉ
Ø ©
ç Ľ
Ġal l
s o
ac h
i al
Ġcom p
æ ķ
i ent
f orm
Ġn o
as e
Ġ K
å¤ §
è ¦
' s
= =
im e
t r
ì Ŀ
20 1
an ce
Ġd is
ä¸ Ń
Ġ V
e ar
on e
ãĥ ³
* *
Ñ Ģ
i o
ĠĠĠĠĠĠĠĠ ĠĠĠĠĠĠĠĠ
Ġe m
Ø ª
it e
Ġ ë
ation s
g e
Ġw ill
b er
ac e
f er
å ¿
Ñ ģ
x t
Ġ '
oun d
a h
e p
1 0
å Į
on g
n e
Ġ if
æ ł
ou g
æĪ ĳ
il e
ur n
Ġ es
æ Ĭ
è §
ic al
Ġg r
Ġg o
Ġ âĢľ
ä¸ Ĭ
Ġp re
Ġb ut
Ġs er
at a
Ġd el
Ġl os
ar y
Ð¾ Ð
or d
Ġo ut
è¿ Ļ
æ Ń
on t
ad o
T he
a il
Ġh as
è ĩ
Ġm an
ä¸ ª
Ġpar t
è µ
o b
r u
er t
ãĤ Ĭ
e c
l ic
ĠØ§ÙĦ Ø
ç ľ
th er
æ °
Ġl o
it ion
Ù ģ
Ġ âĢ
I n
ç §
å Ĵ
v el
Ġthe y
) ,
å ½
h er
i Ã³n
ĠÃ ł
Ã £
Ġ [
å ±
ãģ ĭ
ä¸ º
ç İ
c om
Ġwh ich
: Ċ
ç ī
Ã §
ãĤ Ĥ
å İ
en g
ak e
Ġthe ir
Ã£ o
p ro
e g
é ģ
è¦ ģ
Ġ up
Ġm ore
æ ³
) .
ä¼ ļ
Ġin ter
Ġpar a
ä» ¥
æ Ķ
Ø ¯
å¹ ´
} ĊĊ
Ġ |
Ġs a
çĶ Ł
l l
Ġt e
u al
çĶ ¨
c es
Ù ĩ
ar i
ãĤ Į
é Ŀ
åĴ Į
Ġh is
æ ĥ
os e
é Ĺ
å ĳ
Ġon e
é Ļ
æĿ ¥
o v
or y
k s
oug h
g et
qu e
è ´
æ ²
or s
ä ¿
p le
j ect
Ġe v
åĩ º
r es
i er
f t
ï¼ ļ
Ù Ĥ
ent s
Ġ Y
Ġp e
20 0
ĠA n
ãģ £
if ic
è ĥ½
æ İ
ãģ ĵ
el y
æ Ħ
ãĤ ¹
Ġl es
Ġ <
ĠĠĠĠ Ġ
æ ŀ
åŃ ¦
p on
Ġa g
is h
m ath
el f
Ġ Ã©
ãģ Ĩ
Ù ĥ
å ĵ
ãĤ ī
åĪ °
ä» ĸ
æĹ ¶
Ġab out
_ {
od e
ĠC h
ãģ¾ ãģĻ
Ġp or
u g
t urn
Ġne w
åĽ ½
r y
í ķ
Ã ¨
Ġcom m
Ġf e
ãĥ¼ ãĥ
c re
( )
Ġa m
Ġ ent
ad a
åı ¯
us e
å ī
è¡ Į
Ġd i
ik e
er m
es e
; ĊĊ
å° ±
Ġ :
ow n
èĩ ª
ĠS t
ro w
Ġm y
at er
Ġ Ùħ
æ µ
l o
Ġs p
Ġcon s
ç Ĳ
ad e
Ġo b
oun t
Ġg et
is s
Ġc ol
æ ¯
æĸ ¹
Ø ¹
Ġa cc
i en
Ġan y
Ø ¨
y pe
ay s
Ġw ere
en er
ub lic
ci al
ãģ ı
ä½ ľ
Ð »
r it
ing s
il d
p s
Ġal so
Ġo ther
i an
Ġt ime
åĪ Ĩ
æ Į
ul ar
Ġwh o
åľ °
ä¸ ĭ
ç Ń
1 2
re e
è ¾
r ic
ç º
a is
ar k
ri b
r m
Ġh er
c ess
Ġth ere
ac iÃ³n
Ġ ro
u c
Ã© s
ãĤ ¤
Ġm ay
Ġs ur
Ġwh en
l es
Ġ ê
Ġa ct
ĠI t
o y
å¯ ¹
Ġs ome
Ġwor k
Ġthe m
æĹ ¥
æ ĭ
Ġp os
ĠĠĠĠĠĠĠĠ ĠĠĠĠĠĠĠ
Ġl as
in k
Ġh ad
ro s
Ġ ÙĪ
Ġc o
Ġf un
Ġd if
æĪ Ĳ
p os
w e
Ġv al
et h
å¤ ļ
p ar
re at
Ġre c
p ect
y st
l ow
åŃ Ĳ
---- ----
e f
Ġw ould
ä¹ Ł
p h
å ¦
æľ ¬
cl ud
iz e
ãģ į
e x
Ġbe en
ä ¾
ãģĹ ãģ¦
oc k
Ġo ur
Ġfor m
é ¢
a u
er v
Ġo ver
at es
ect ion
åı ĳ
ãĥ Ī
Ġa c
T h
Ġ Ċ
Ġm od
ç «
ï¼ ī
ol og
ä» ¬
è ½
Ġre l
a j
Ø ³
ers on
Ġth an
ï¼ Ī
ãģ ķ
ĠU n
} $
Ġit s
Ġk n
å® ¶
1 5
à ¤
er y
Ġin t
Ġl ike
is e
1 8
Ġin d
c a
e y
ä½ ł
ë ĭ
ent e
Ġin v
çĲ Ĩ
em b
Ġpro du
ir st
Ã ±
Ġwh at
Ġm u
ç Ŀ
Ġin to
Ġd u
Ġre g
> Ċ
å Ł
æ Ļ
Ð º
Ġpro v
ie w
äº ĭ
è Ĥ
ç Ĥ
ul l
Ġas s
Ġ Â
Ġde f
Ñ ĥ
Ġy ear
a x
æ ´
åĲ İ
ar g
æ ¬
ion al
math rm
Ġst r
é «
Ġh ow
: :
Ġre turn
Ġj ust
Ġun a
Ġpr es
Ġs pe
in al
Ġne ed
æ ±
å® ļ
ä¸ ļ
on s
op le
_ _
= "
Ġ .
' t
é Ľ
Ġsu b
ãģ Ĥ
é ¡
ic k
yst em
1 1
é ĺ
ãĥ ĥ
Ġtr ans
åĲ Ī
ig h
id ad
e b
æ ¸
Ġs et
u k
p ut
Ġb et
è¿ ĩ
Ġa ut
å Ģ
" ,
æ Ľ
o int
i el
ç Ł
é« ĺ
ç ®
pl ic
a z
ce pt
Ġ }
ç Ħ
å¥ ½
ç ¤
Ġb o
\ Ċ
Ġ /
ç Ļ
l ine
y s
æ³ ķ
å· ¥
ol d
Ġad d
3 0
è ¨
è¯ ´
i x
w o
Ġun der
é ĥ
er n
ib le
å¾ Ĺ
ç ½
Ġin st
re d
Ġo p
^ {
äº İ
ĠTh is
ĠâĢ ĵ
é ĥ½
# #
' '
ç ¨
ĠE n
ç ´
c o
Ġp ol
Ġa f
ÃŃ a
Ġ$ \
åĬ Ľ
éĿ ¢
ï¼ Ł
Ġm en
Ġt ra
ang e
Ġus e
å ģ
Ġpe ople
å° ı
Ġp ublic
an y
Ġh el
Ġd a
an n
Ġp h
i ed
c ed
am b
Ġp erson
Ġst ud
ç ¬
in s
Ġof f
ver y
Ġp our
å¿ ĥ
âĢĻ t
Ġon ly
== ==
Ð ²
ãĤ ĵ
1 6
ap p
it s
Ġsu p
ĠC om
æ ı
åī į
ãģ§ ãģĻ
at ing
m e
ä½ ĵ
Ġ }Ċ
ot h
Ġin form
Ã¡ s
Ġ //
ãĥ «
èĢ ħ
Ġa u
é ķ
il ity
er r
Ġa v
ĠH e
ãģĹ ãģŁ
çĿ Ģ
ï¼ ģ
ĠP ro
m er
Ġd on
ĠW h
Ġcon st
é Ĥ
æĢ §
çİ °
ãĤ ¯
it ies
æĸ °
Ã§ Ã£o
id ent
Ġs c
t y
( "
ar n
åħ ¬
Ġb l
ãģ Ĭ
æī Ģ
ter n
ra ct
ì Ĺ
ãĥ ª
g an
ur s
te xt
ic s
åħ ¨
Ġre qu
Ġm ed
b le
ic a
un d
Ġf irst
Ġ i
r ough
e v
Ġe ff
Ġs he
Ġre m
ä¹ ĭ
éģ ĵ
iv ers
Ġc or
Ġser v
or k
at ive
e w
ĠA s
a it
am p
Ġb u
Â ł
åĲ Į
è ·
ation al
ĠØ ¨
Ġm ost
Ġkn ow
Ġat t
ãĥ »
Ġc ar
1 4
ãĤ Ī
Ġd ata
Ġs ol
Ġth ese
Ã ª
ä¹ Ī
S t
Ġin clud
Ġ +
Ã º
Ġm in
Ġsh ould
åĬ ¨
ç» ı
c ent
æľ Ģ
E R
Ġd et
ur es
ãĢ Į
a i
èĢ Į
at ch
- >
is m
é ĸ
Ġsa id
é ļ
ãĢ į
å¸ Ĥ
5 0
éĥ ¨
u es
Ø Ń
Ġsu ch
ãģ£ ãģ¦
ãĥ ©
t en
Ġb r
ãģ ł
æī ĭ
Ġd Ã©
ic t
as ed
Ġy ang
å® ŀ
f r
è¿ ĺ
ãģĻ ãĤĭ
Ġn um
çľ ĭ
Ñ ı
ãĤ ¢
w n
åħ ¥
çĤ ¹
ci a
åĮ ĸ
Ġ @
æľ Ī
ic es
t ing
Ġ um
å¼ Ģ
1 3
id er
and o
im port
vel op
al s
. s
å¦ Ĥ
é £
å ķ
] Ċ
i que
Ġ\ \Ċ
Ġth rough
å¤ ©
Ġth en
20 2
ad os
id o
Ġim port
åĨ ħ
on d
} }
ç ķ
or es
o od
è ī
è¿ Ľ
E n
Ġs im
Ð ¼
ä¸ »
o ol
al e
ant e
ç ¾
è °
Ġb ack
Ġ z
Ġdif fer
Ġcl ass
ĠA l
åº ¦
Ġc ould
æĥ ħ
00 0
Ġt wo
çĦ ¶
åĵ ģ
Ġm ake
Ġwh ere
Ġres ult
? Ċ
gr am
ĠØ £
a ir
ãģ ĳ
1 7
Ġh im
æ² ¡
ag es
å½ ĵ
å §
Ġen d
ur r
` `
un g
ut ion
çŃ ī
** **
ment s
Ġc re
an k
è ¶
Ġin s
pr es
ëĭ ¤
ãģĵ ãģ¨
f ore
- s
ãĤ Ħ
y n
ant s
Ġf r
æķ °
in a
Ġ Ùģ
Ġ ÙĦ
ç ©
âĢĿ Ċ
b o
iel d
éĢ ļ
Ġm on
å £
Ġt em
Ġex per
Ġse e
Ð ´
ÙĬ Ø©
è ģ
at or
2 5
åĬ ł
c y
a w
. "
éĤ £
æĸ ĩ
er g
å ł
ow er
Ġw ell
Ġus ed
æĦ ı
Ġcom o
ire ct
Ġun e
v al
1 00
v ent
Ġg ener
Ġ í
Ġre al
f ul
Ġde c
Ù ī
Ġl oc
Ġs ystem
çĽ ®
ä¸ İ
Ġcon f
æ ¥
al th
Ġex t
ou p
Ġs ign
y a
å ĭ
} {
ä¸Ģ ä¸ª
æ Ł
Ġs m
ĠAn d
ãģ Ŀ
ìĿ ´
O N
Ġmu ch
Ġ }ĊĊ
Ø§Ø ª
et s
W h
å »
ru ct
ĠW e
el s
Ġf ol
ĠØ ¹
éĩ į
Ġ ed
if e
Ġl ong
st r
er a
as h
Ġe very
Ġd an
k an
Ġd ist
Ġar t
åħ ¶
Ġhel p
ĠØ§ÙĦ Ùħ
ê ³
< /
Ã© e
r ight
I N
ar s
ut e
âĢ ¦
Ø Į
ĠA r
Ġc r
c k
Ġto d
ãģ ©
. com
ãĤ ģ
ca use
Ġd ur
ion es
Ġbe cause
ĠR e
ë Ĭ
éĩ Į
Ġh igh
Ġpart ic
Ġlo ok
å Ŀ
Ġw ay
i ous
åİ »
em ber
ap h
ĠØ ª
ä½ ¿
âĢ Ķ
R e
am il
ch n
m a
we en
Ġt est
Ġaf ter
Ġd ans
Ġ #
Ġg u
æ į
Ġd id
v en
Ø ¬
o ve
at ic
å¤ ĸ
re ad
C on
æľ º
Ġv ari
æĥ ³
' ,
è¡ ¨
Ġw ant
Ġf l
us s
Ġr ight
at ure
Ġf in
Ġman y
ar a
äº §
w ard
Ġev en
m in
Ġpro cess
it t
ĠC on
ic o
æĺ İ
Ġb el
Ġp as
um ent
ãĤ ¿
èµ ·
Ġqu i
pr ess
P ro
.. .
æ ģ
Ġ ve
A n
Ġf il
h ip
Ã© r
Ġc ap
æŀ ľ
çĽ ¸
ç ³
å ¢
è º
y m
ak ing
ri pt
a ve
åħ ³
éĹ ´
Ã© n
Ñģ ÑĤ
ot her
ãģ Ī
in ess
ate g
Ġt er
e ver
Ġv is
å¾ Ī
it al
éĩ ĳ
Ġin f
l ed
Ġfun ction
Ġ Q
è Ĭ
Ġbet ween
çŁ ¥
ëĬ Ķ
Ġdo es
t a
E S
o id
_ t
_ s
Ġk e
Ġpro f
2 4
ĠÐ ¿
s elf
Ġs elf
b re
åĪ ¶
eg in
) ĊĊ
è ª
åĽ ŀ
Ġb us
am ple
19 9
A T
r en
çī ©
Ġc our
ç ł
æĦ Ł
Ġc all
Ġre ad
im es
ç ¥
æľ Ł
Ġp at
Ġc ent
Ġyear s
Ġe ach
é ħ
u x
Ġde velop
Ġs ch
it ed
ãĤ ·
in es
æ ¶
Ġst art
ä¿ Ŀ
t s
Ñ Į
æ° ´
æı Ĳ
Ñ ĭ
ĠI f
iv es
Ġc a
éķ ¿
ro l
E x
Ġinform ation
Ġfol low
Ġres pon
i qu
Ġs in
Ġc he
åĽ ł
m s
Ġgo od
Ġv ery
Ġs on
our ce
p end
Ġpro gram
r ess
Ġd own
ar ch
b egin
Ġc as
Ġn ow
ear ch
eth od
ãģ ¤
ĠY ou
Ġde m
. ,
ç Ī
- b
ç§ į
h or
éĩ ı
Ġf ind
è ĭ
Ġc u
Ġbe ing
n er
ç¬ ¬
ä½ Ĩ
æ´ »
Ġdiffer ent
con d
ãģĭ ãĤī
c ol
. S
Ġun t
ä¸ ī
e k
ç¤ ¾
tr ing
o f
p re
a ut
id a
è Ī
åĪ ©
Ġo wn
ä¿ ¡
ĠĠĠĠĠĠĠĠ ĠĠĠĠĠĠĠĠĠĠĠ
èº «
Ġth ink
Ġus ing
åĲ į
ä½ į
ci Ã³n
Ø§ ÙĨ
iz ed
y p
Ġe qu
Ġsh ow
æķ Ļ
Ġp oint
ur al
è ¢
Ġcom pl
s p
c ul
å ĸ
æ¯ Ķ
u ally
ì ł
I t
ĠF or
) ;ĊĊ
å» º
Ġm Ã¡s
ĠA d
ì Ħ
Ġh and
c ript
ĠT r
æŃ £
Ġs om
ãĥ ¬
è £
å® ī
å· ±
t t
i os
ãģª ãģĦ
od y
Ġr Ã©
ãĥ Ĺ
A R
Ġth ose
in ed
l ish
ãģ Ľ
Ġbe fore
" Ċ
åº Ķ
v ers
çĶ µ
é ľ
ä» £
g o
im ent
or n
Ġpos s
Ġo u
äº Ľ
æł ·
ê °
æ¬ ¡
Ġl ist
ire d
Ã¡ n
4 0
: //
Ġag ain
æĹ ł
} \
urr ent
g er
ì ŀ
é Ķ
Ġm et
Ġs ame
å° Ĩ
it em
E N
Ġcomm un
èĩª å·±
Ġf act
en se
ìĹ Ĳ
è Ħ
w ork
Ġ x
n ame
Ġo pt
Ġs al
ãģĦ ãĤĭ
Ø ·
Ġg l
2 2
ç Ĺ
ç µ
ĠÙģ ÙĬ
Ġp ass
è§ £
çī ¹
Ġ Z
ar m
i or
ìĿ Ħ
æĽ ´
t on
Ġn ame
Ø§Ø ±
p or
ĠL e
\ end
ĠS e
Ġm ark
Ġin cre
ç³ »
C om
ç® ¡
( '
Ñ ĩ
åı ª
le ct
O R
å± ķ
w w
Ġs it
ĠE x
an a
{ {
ç ±
Ġeff ect
et e
ot e
u ed
olog y
ç¨ ĭ
ãģ£ ãģŁ
b e
C h
ĠÐ ²
Ð½ Ð¸
Ġpl us
åĮ º
A s
ver n
u le
æĪĳ ä»¬
ction s
an c
æ ¡
ãĥ ķ
Ĥ ¬
r ay
ä» İ
Ġprodu ct
Ġl et
åı Ĭ
Ġsup port
ĠÙħ ÙĨ
Ġf amil
Ø µ
ë ¡
åı¯ ä»¥
-------- --------
Ġval ue
åľ º
t ain
Ġa w
Ġent re
å¸ ¸
ä» ¶
Ġap pro
Ġor gan
å¼ ı
Ġ !
èµ Ħ
u ro
n ess
ç¾ İ
Ġm ade
è Ĳ
m an
ut il
( );Ċ
æ ·
Ġh ere
Ġ= >
Ġpro t
Ġch ild
I d
it Ã©
Ġd r
ãģ ¿
ç ģ
Ġpl ay
Ġnum ber
Ġt ake
Ġm ain
Ġ _
er o
ãĤ ¸
2 3
Ġde v
ĠS o
ÑĢ Ð°
u est
w h
ãģĦ ãģ¾ãģĻ
Ġo per
I D
n 't
Ġt erm
am ent
å¥ ¹
å¹ ³
Ġ `
Ġte chn
Ġwor ld
Ġcont in
Ġr est
le ft
Ġs el
Ġpres ent
A N
ath er
Ġd irect
Ġ= =
Ġs k
è® ¾
ãĥ Ń
ĠC l
Ġse g
Ġc ase
v iew
Ġch ar
åĬ ¡
åĲ ĳ
- f
ur a
6 0
Ġb oth
åı ĸ
Ġpro ble
è ĥ
. get
íķ ĺ
Ġwh ile
) .Ċ
p ly
un e
b r
ç ²
æ° ĳ
ĠĠĠĠĠĠĠĠ Ġ
ãĤ ı
Ġl ife
åŁ º
Ġact iv
Ġ Ñģ
pl oy
ect ed
at t
if y
am es
Ġs i
æ²¡ æľī
ÙĬ ÙĨ
- t
o le
v ed
ãĤ ³
Ġprov id
æŃ ¤
al k
æĢ Ŀ
Ġan t
Ġc al
æİ ¥
Ø ´
le x
Ġm em
ĠP l
- d
ĠS h
éĹ ®
Ġf ound
ãģ ¡
are d
Ġen c
Ġqu est
ht t
Ġre f
è¢ «
ì §
Ġcons ider
s on
ro ll
Ġs ay
iz ation
is ion
i h
Ġh um
Ġpr iv
g g
ĠF r
l and
ìĿ ĺ
Ġs us
Ð¾Ð ²
ĠG r
3 2
çľ Ł
c ome
A L
ad d
iv en
ve c
èĢ ĥ
{ Ċ
äº Į
Ġinv est
ä» Ĭ
s er
f ig
iv id
ãĥ³ ãĥ
d it
et a
åħ ĥ
ĠL a
R es
ist s
Ġhe alth
_ d
ç ¡
Ð ·
S T
U n
p o
u i
Ñ ĸ
ĠB ut
. m
å¥ ³
Ġle ad
et er
r on
r as
a Ã§Ã£o
æ º
Ġbus iness
{ \
) $
/ Ċ
å¹ ¶
eng th
Ġm as
Ġan al
Ġd ay
é ¦
oug ht
ç« ĭ
é¢ ĺ
ãĤ °
åı Ĺ
Ġ il
æĮ ģ
am a
r al
ç ĸ
Ġ ,
s et
é Ĵ
v ing
Ġc are
Ġm ar
å· ²
æ Ĥ
Ġh ist
c er
ou se
å° ĳ
a ult
ãĤ «
on es
ros s
, âĢĿ
âĢ ĵ
i as
et y
ç ĥ
ãĤ µ
åı ¸
ç ¼
cc ess
ç ¦
Ġd os
Ġì ŀ
v es
ement s
Ġm ust
Ġo s
N ame
| Ċ
è® ¡
ÙĦ Ùī
ï¼ Ľ
f o
åİ Ł
Ġt ype
ä¸ ¤
iv er
T ype
2 8
ä» Ģ
åı £
Ġex pl
Ġst ill
ak es
Ġre port
ĠN ew
ir on
ĠD e
- m
Ġc ert
Ġb est
Ġimport ant
o h
ç½ ĳ
L a
st and
at s
Ġ X
åģ ļ
Ġle arn
Ġdes ign
2 1
ĠÂ «
æ ®
åħ Ī
å ŀ
ë¡ ľ
t re
) )
if ied
Ð ¿
ust om
Ġn a
al es
æĶ ¿
Ġp ost
f or
Ġm ov
d s
Ġspe c
ch e
as on
è į
Ġad v
og r
Ġ err
==== ====
ĠE l
Ã© t
Th is
Ġle vel
æł ¼
a f
at iv
Ġb re
ĉĉ ĉ
Ġs em
2 7
èĢ ģ
ĠĠĠĠĠĠĠĠĠĠĠĠĠĠĠĠ ĠĠĠĠĠĠĠĠĠĠĠĠĠĠĠĠ
ient s
Ġì Ŀ
Ġn on
ĠIn d
Ġp op
ĠR es
ä»Ģ ä¹Ī
Ġdis c
Ġper form
ãģķ ãĤĮ
en e
, "
I C
Ġb er
I T
m ed
Ø§ Ùħ
Ġinter n
íķ ľ
Ġv ol
Ġst at
Ġm ill
ar ly
Ġm ais
Ġm ethod
re turn
b s
Ġv er
ic ally
re m
C l
Ġst ate
Ġen v
Ġ ÙĬ
an e
c al
ĠH ow
ĠÐ ½
i ence
end er
è ²
Ġd er
åĳ ĺ
in ing
it a
re f
ad as
ad i
æĻ Ĥ
iv ing
ë ¥
èī ²
2 6
Ġm il
en cy
Ġis s
ro p
ĠA p
Ġc le
Ġim p
ĠI s
Ø ¶
our s
Ġb as
en ces
ãĢ ĭ
Ã ¤
Ġm emb
Ġr un
çĶ ±
ab ility
åķ Ĩ
ç» ĵ
Ġar ound
è½ ¦
çĽ ´
ãĢ Ĭ
Ġ ide
ĠO n
8 0
¸ °
us h
iss ion
du ct
Ġc e
am ente
u el
R E
y le
al se
æ ¨
Ġse cond
Ġv ers
E l
ag n
Ñ ħ
\ begin
re g
Ġpl ace
n ing
Ġv ous
ent ion
å¤ ´
n ot
åĲ Ħ
ï¼Į è¿Ļ
Ġl im
ad or
Ġm at
ãĤĬ ãģ¾ãģĻ
ç§ ĳ
Ġpr im
è ±
Ø ®
Ġre ce
é ª
Ġqu al
c ur
ĠâĢ ĺ
Ġall ow
Ġcon n
Ġl ast
am s
Ġdur ing
Ġor der
ç» Ļ
ãĥ ¡
ãģ Ķ
W e
so ci
æĪ ĸ
äº ¤
con om
b l
ĠĠĠĠ ĠĠ
Ġmod el
æĬ Ģ
. d
ç ı
åł ´
ain s
t ab
Ġg reat
æĸ Ļ
ĠThe y
à ¥
Ġle g
ä¸ ĩ
åį ģ
è® ©
é »
f ic
pres ent
Ġa ff
Ġ ident
A d
ì ĭ
A S
h o
w ays
cept ion
ĠC ol
T o
Ġbo ok
Ġwith out
th is
æµ ·
ãģ§ ãģį
Ġf inal
Ø ²
Ã¨ re
c rib
it er
Ġto p
æĮ ĩ
ess age
æ¥ Ń
ãģĤ ãĤĭ
Ġ| |
æī ĵ
æ± Ĥ
Ġto o
ä» »
( \
Ġm eng
Ġper m
ãĥ Ĩ
å ĥ
ivers ity
] (
ent ial
end s
Ġp ort
A r
Ġpro per
it o
å·¥ ä½ľ
Ð ¹
am os
æµ ģ
ê³ ł
ater ial
Ġa vec
Ġw rit
ï¼Į æĪĳ
Ġpro ject
2 9
ir c
Ġb en
ĠA mer
ot s
ãģ¨ ãģĦ
p art
y l
Ġsm all
um n
Ġp el
Ġst and
ĠØ ¥
act er
i um
_ m
Ġ* /Ċ
Ġc urrent
Ġap plic
ient o
è· ¯
Ġso cial
è ¥
t he
Ġs l
in ation
Ġre ally
ĠÐ ¸
is ter
ä¸ ĸ
e xt
) ,Ċ
æĬ Ĭ
et te
Ġgo ing
æ »
č Ċ
Ġres earch
Ġex ample
è Ļ
ĠTh ere
ãģ¾ ãģĹãģŁ
Ġm ult
Ġtr y
Ġt ri
j a
in o
T r
ç Ĭ
è¯ Ŀ
Ġf o
ä½ ķ
Ð ³
Ø £
ì ľ
un t
_ c
å® ¹
Ã¨ s
Ġbu ild
Ġn os
A C
u er
Ġre t
Ġmark et
eth ing
a ire
Ġth ree
Ġg row
Ġh ab
Ġfe el
Ġest e
19 8
Ġloc al
r ation
æ° Ķ
ab or
Ġc ost
ï¼Į ä½Ĩ
Ġm ight
Ġtr ue
é Ł
l ess
Ġcont rol
Ġinter est
åħ¬ åı¸
è¥ ¿
ĠI '
Ġc oun
Ġex pect
Ġh ome
ne w
Ġm us
Ī ëĭ¤
z a
Ã ¼
Ġk ey
Ġp o
. p
å± ±
ä¼ ģ
ãģ® ãģ§
de f
\ s
a im
Ġp ower
Ġp ot
l u
ĠO r
è¨ Ģ
é ĵ
Ġop en
ĠP r
A l
h a
Ġf ac
Ġp ay
**** ****
åĨ į
Ġel se
Ġe as
Ġob ject
å Ħ
Ã µ
ab el
( Ċ
å® Į
L E
ï¼Į ä¸į
ĠÐ ¾
å¼ º
ç¤ º
æľ į
C ont
ä¸Ń åĽ½
pl ay
Ġch ang
ãĤĪ ãģĨ
æį ®
Ġhe ad
ë ı
åĪ «
å°± æĺ¯
ap e
å¿ ħ
é ©
Ġen g
Ġc ell
o ok
ãĥ ŀ
eng an
Ġex p
] ]
è ³
åŀ ĭ
ĠN o
ĠM ar
V al
Ġp ur
Ġì ł
åı ĺ
Ġr is
éĸ ĵ
Ġw ater
Ġgo vern
Ġh app
. c
th ing
ĠM ed
s h
ĠE st
Ġl ine
ar ge
Ġum a
d en
Ãµ es
( )Ċ
Ġ u
p x
Ġp od
Ġwith in
Ġl ess
e e
Ġre du
er c
éĹ ¨
ic le
in ci
ab les
Ã© m
å½ ¢
\ h
at o
f ace
Ġel ect
ÑĢ Ðµ
end o
L ist
Ð ±
ment e
Ġfe w
ÙĬ Ø±
Ġth ings
ì ļ
Ã© es
Ġbet ter
3 5
å¤ Ħ
ä» ·
ãĤ £
Ġa Ã±
æĶ ¾
uc k
an ces
éĽ Ĩ
ul ation
om en
Ġpro m
ĠS ch
r ist
Ġinclud ing
ar l
Ġstud y
pl es
con t
Ġman ag
éĻ ¢
Ġm om
ent ly
.. ..
- Ċ
tr y
ar get
Ùĩ Ø§
Ġsom ething
Ġto t
ot t
_ l
è ©
v o
å Ļ
Ġch o
_ f
Ġ ess
Ġd est
æ ¼
ç¥ ŀ
Ġgr oup
at ely
Ġpl an
Ġla w
re qu
erv ice
ãģ« ãģª
ver t
iv ed
åħ ī
I S
ific ation
ĠØ§ÙĦ Øª
en cia
å½ ±
ak an
Ġan other
u a
ãģĦ ãģŁ
`` `
Ġp a
Ġsu per
od el
ç ĭ
å ²
ãģª ãģ©
b y
Ġsch ool
æ³ ¨
æľ ¯
\h line
Ġl og
Ġcom e
- l
ar io
æĶ ¶
9 0
Ġch ange
it ive
ç» Ł
Ġw r
åį ķ
as k
il y
le g
{ tab
op e
ail able
ãģĦ ãģ¦
it or
ĠA m
ĠP h
Ġb ased
it le
Ġp ut
av a
en a
" :
6 4
et her
oc ument
æĬ ¥
Ġv ot
b ack
. âĢĿ
Ġm ot
åı Ī
{tab ular
L e
ãĤ Ń
d ate
ì§ Ģ
i od
éľ Ģ
ä¸ ľ
Ġpriv ate
" ,Ċ
èĤ ²
w are
l er
Ġ %
ê° Ģ
âĢĿ ,
7 0
Ġke ep
Ġbe h
ic i
as i
n g
ãģ§ ãģ¯
æī į
Ðµ Ð½
ĠâĢ Ķ
. C
ar r
gr ess
çķ Į
çł Ķ
Ġ ĊĊ
Ġp ract
Ġind ivid
Ġin i
æł ĩ
ra in
S tring
d a
Ø °
Ã ¢
ĠU S
Ġar g
Ġunder stand
itt le
I f
Ġl ib
Ġmon th
fer ence
ĠCom m
åı¯ èĥ½
ĠA ll
æķ ´
re am
! Ċ
Ġin de
lo ad
ic an
Ġex ist
ãĤ· ãĥ
j o
Ġas k
éĿ ŀ
le ase
n o
A M
4 5
com m
Ġso bre
æ ħ
Ġfollow ing
id th
çĻ ½
and s
e qu
Ġn et
Ġes pe
Ġacc ess
fr ac
um m
3 3
å¸ Ī
ĠÃ© t
cl ass
ĉĉ ĉĉ
è§ ģ
ë¥ ¼
ab ly
a ction
Ġan s
ãĥ ĩ
Ġim pro
Ġan n
Ġt urn
ord ing
Ġo cc
ç» Ħ
r r
Ġpro p
n ya
Ġor ig
Ġunt uk
ĠT o
âĢĻ re
A p
Ġ --
Ġt yp
Ġd engan
Ġf ield
Ġ >
Ġv iew
cl us
ãģ¨ãģĦ ãģĨ
Ġ util
ition al
æł ¡
ĠS he
Ġne ver
H e
it ch
è§ Ħ
è´ ¨
ç© º
ac iones
ì ķ
Ġsin ce
Ġem ploy
ãģ °
__ __
è® ¤
Ġte xt
ac y
iqu es
ë ¦
ÙĪ ÙĦ
åħ ·
par am
Ġc ult
ĠG o
è¿ ĳ
ĠÐ º
Ġcon c
ä»ĸ ä»¬
} ,
et t
ard s
Ġcom b
è¯ ¥
em s
Ġc ount
ĠM an
Ġst ruct
Ġal ways
å Ķ
åı Ĥ
E C
ir m
rib ut
ri es
Ġne xt
um e
ĠA f
Ġagain st
Ġme an
Ø «
æĶ ¹
Ġhum an
Ġt amb
Ġf ut
htt ps
Ġserv ice
ìĿ Ģ
Y ou
F or
our ces
æ £
Ġtr ad
Ġdet erm
çº ¿
Â »
Ġm aterial
Ġt reat
ĠØ§ÙĦØ £
s el
Ġp ued
ra w
èĩ ³
Ġsign ific
æĢ »
å§ ĭ
Ġprov ide
} _{
b u
éĢ ł
ple ment
Ã ´
ĠÙĪ Ø§ÙĦ
åĻ ¨
ÑĢ Ð¸
9 9
ãĢĤ ĊĊ
æ² »
é£ İ
Ġo ld
Ġben ef
Ġm es
Ġh ard
Ġsit u
D ata
Ġposs ible
æģ ¯
o ver
* {
Ñ Ĩ
è Į
ant es
oc us
ãĥĥ ãĥĪ
Ġs ont
ï¼ļ âĢľ
å¯ ¼
Ġal g
Ġcre ate
Ġse ver
} }Ċ
_ p
è İ
ogr aph
æĶ ¯
é£ Ł
Ġap pe
Ġun d
Ġs ing
Ã© ri
ç± »
E T
um p
Ġc ustom
ãĤ ¦
Ġed uc
ä¸ ĵ
Ã© d
åŁ İ
Ġ id
ï ½
ĠB l
Ġf ree
ä¼ ł
Ġê °
Ġbel ie
Âł Âł
åĩ ł
Ġn ull
Į Ģ
Ġf ile
cent er
Ġde b
iron ment
ac es
R O
Ġin c
åŃ ĺ
as es
Ġd om
cript ion
è° ĥ
al am
el le
ent es
or g
è Ń
Ġev ent
er al
æĬ ķ
Ġind ust
E D
our n
ç®¡ çĲĨ
Ġb ro
ind ow
éĢ ī
æ¯ ı
Ð½ Ð°
erg y
- c
Ġb ody
v ious
Ġus er
ist a
Ġindivid ual
Ġl ot
Ġ â
åĮ Ĺ
ãĤ ª
i ol
Ġpr inci
. l
Ġdon 't
press ion
ä¾ Ľ
å¼ ķ
Ġg re
Ġs at
è® °
Ġs ent
æĿ ¡
] ,
Ã ¶
å¤ ª
iv o
Ġsu re
Ġg iven
d o
Ġpartic ip
Ġl ittle
le v
åĭ ķ
in ter
Ġres pect
Ġprof ess
ç½ ®
Ġproble m
Ġst ep
Ġav ailable
Ġre present
} ^{
Ġ Ùĥ
l ing
Ġpartic ular
åĮ »
ï¼ģ Ċ
il le
ir a
ail s
ç® Ĺ
ĠÂ »
a Ã±
Ġstud ents
è¦ ĭ
Ġme as
ĠC ent
åı į
ur ther
id os
. f
ï¼Į åľ¨
ÙĪ ÙĨ
ĠP ar
st it
åıĳ å±ķ
ê ²
èµ °
ä½ ı
Ġë °
ì Ĭ
Ġresult s
Ġv oid
ĠÐ ´
one y
ãĥ Ĳ
Ġtot al
Ġrec ord
] .
ou d
é¡ ¹
Ġl ight
åĽ Ľ
ĠĠĠĠĠĠĠĠĠĠĠĠĠĠĠĠ ĠĠĠĠĠĠĠ
id es
en ci
Ġab le
## ##
or der
Ġn orm
i j
ab il
ang u
re t
Ġperson al
I ON
ect or
Ð¾Ð ´
Ġd en
19 7
ìĦ ľ
' ,Ċ
ä½¿ çĶ¨
. âĢĿĊ
çº §
Ġrespon s
id ence
éħ į
ãģ« ãģ¯
è¿Ļ ä¸ª
A P
ç ¢
Ġg ot
. t
ith er
åį Ĺ
åĢ Ļ
Ġof ten
Ġ// /
l et
Ð¾Ð »
Ġd ie
Ġm el
m l
. g
Ġs w
æĸ ½
åĥ ı
op y
è »
A D
Ø§Ø ³
å£ °
ure d
Ġchild ren
g in
æ¶ Ī
Ġrequ ire
è¿ Ĳ
o x
ĠT e
\s ection
è§ ī
ff ic
ĠØ Ń
æ¡ Ī
3 1
Ġap p
Ġcomp any
Ġspec ific
l a
è® º
Ġp ub
ys is
ë ĵ
ç ħ
U S
é ł
å¿ «
åı °
3 6
or a
Ġp ri
Ñ Ī
Ġp ap
g a
å® ¢
Ġmom ent
ob al
ãĥ ģ
Ø§Ø ¯
ĠD es
au x
Ġv o
' re
ÃŃ s
idad es
Ġem b
or ies
ap t
Ġj e
Ġcert ain
Ġd ig
Ġsu ccess
è£ ħ
te gr
éĹ® é¢ĺ
Ġ{ {
en n
ãĥ ĸ
f e
aj or
ãĥ ī
O n
æ §
íķ ´
è¿Ľ è¡Į
ê ¸°
op t
ĠB e
end ed
ĠUn iversity
Ġc ur
th ers
id ade
å¸ ¦
Ġof fer
Ġb ar
Ġg ive
Ġexper ience
Ġpro b
al ign
è ħ
ir d
Ī ĺ
ap s
Ġinclud e
Ġin it
Ø§Ø ¨
Ġle ft
ä¹ ¦
ãģĿ ãģ®
Ġacc ount
un ic
åħ ±
Ġe conom
æ¸ ħ
Ġare a
æ° Ĺ
ĠS p
ic ro
Ġme ans
å¦Ĥ æŀľ
ur y
Ġind ic
Ġl arge
em os
çĹ ħ
C ol
ãĤ¤ ãĥ³
Ġg en
ar es
gr ound
éĻ Ĳ
ain t
) :
Ġcour se
åĽ ¾
) :Ċ
æº Ĳ
Ġfamil y
ic y
Ġcor re
Ġne g
con st
3 4
åı ·
ud e
** Ċ
u h
ãĤ ¨
è¯ ģ
k a
æ ĳ
" >
l i
ãģ ĺ
çĬ ¶
l t
ç¡ ®
ä¸į æĺ¯
çľ ¼
Ġl ow
ç ª
Ġserv ices
ric t
ĠEn g
æĹ¶ éĹ´
ĠC ont
Wh at
Ġp en
p ed
at us
Ġs ou
Ġd at
3 7
Ġau x
Ġs ite
ar ing
str ing
z e
åĳ Ĭ
( s
è´ ¹
ur ing
ĠI m
Ġt el
Ġcompl et
al u
Ġcon d
Ġf ri
ç´ ł
ff er
çĶ »
x im
Ġf ull
Ġv ir
ï¼Į èĢĮ
ĠP ol
å¢ ŀ
Ġwh y
åŃ Ĺ
Ġs ens
Ġgr and
Ġre d
æ ļ
ç² ¾
å® ĥ
3 8
Ð¾Ð ¼
ç© ¶
Ġest Ã¡
æĪ ¿
åĪ ĩ
B y
Ġdevelop ment
ĠØ¹ ÙĦÙī
read y
Ġ< /
ä¼ģ ä¸ļ
j et
Ġv ar
v a
æĪ ĺ
Ġcall ed
Ġj ob
Ġit 's
ĠG od
åĦ ¿
æķ Ī
ĠWh en
Ġcol or
æ ¢
è¾ ¾
ĠA t
os s
'' '
an o
Ġas soci
æ Ĳ
Ġper iod
Ø§Ø ¡
Ġtr ab
Ø± ÙĬ
em pl
ï¼ī Ċ
ad er
ir es
ä¾ ¿
Ġen s
Ġcont ent
ĠE m
Ġn Ã£o
Ġche ck
ãĥĥ ãĤ¯
le ction
ĠØ ³
Ġle ast
èģ Ķ
ãĢ Ģ
Ġar r
O S
Ġth ought
æ· ±
ç ·
è± ¡
Ġca us
Ġt en
- p
ÑĤ Ðµ
åĳ ¨
Ġs ize
Ġ ?
res pon
ê µ
i Ã©n
Ġp ath
Ġn at
Ġc ou
Ġgener al
æİ ¨
m o
Ġha ving
Ġunt il
u ch
ĠE uro
Ġso ci
ĉ return
ĠØ§ÙĦØ ¹
Ġph ys
Ġ )
Ġpr ess
èĬ ±
ct or
Ġquest ion
ãĥ ĭ
N o
y d
Ġb ig
if t
çĪ ±
ĠTh at
Ġd ays
Ġd ou
le ment
k ey
k e
il ar
Ġc rit
em a
çİ ĩ
ë Ĥ
is a
çĻ º
Ġon line
ä½ İ
Ã ł
è½ ¬
[ [
id s
Ġm aking
Ġf ood
Ġk ind
um er
5 00
Ġf ar
Ġm er
Ġh om
ï¼Į ä¸Ģ
" )Ċ
ul es
G et
Ġt imes
ëı Ħ
ar on
Ġest a
min ist
å¤ ĩ
il es
c le
Ġm o
Ġp ast
ÑĤ Ð°
0 1
Ġd ire
Ġ er
I G
Ġwork ing
Ġw on
åĩ Ĩ
èĬ Ĥ
ãĤ »
å ¨
Ġc reat
ic os
g en
is on
æŃ ¥
b ol
Ġl ik
ĉ if
ĠIn tern
ic as
Ã§ Ãµes
ib ility
in it
" )
7 5
æł ¹
Ġf ocus
. j
( t
w er
Ġpol it
Ġinv ol
val ue
ì Ľ
port un
S h
w ay
è ĳ
çļĦ äºº
Ġì ķ
Ġ ur
u f
iv ely
åĬ Ł
Ġcomm on
oh n
ãĢĤ âĢĿ
qu est
æ Ĵ
ĠS tring
Ġpos ition
Ġo t
b ject
Ã© c
åĬ ŀ
ì ĸ
Ġdes crib
ãĥ¼ãĥ Ī
ĠC an
çİ ĭ
Ġs ci
Ġstr ing
Ġc amp
os p
rr or
åĽł ä¸º
Ġs ide
e ad
éļ ¾
ãģĵ ãģ®
is ed
Ġne cess
An d
Ã¡ ri
Ġl arg
U R
lish ed
Ġcl aim
Ġab s
( ).
Ġê ²
æŁ ¥
ay er
Ġaw ay
Ġf alse
Ġte ach
åĢ ¼
Ġrequ est
å® Ł
im al
G r
Ġob s
ĠÐ½ Ð°
w ord
åĮ ħ
è¾ ĥ
ill s
Ġde pend
æľ Ľ
Ġal ready
Ġm ajor
ĠA g
Ñģ Ðº
Ġf our
æ¨ ¡
æĹ¶ åĢĻ
ĠWh at
ĠG u
éĺ ²
è§ Ĩ
p ose
ï¼Į ä¹Ł
Ġab ove
og n
ĠHow ever
Ġst yle
d ing
ic ial
ãģĵãģ¨ ãģĮ
éŁ ³
. M
ãĢ Ĳ
Ġlo ve
ãĥ ł
og le
Ġth ing
Ð» Ð¸
Ñ İ
iv al
ag er
per t
ãĢ ĳ
Ġre ason
ism o
ãģĹ ãģ¾ãģĻ
å·² ç»ı
ol ution
æĸ Ń
t es
c ode
ĠB r
Ġd ari
è§ Ĥ
Ġ ÙĤ
Ġe y
Ġdis e
Ġt ell
è¶ Ĭ
v ar
et ic
Ġs ays
æ® µ
math b
Ġex c
Ð¾ ÑĢ
Ġaut hor
Ġex am
ĠTh ese
éĢ Ł
Ġh al
Ġ' '
ĠQ u
Ã© l
Ġco ver
Ġwe ek
Ġcomp ut
çİ° åľ¨
åº Ĺ
I m
Ġrel ations
æĿ ĥ
Ġbe come
å¢ ĥ
f un
Ġ[ [
ÃŃ t
Ġa ir
ĠØ£ ÙĨ
: ĊĊ
ww w
è¶ ³
bo ok
Ġn om
ãĥ ĳ
åĪ Ľ
ant o
Ġ- >
ĠE s
it ar
Ð¾Ð ³
4 8
ad es
è ı
æĪ ·
Ġsh ort
Ġdisc uss
ch o
äº ¬
å¹ ¿
clud e
P ar
å± Ģ
éĸ ĭ
ë §
ï¼Į ä»ĸ
å¼ ł
ÙĦ ÙĬ
å£ «
um ber
n a
ens ion
it es
Ġd one
ãĥ¼ãĥ «
Ġte am
f ect
d ay
ide o
Ġd as
à ¦
ou te
ac ional
Ġgovern ment
Ġo thers
ä¸ Ķ
Ġ à¤
ĠìĿ ´
is es
3 9
il s
Ġsignific ant
Ġcont r
5 5
ĠM in
Ġwh ether
Ġ Ùĩ
Ġam ount
åĪ Ŀ
ï¼Į ä½ł
Ø§Ø ¹
åı ĭ
Ġd ue
end ing
em pt
ç ¶
ĠCh rist
c ing
Ã© g
ä» ĺ
i Ã³
Ġr ange
if f
) ;
Ġcont ain
Ġso ft
or th
I I
è¯ Ĩ
Ġm ax
u is
Ġb ien
åĨ ³
ãģ¾ ãģĽ
19 6
è¯ ķ
_{ \
Ġfin an
Ġc ode
æĺ ĵ
Ġm oney
äº Ķ
ik an
ç¤¾ ä¼ļ
ĠÃ º
Ġrequ ired
as ter
é ¥
_ n
Ġes c
ä¾ ĭ
éĻ ¤
å¾ Į
Ġadd ress
Val ue
çĲ ĥ
Â ·
O r
O M
ä¹ ł
Ġwor ks
Ġappro ach
i ar
å¸ ĥ
T est
çĶ ·
at ors
Ġto get
Ġtoget her
éĺ Ł
Ġenv ironment
å Ĥ
Ġm ind
_ st
im a
Ġs ym
pos ed
æľ ª
Ġen ergy
å¤ į
ãĥ³ ãĤ°
I s
ä» ĭ
Ġme et
è¾ ¹
åĪ Ļ
Ġsever al
Ð ¶
Ġen ough
Ġj ug
Ġb ase
at ures
çľ ģ
Ġt arget
Ġkn own
p ublic
ro du
Ġim age
. D
ìľ ¼
ë¦ ¬
an Ã§
op h
Ġc el
ä¹ ī
ĠP er
ä¿ ®
Ġ ÙĨ
Ġneed s
h ing
Ġal ong
Ġp ers
çłĶ ç©¶
0 5
_ id
ãĤ į
B ut
æ ©
ç Į
Ġchar acter
Ġh ac
Ġor g
ãģ ļ
at an
ĠC o
Ġs es
ãĥ ¥
Ġa ction
a ff
åĨ µ
Ġw omen
Ġimp act
æĿ Ĳ
ë ©
Ãº n
ĠĠĠĠĠĠĠĠ ĠĠĠĠĠ
angu age
Ġt alk
æĢ İ
ou th
und o
Ġt u
Ġcon se
P l
Ġass ert
åĳ ³
å¯ ¾
ãĤĮ ãĤĭ
Ð½ Ð¾
Ġes p
ac c
i ro
E L
ut es
f l
." ĊĊ
ãģ§ ãĤĤ
ìĿ ¸
Ġf ail
in ce
ien e
Ġì ĭ
çĶŁ æ´»
i ers
ãĥ Ł
æ¸ ¸
oc al
ĠD r
i Ã¨re
å ¡
äºĨ ä¸Ģ
Ġsing le
Ġp age
é¢ Ĩ
Ġt ax
4 4
Ġcommun ity
ãģ¨ ãģĹãģ¦
Ġre v
Ġg ame
Ø§Ø ¦
> <
ig ure
ĠS up
Ġd ocument
ç ¿
N ot
ãģ¾ãģĽ ãĤĵ
ĠI l
ak en
ãĥ Ĭ
av or
$ \
ë ł
æĸ¹ æ³ķ
ur ation
Ġwe b
U L
Ġth ough
B u
ĠÐ ¼
ut ions
åŃ ©
åĳ ½
/ s
e ur
Ġf ace
çī ĩ
ÙĪ Ø±
Ð» Ð°
ack age
Ġl ater
b ar
Ġsp ace
ne y
Ġto ol
us er
è¿ĺ æĺ¯
Ġcoun try
Ġpre m
ip s
Ġvot re
çŁ¥ éģĵ
ĠÙĦ ÙĦ
ãĤ ĩ
ãģŁ ãĤģ
èī ¯
ï¼Ł Ċ
H ow
ãĤ¹ ãĥĪ
Q u
åį ³
Ġest ab
Ġcont act
Ġc irc
| |
å¸Ĥ åľº
ru ction
Ġfut ure
è¯ Ń
éľĢ è¦ģ
Ġac ross
ap i
èĤ ¡
å¹ ²
D es
çİ ¯
Ġpat ients
Ġph ot
ĠR o
Ġh or
ut h
. h
æ ¹
Ġspe cial
Ġin tegr
6 5
Ġerr or
Ø º
or ld
O T
ãĥķ ãĤ
å ©
Ġsu gg
" );Ċ
Ġre fer
Ġd iv
ĠC ar
ë ³
Ġe ither
A ll
Ġì §
lo od
Ġf urther
ãĥ £
olog ical
- w
Ġcl os
éĢ ģ
Ġë §
åį İ
Ġt out
Ġ ing
Ġa ch
ar Ã¡
ä¼ ĺ
ãĤ º
l og
ĠC al
Ġdo ing
åĨ Ľ
ĠAmer ican
ament o
Ġ! =
d iv
Ġst atic
u it
Ġact ually
Ġre view
ward s
æŀ Ħ
Ġwe bs
Ġh old
âĢĻ est
ä¸ĸ çķĮ
Ãª n
E rror
Ġm akes
åŃ¦ çĶŁ
è¯ ·
Ex ception
ci ally
Ġc am
Ġprinci p
Ġsugg est
ë ¶
) )Ċ
ï¼ļ Ċ
en ing
led ge
âĢĻ ve
æĺ ¾
ph a
Ġconc ern
Ġris k
is ing
ic ation
im ate
ãĥ Ŀ
Ġrespon se
Ġequ ip
å¤ ±
ĠM ay
æĸ ¯
C H
Ġa ud
é¦ ĸ
ig her
æľį åĬ¡
ĠR eg
Ġb it
Ġst op
it ions
èĲ ½
im um
ÃŃ n
Ġì Ĺ
) );Ċ
K ey
E M
s ide
ç« Ļ
ĠUn ited
æ ¤
ent al
Ġval ues
un ch
ìŀ Ĳ
n ow
ĠC or
Ġam ong
Ġsub ject
ĠA b
Ġs ource
é© ¬
èĲ ¥
åį ´
Ġsim ilar
p ing
ãĥ ĵ
ĠN ot
ãģ« ãĤĪ
Ġbre ak
âĢĻ m
ight s
U T
Ġapplic ation
ĠS ystem
ad ores
col or
op er
Ġsim ple
Ġstr ong
Ġn ous
le y
ĠW ith
at ter
Ġse c
Ġon ce
ĠD o
Ðµ ÑĢ
Th ere
Ð½ Ñĭ
id as
_ S
æµ İ
Ù ĭ
Ġanal ysis
| -Ċ
Ġa o
Ġaut om
è® ®
p ir
Ġinvest ig
æĹ¥ æľ¬
åĨ Ļ
Ġstr ateg
m es
as ing
Ġy a
I M
Ġpre d
ol l
æŀ Ĺ
n es
Ġobs erv
Ð² Ð°
^{ \
m ost
ĠEuro pe
ãģķ ãģĦ
Ġv iol
æĿ ĳ
ict ion
ound s
çħ §
om s
åĨ ľ
Ð» ÑĮ
il t
ru g
l am
ãģĤ ãĤĬ
æīĢ ä»¥
ul a
Ġdif fic
Ġr en
// //
Ġpar am
7 8
EN T
ç¦ »
ag r
d ata
Ġn ue
ç¬ ĳ
ĠAs s
Ġper cent
ĠI' m
í ĸ
Ġh ouse
Ġet c
æĢ ģ
èĭ ±
umm ary
åĬ ©
id ak
Ġbe gin
C T
I L
dit ions
I P
- h
ìĭ ľ
åĲ §
Ġcol l
æĬĢ æľ¯
is ation
Ġv ia
é ¾
ri ed
ï¼ ĳ
( m
um ents
Ad d
è¶ ħ
Ġ* Ċ
Ġreal iz
Ġmemb ers
åĲ Ĺ
åł ±
Ġr ate
9 5
ec ut
Ġe ver
Ġim plement
at ory
Ġd alam
æŃ »
V iew
éª Į
er ing
Ġdes de
Ġse arch
s y
ĠP art
ĠJ ohn
W ith
ess ion
---------------- ----------------
Ġvis it
ient e
åĲ ¬
ç± ³
Ġre ach
ĠV al
ĠS te
Ġ ill
ä¹ Ĳ
Ðµ ÑĤ
Ġcomp an
è¿ ŀ
æķĻ èĤ²
Ġ ir
ì ĥ
en ed
ist ic
ë °
- in
Ġp an
Ġpro te
ateg ory
3 00
at al
Ġì Ħ
Ġr ais
$ ,
ac he
Ġmed ia
ãģ¦ ãģĦãĤĭ
ĠM e
ĠD ep
any a
éĸ ¢
å· ŀ
ĠØ ¬
ĠĠ Ċ
th ough
æĹ ©
Ġtreat ment
Ġcomp on
iv ity
s c
çĥ Ń
Ġrelations hip
A G
Ġim m
Ġp et
Ġcomp et
äºº çļĦ
itt ed
Ġf a
é Ń
Ġd im
éĢļ è¿ĩ
or ed
rib ute
éļ ı
U N
Ġper o
ì Ĥ¬
Ġlos s
. n
Ġtamb iÃ©n
Ġch all
Ġquest ions
ay a
( f
Ġb i
ãĤ·ãĥ §
ou ps
ur ch
Ġsystem s
ÙĬ Ø¯
ast a
E m
Ġhist ory
Ġst ory
Ø§ Ùģ
al t
b a
çģ «
k t
ang an
sp an
Ġe arly
Ġtod o
Ġiss ues
6 6
ĊĊ Ċ
et ers
Ġproduct s
ãģĹ ãģĦ
Ġh igher
ra ft
P h
0 4
éĻ ħ
r an
å§ Ķ
ĠÐ ·
Ġtod ay
Ġvari ous
h ib
Ġop portun
Ġprovid ed
ãĢĤ âĢĿĊ
in ary
ĠM y
Ġp ain
Ġnat ural
uk an
ĠA ct
0 8
p ri
u an
Ġpr int
form ation
ç» Ń
Ġtrab aj
Ġchang es
è® ¸
ãĤĤ ãģ®
Ġlook ing
Ġs yn
ĠaÃ± os
ï¼Į æľī
= \
çı ¾
æİ §
Ġc y
åį Ĭ
Ġconf ig
or ia
ens ive
Ġin put
c il
qu es
æ§ ĺ
ib il
çļĦ ä¸Ģ
A B
ik i
Ġpar te
Ġvers ion
çŃ Ķ
Ġmanag ement
ok en
pt ion
Ġde p
ĠSt ates
æŀ ģ
il der
ĠØ§ÙĦØ ³
Ġdem and
Ġide a
Ġre comm
æ» ¡
ĠS c
Ġcon ditions
ĠB o
çŃ ĸ
re l
p a
Ġsome one
æ¼ Ķ
ãĤĩ ãģĨ
Ġ: =
Ġc red
Ġn uest
Ġqual ity
ï¼Į å°±
Ġs um
åĲ ĥ
ĠÐ ³
err or
åŁ Ł
åĸ ľ
åľ Ł
Ġse en
bo x
ãĥ¼ãĥ ī
æ ĵ
i ally
ÃŃ as
o ff
åĪ° äºĨ
ĠD is
t ype
D E
Ġa ge
ĠO ne
æ± Ł
b lic
us ing
å¾ ·
â ĸ
ãģª ãģı
Ġdis play
{ ~
[ '
ĠdÃ© c
Ġget ting
pr ing
O L
Ġob tain
Ġpri or
ìľ¼ ë¡ľ
pe c
è¨ ĺ
çŁ ³
e z
çī Ī
in clude
åĵ į
æĢİ ä¹Ī
Ġexper ien
Ġ* *
Ġnet work
åĽ ¢
om an
t est
ĠP res
wh ere
Ġon t
Ġm al
IN G
P r
Ġperform ance
Ġnorm al
Ġd ate
pos ition
Ġê ³
è¿Ļ æł·
Ġdiffic ult
ro id
ri ve
Ġf all
Ġbel ow
T ime
A t
} (
ãģĤ ãĤĬãģ¾ãģĻ
æ© Ł
ĠG ener
çĻ ¾
ãģķ ãĤĵ
St ate
Ġre ci
Ġtra v
F F
D e
ĠB ar
Ġt able
ap at
Ġpl ant
Ġf low
ç»ı æµİ
' :
Ġtra ining
pr int
g l
Ġincre ase
Ġcom pr
åĪ Ĺ
\ \Ċ
Ġpot ential
_ C
Ġse x
$ $
Ġfun d
èĩ ´
f ort
Ġw ar
p en
Ġadd ition
Ġdef ault
res h
ç§ °
Ã¡ t
Ġreg ard
æıĲ ä¾Ľ
å± ŀ
Ġbu y
.. .Ċ
le ge
Ġca use
Ġpre vious
Ġm ass
Ġc ette
med i
è¡ Ģ
m it
ï¼Į å¹¶
èĩªå·± çļĦ
åł´ åĲĪ
ÙĪ Ùħ
on a
Ġlearn ing
Ġs ort
Ġwho le
Ġsh all
Ġl ower
r up
æ¸ ©
è´ £
Ġhe art
O bject
Ġup on
ou ch
ĠCom p
ub s
åĩº æĿ¥
Ġorgan iz
ï¼Į éĤ£
Ġro le
ãĥ į
ĠF l
å° Ķ
ci o
Ġacc ording
éĩį è¦ģ
' ]
ãģ§ãģį ãĤĭ
ag ing
od es
p ace
Ġorig inal
Ġwor ds
ï¼Į æĺ¯
Ġc ame
åĪ© çĶ¨
id d
ë Ŀ
/ m
Ġm atch
éĥ½ æĺ¯
u ff
Ġm i
ãĤ ±
Ġcle ar
c d
Ġn i
å® ¤
ç³» ç»Ł
um b
Wh en
S ervice
èģ Į
ĠÐ ±
el t
im iento
he ad
Ġmonth s
on y
æĥħ åĨµ
rib ution
ãģĹ ãĤĩãģĨ
Ġterm s
ÑĤ Ð¸
æİ Ĵ
ver age
å¾ Ģ
Ġl ive
E qu
Ġcas es
cur ity
åº ľ
======== ========
ä¿¡ æģ¯
Ñ Ħ
S o
Ġit u
Ġcons um
Ġl ink
Ġlik ely
pon se
ç Ĩ
åħ ĭ
Ġl and
v is
Ġj ud
( self
al ity
Ġact ual
Ġc ut
Ġt idak
æĬ ¤
S e
. A
£ ¼
í Ļ
Ġcon v
ch a
Ġs cre
Ġf ue
Ġy et
Ġcon text
per ty
ìĬ ¤
æĺ Ł
4 7
éĩ ĩ
ãģ« ãģ¤
ab ase
19 5
Ġde cl
ãģ¾ ãģ§
o ir
Ġpa ÃŃs
4 9
ourn al
Ġm ember
ãĥ³ ãĥĪ
æī ¾
ar ia
ê³ ¼
Ġinst all
ĠP a
éĿ Ĵ
Re quest
ĠS ec
ç ¯
Ð° Ð½
ë ¬
( x
Ġde g
ãģł ãģĳ
f rom
al ah
ĠI N
ãģ Ń
Ġam b
Ġs av
âĢĻ ll
ĠG e
å· ®
Ġcontin u
Ãº blic
- \
ãģ ¹
åĽ½ å®¶
ä¼ Ĺ
éķ ·
ed eral
äº§ åĵģ
ari os
Ġse par
åħ »
Ġtod os
Ġqu ick
Ġp ie
Ġproper ty
Ġhow ever
Ġbl ock
Ġm is
Ġmill ion
htt p
6 8
sel ves
Ġindust ry
pl ied
it ation
Ġcol lect
Ġem pres
Ġtem per
å¾ ħ
Ġgl obal
ur g
è¯ Ħ
0 9
ìĸ ´
èĪ ¬
åĬ ¿
ri x
al ing
Ġh an
ot a
cre t
- st
m m
Ġany thing
. b
ag s
Ġac cept
19 4
ain ed
Ġiss ue
Ġwebs ite
Ġb ad
p at
() );Ċ
ëĭ Īëĭ¤
ul y
åı ¤
ĠSt ate
å¤§ åŃ¦
Ġf lo
Ðµ Ð½Ð¸
Ġse b
Ġì Īĺ
Ġto ok
Ġc ity
Ġr ap
åİ Ĩ
Ġd am
Ġtechn ology
al i
Ġt re
Ġm ach
ers hip
Ġpoint s
æĭ ī
ĠY ork
iv a
Ġcomp lex
Ġn ature
Ġa kan
ä¾ Ŀ
Ùħ Ø§
Ġcl ient
çļĦ æĺ¯
Ġproble ms
åĨħ å®¹
Ġtyp es
ch an
å® ³
0 7
al a
P S
ç¬¬ ä¸Ģ
ag ement
çº ¢
( $
ip le
u y
å ĺ
Ġprovid es
Ġbeh av
ill ed
æµ ĭ
Ġext ra
ĠM on
ãģı ãģł
. org
j ust
Ġcompan ies
ĠS er
yn c
Ġcour t
å¼Ģ å§ĭ
st e
Ġ ...
Ġcom es
Ġdev ice
Ġach ie
Ġr ather
ëĿ ¼
Ġg e
Ġm essage
Ġv ideo
row s
ĠN ational
ĠØ ¯
f il
à ®
ag ed
åŃ© åŃĲ
Ġse em
ãģ¨ æĢĿ
ĠSt ud
ent a
ç» Ĩ
æ¬ ¢
Ġcan not
Ġre p
r c
port s
Ġt i
ap ter
æ¬ ¾
å¾ ®
_ name
Ð¾Ð ¹
Ġ Ñĥ
ri a
Ġn ational
ä¸Ń çļĦ
at form
_ T
S E
C C
Ġel ement
Ġneed ed
0 2
Ġeas y
Ġ Ã¡
Ġart icle
.s et
è¨ Ń
******** ********
åķ Ĭ
ĠC O
Ġstart ed
{ center
) .ĊĊ
éĥ¨ åĪĨ
Ġcell s
U ser
è½ »
Ġinf lu
a use
å¤ Ł
ou ve
Ġsh own
ĠB y
åº ķ
ce ed
plic ation
m od
Ġpap er
Ø ¸
Ø§ ÙĤ
." Ċ
- r
. R
_ b
ar ray
du c
Ġb al
l in
ec k
Ġ& &
al pha
M an
air es
_ P
è¿ ľ
âĢ¦ âĢ¦
S et
Ġare as
l ig
Ġbelie ve
à¥ į
åĳ ¢
Ġh ours
" ĊĊ
Ġt end
Ġknow ledge
Ġinst it
am iento
ç§ ¯
Ġcal cul
Ġcap ac
0 6
om b
Ġs il
ur ance
ou v
Ġsh are
Ġprodu ction
çĽ Ĭ
Ġans wer
Ġro om
Ġent ire
ãĥ¼ ãĤ¹
ãĥ ¢
éĴ ±
ĠØ§ÙĦØ Ń
ä¸» è¦ģ
Ġt w
Ġint rodu
ãģĪ ãĤĭ
ac ed
w ith
è· Ł
Ġde ath
ell ing
å®ī åħ¨
Ġopt ions
ci es
4 6
Ġsol ution
pl ace
Ġve z
æĻ ¯
æķ ħ
Ġme j
. F
N A
" .
m et
Ġf avor
Ġmat ter
ìŀ ¥
an ch
an ks
j e
- S
Ġfil m
Ġw ays
Ġt aken
ãĥĥ ãĥĹ
ï¼ İ
Ġeff ic
åĪ Ĵ
st ance
Ġt aking
ĠÃ ª
åģ ¥
Ġprofess ional
ind ex
Ġ ;
Ġmin utes
Ġm a
A A
äº ²
æŀ Ĳ
oc r
Ġad minist
Ġjug a
å¿ µ
H E
Ġsoft ware
ç¾ ¤
g u
æŃ ¢
Ġan im
ĠĠĠĠĠĠĠĠ ĠĠĠĠ
æĿ İ
indow s
äº Ī
ir l
ç» ´
ad em
ĠH is
ak s
ist ance
ĠE d
Ġp ada
à °
ãģıãģł ãģķãģĦ
Ġs ection
ãĥ¼ ãĤ¸
p i
Ġeff ort
Ġm ob
Ġf em
tr ans
ĠÃ©t Ã©
Ġev idence
Ðº Ð°
æ ¿
Ġcorre ct
Ġbuild ing
Ġyou ng
åķ ı
åı Į
åħ ļ
Ġrel ated
Ġeduc ation
ãĥ Ģ
8 8
æĮ ī
çº ¦
am ed
éĶ Ģ
Ġcor respon
Ġgrow th
Ġcon duct
å± Ĥ
Ġev alu
ãģĹãģ¦ ãģĦãĤĭ
ä» ½
yn am
Ġal most
ãĤ¿ ãĥ¼
æĽ ¸
it ory
and om
äº ī
åı ²
tt p
Ġb ill
Ġout put
$ .
I V
ä¹ °
Ġpre vent
Con fig
ĠC ons
ar th
ĠS ci
p m
Ġespe cially
åį ĩ
ĠS ome
+ +
è «
ì ²
Ġpre t
Ġm ove
{ C
ï¼ Ĳ
ä»¥ ä¸Ĭ
ç§ ģ
âĢĿ .Ċ
S S
om et
r ite
ist as
ĠM ore
ãĤĮ ãģ°
Con text
ric a
Ġcre ated
ìĽ Ĳ
ãĥ Ļ
un a
ic les
Ġd ir
( ),
ib r
Ġë ĭ
Ġto ld
ĠL es
ãģ ¸
ch er
æĻ ®
Ġh ar
ãĥ¼ãĥ ł
Ġmen j
c el
am m
osp ital
Ġfinan cial
emb re
Ġlevel s
è§ Ĵ
n ov
ĠG l
Ġcent er
. P
u z
Ġpre c
Ġcomp os
çķ Ļ
. T
éĢ Ĥ
ð Ł
Ġl anguage
4 2
ik a
ame work
ĠAr t
Ġ} ,Ċ
ish ed
åİ ĭ
Ġf ix
Ġìŀ Ī
ìł ķ
com p
Ġrec ogn
Ġ/ **Ċ
i am
Ġbr ing
- M
Ġcomm e
Ġ" "
åĨ Ĩ
æ£ Ģ
an ced
t d
( n
èµ Ľ
ç¦ ı
Ġg ra
Ġne ar
ill a
ang er
âĢĿ ï¼Į
ãģĹ ãģ¾
Ġì ĺ
é¢ Ħ
4 00
Ġpro ced
Ġcl ose
å¿ħ è¦ģ
m p
el ta
Ġf requ
k en
å»º è®¾
ab a
çļĦ æĹ¶åĢĻ
Ġstruct ure
row n
âĢĻ un
Ġpol icy
_ in
Ġwe ight
Ġp es
èĮ ĥ
à¥į à¤
id ente
Ġ\ %
æĸ¹ éĿ¢
roll er
Ġc ard
ãģ ³
g es
Ġpued e
Ġw atch
ãĤ §
ĠØ ±
Ġw ent
ie f
. st
Ġstand ard
ĠG et
Ġcons ist
iz ing
Ġser ies
åħ ħ
æī ¿
Ġgr oups
å® Ŀ
ĠTr ans
ĠØ ®
r ide
Ð¾ Ð½
ĠN e
g al
( c
0 3
Ø³ Øª
it ing
Ġval id
. L
or ks
Ġc ada
Ġtry ing
Ø§Ø Ń
çĦ ¡
ãģ¾ ãģŁ
Ġ :Ċ
ãģĿ ãĤĮ
Ġhal f
æĿ ¿
ĠIn t
ad ing
ĠØ¨ Ø§ÙĦ
Ġf ive
ä» ħ
æ² ¹
ap an
ãĥ ¯
Ġar ch
Ġdes p
or age
ì ĺ
ç» Ī
in i
ul ations
Ġevery thing
Ġfr ont
ĠA ut
çª ģ
å¤§ çļĦ
ï¼Į ä»¥
Ġeng ine
èİ ·
å¤ ī
= '
Ġform a
Ġap ply
ĠD ec
as a
ar se
Ãªn cia
Ùĩ Ùħ
éĺ ³
Ġconn ect
- se
ic on
Ġcontin ue
ĠJ e
Ġl iter
Ġprob ably
8 5
ub e
Ġto m
Ġm iss
Ġg ar
Ġwor d
å¾Ī å¤ļ
ord in
op s
ĠC our
Ġë ĮĢ
ĠL ist
ç« ł
ĠR ev
Ġexpect ed
Ġì Ĥ¬
a ur
Ġf ont
ë Ĳ
ĠP e
éĿŀ å¸¸
ĠØ¥ ÙĦÙī
Ġdig ital
ä¸į èĥ½
Ġse curity
ÙĬ ÙĦ
ain e
l ation
sy ch
ĠHe alth
Ġassoci ated
Ġsu d
Ġmed ical
g ed
. I
uss i
ëĵ ¤
ĠJ ust
Ġe p
Ġë ³
b it
o in
w a
c ciÃ³n
iv il
ĠĠĠĠĠĠĠĠ ĠĠ
c an
ï¼Į åıª
Ġask ed
æĭ ħ
. e
Ġpr Ã©
Ġwrit ing
m u
Ġb lood
ìĹĲ ìĦľ
ĠY our
' Ċ
ok e
w ise
re ate
è ¼
Ãª me
Ġb es
ĠØ ´
B l
Ġshow s
Ġim ag
Ġc and
ç¨ İ
art ment
Ġex act
Ġcont ra
s s
ĠM ark
j oy
-b ased
æĹ ı
Ġfac il
ful ly
f ile
Ġnecess ary
Ñ ī
ol es
çĶ °
éĽ »
Ġco ok
s k
c ion
Ġf ait
Ġsur face
ĠAd d
( d
Ġus ually
ĠR ec
Ġë Ĥ
Ġent er
â Ķ
idd le
7 7
Ġnot hing
åĲĮ æĹ¶
in er
æ¯ į
ĠR ep
Ġmu y
Ġar m
Ġtr ack
ig r
Ġa y
ĠIn ter
it ude
ç® Ģ
éĶ Ļ
Ġacc om
è ĸ
ãģ¨ ãģª
ĠMed ic
Ġcompl ete
ĠA cc
z o
Ġs ense
í ĺ
å± ħ
å¾ ĭ
ul ly
l im
å¸ Į
ap a
èµ· æĿ¥
oc ol
P I
Ġa qu
æ´» åĬ¨
Ġmus ic
i Ã¨
Ġr ad
de x
ë ŀ
as c
. _
r im
Th at
Ġh asta
æĥħ åł±
Ġc i
Ġback ground
Ġex press
ãģ »
if ier
æľ ¨
tern al
} )
âĢ ¢
åĩ »
Ġmod els
ĠF in
çĻ »
Ġh ost
Ã± o
èĥ½ åĬĽ
åĲ «
iment o
co ver
Ġn ight
Ġmeas ure
éĻ ©
Ġpop ular
ãĤī ãĤĮ
Ġqu ant
Ġstud ies
i i
Ġ= Ċ
g ar
Ġinclud es
Ġag re
åŃ¦ æł¡
amb da
è¦ģ æ±Ĥ
N ew
åį ĥ
èį ¯
B e
Ġì ľ
ï¼ Ĵ
Ã ®
Ġset t
est er
it ter
F ield
y t
Ġp un
} ,Ċ
ass ert
ãģĵ ãĤĮ
el e
Ġt ip
Ġcon cept
ĠS an
è ŀ
ë ĮĢ
Ġpract ice
Ġpr ice
t il
Ġpr Ã©s
Ġl ength
O C
con fig
ĠW orld
Ġmod ern
åĿ ĩ
åº ·
å ³
ĠJ an
Ġeffect s
ãģ«ãģ¤ ãģĦãģ¦
l ist
in ks
it as
F r
Ġsa f
oc ation
g ing
ĠN ov
uf act
é ¤
Ġpop ulation
ĠH er
ott om
Ġcomm and
ic iÃ³n
ast ic
å¥½ çļĦ
ĠP at
Ġass ess
Ġadd ed
åŃ¦ ä¹ł
Ġcap ital
Ġwr ite
Ġcom ment
Ġw alk
Ġey es
éħ Ĵ
O f
é¡¹ çĽ®
Ġh on
Ġm or
Ġl at
ï½ ŀ
at ives
ĠW est
éĻ į
çĭ ¬
em e
mathb f
Ġc ual
19 3
Ġinde x
ãĤµ ãĤ¤
æīĢ æľī
è¿Ļ äºĽ
Ã§ a
æķ° æį®
15 0
\ n
Ġmethod s
ug h
ot o
end ant
Ġmult iple
ĠA ust
è© ±
Ġal tern
Ġconsider ed
h ol
ĠA c
ĠAf ter
Ġf re
ann el
Ġbl ack
åĸ Ħ
y th
b on
Ġres ources
er os
p oint
Ĺ ı
ä¹Ł æĺ¯
Ĩ Ĵ
ag o
Ġfo i
ĠaÃ± o
Ġcon vers
Ġinst ead
Å Ĥ
éģ ¸
z y
is f
ĠP re
M odel
Res ult
è¯ ¾
è¯ »
Ġinde pend
Ġal ign
Ġv an
I R
Ġgr ad
åħ¶ ä»ĸ
F ile
Ġve h
ãģ« ãĤĤ
ann ing
end a
ï¼Į å¯¹
Ġar ray
é¾ Ļ
ï¼Į æĪĳä»¬
. w
é» ĳ
ĠM r
Ġstat us
is er
Ġê µ
ï¼Į è¿ĺ
le ep
æĭ ©
Ġp al
com es
åĵ ª
Ġm arg
Ġest im
Ġdur ante
Ġle ur
in c
O P
d es
ÑĤ Ð¾
ur l
Ġactiv ity
o ot
id ed
ĠCh ina
ĠØ§ÙĦØ ¨
ber t
ĠÃº lt
çµ Į
ì Ĩ
Ġcond ition
b ut
4 1
å¯ Į
Ġleg al
Ġfe atures
Ġth ird
M ap
[ ]
Ġtrans form
å¿ Ĺ
Ġcont ract
ĠIn stit
Ġst e
é¦ Ļ
_ r
è¡¨ ç¤º
ĠØ¹ ÙĨ
g t
Ġs ig
Ġsim ply
à¤ ¾
æĸĩ åĮĸ
b an
ãĢ ħ
é» Ħ
ĠU s
Ø§Ø ¬
åį °
Ġreg ular
åĪ ļ
Ġright s
Ġm ap
ãģ Ĵ
å¤ «
Ġt iene
It em
e q
Ġdise ase
Ġb isa
ĠØ§ÙĦØ ¬
æ ¦
il i
Ġê ¸°
] ]Ċ
ç» ĩ
av es
Ġdec ision
Ġst ay
ç¶ ļ
· ¸
ĠA N
6 7
eb ut
Ġb ag
Øª Ùħ
çĶ ³
è´ Ł
Ġun it
Ġinst ance
Ġdes c
Ġw idth
' ll
Ġfri ends
Ġpre fer
ist ics
Ġadd itional
en v
ĠØ§ÙĦ ÙĤ
Ġrece ived
ãĤ·ãĥ§ ãĥ³
F rom
Ġm ag
åĽ ´
ĠÃª tre
iv os
ri p
èĻ ½
ĠS im
O ver
v est
ĠR et
Ġd rug
Ġmain tain
____ ____
O D
[ i
Ġun ique
Ġw ait
m on
Ġc ab
ãģ£ãģ¦ ãģĦãĤĭ
Ġt al
æĻĤ éĸĵ
Ð¾Ð³ Ð¾
Ġwh ite
ĠĠĠĠĠĠĠĠĠĠĠĠĠĠĠĠ ĠĠĠĠĠĠĠĠĠĠĠ
Ġeffect ive
ÙĦ Ùĥ
O ut
å½± åĵį
up y
- C
åħ į
Ġh ot
å¯ Ĩ
ain ing
Ġse qu
U p
ind ing
Ġë ¶
equ ation
en c
i et
Ġev ents
In t
Ġsitu ation
Ġus ers
ä¸Ń å¿ĥ
ç¼ ĸ
ĠW ill
Ġlong er
r id
am in
éĩ İ
is ions
Ġl iving
Ġg as
Ġits elf
19 2
Ġas pect
In fo
Ġv ida
çł ´
Ġyour self
ĠD ef
Ġrec ent
_ M
ch ange
Ġintern ational
Ġreg ion
9 8
Ġag o
Ġread ing
Ġphys ical
Ġn il
åĲ ¦
Ø ¥
Ġs ix
l abel
iz ar
Ġens ure
l ight
å£ ²
Ġne ces
4 3
Ġan g
Ġinit ial
er ap
Ġdid n't
ãĢĤ åľ¨
ar row
b all
Ġatt ack
æ¥ ½
m en
Ġo il
ĠÙħ Ø¹
Ġ era
Ġ )Ċ
Ġs ist
Ġde al
Ġprot ect
åİ ¿
çĽ ĳ
è®¾ è®¡
Ġcount ries
ç§ »
é º
ãĤ ½
æŃ ¦
Ġde ux
ä¸į åĲĮ
åŁº æľ¬
{ equation
Ġd ivers
ust r
p an
Ġl ic
Ġen joy
d is
math cal
Ġbo x
b ers
ve y
e es
a ctions
' est
R ep
ell es
L es
Ð¾ Ñģ
Ġpro gress
or ing
ä¸į ä¼ļ
Ġun ivers
è» Ĭ
æĶ¿ åºľ
T ext
ë¶ Ģ
ĠS tr
Ġper fect
Ġm ort
Ġav oid
out put
u j
åĪĨ æŀĲ
ĠD ata
F orm
r t
åº §
äº ĳ
Ġo c
Ġa ussi
æł ¸
ä¼ ¼
éĢī æĭ©
e ks
Ġpos itive
Ġwrit ten
Ġlim it
Ġt akes
he ck
. add
ĠIn st
Ġc er
ĠGo ogle
ĠSch ool
c m
å° ½
ĠTh en
Ġvir t
Ġf lex
( p
) \
Ġs Ã©
Ġm it
Ø ¦
un ction
ë© ´
ir it
Ġpat tern
x y
çļ ®
âĢĶ âĢĶ
{ en
ç´ Ħ
Ġwant ed
s ub
ĠS al
Ġa verage
u ge
Ġt im
Ġqu ite
Ġdescrib ed
ĠØ§ÙĦØ ¥
è´ Ń
5 8
Ġf aire
Ġp ack
Ġst ates
Ġgr ound
ãĥ ļ
æĸ¹ å¼ı
ÙĪ ÙĤ
Ġcon cent
ì Ļ
k n
ag a
Ġopt ion
Ġc ross
Ðµ Ð¼
Ġreg ist
Ġex erc
] ,Ċ
Ġm ut
ï¼Į âĢľ
ãĤ ¶
O ne
y ear
ãĥ© ãĤ¤
ĠS m
Ġde ep
çī Į
Ġw all
ĠA pr
ãĤ ¬
Ġl ay
ĠW eb
ell a
rup t
Ġcle an
ï¼Įä½Ĩ æĺ¯
Ġyou 're
- to
Ġtrans port
Ġf it
ë ª
ë Ł
Ġnew s
ãĥ ı
ĠAnd a
unic ip
Ø± Ø¨
Ġa gr
u ros
Ġrem ov
Res ponse
Ġì§ Ģ
}$ ,
Ġdem on
Ġout side
ä¸ ¥
Ġp eng
= {
Ġd ed
- n
Ġh ay
ug ht
ĠD on
æ¯ Ľ
Ġsel ect
ĠØ§ÙĦØ ¯
ãĤĪ ãĤĬ
è¿Ļ ç§į
Ġevery one
c os
Ġì ĥ
``` ĊĊ
ang le
Ġhist or
i endo
st er
im o
g n
åŁ ¹
ë ²
P C
ud a
Ġb and
' d
ä¸ª äºº
Ġme chan
ĠFr ance
Ġthem selves
Ġ| Ċ
å® ĺ
ê² Į
In ter
oc ks
Ġsk ills
cre ate
Ġpur ch
¹ Ħ
Ġa pr
E vent
Ġ íķ
ĠS T
Ġperson as
Ġfor ce
Ġab ility
Ġrel ig
Ġmed ic
ĠM c
D ef
ë ħ
ìĿ ¼
5 7
ä½ľ ä¸º
us ed
D is
Ġactiv ities
es is
bo ard
Ġt ers
er ia
âĢĿ .
Ġem ail
d om
Ġs ust
ĠF orm
ìł ģ
Ùħ ÙĨ
_ F
en ame
ãģ§ãģĻ ãģĮ
C E
if est
6 9
æ ½
b ody
Ġcomp ar
i pe
Ġcult ure
å¤§ å®¶
ä» ¤
é ¸
ĠD E
En t
() ;ĊĊ
pr ise
M S
Ġcons ult
ä¸Ĭ çļĦ
èŀ į
æ² ³
Ġconst it
Ġs ound
ĠR ed
Ġfe ed
Ġt itle
Ġdif f
äº ļ
çı Ń
ÑĤ ÑĮ
ar an
Ġë ĵ
ç¢ º
ĠS outh
Ġm agn
Ġimpro ve
ig en
Ġb on
Ġbeh ind
so ft
ĠØ§ÙĦ ÙĨ
Â «
çĶŁ äº§
P ath
åį ı
em Ã¡s
è½ ½
Ġpe ut
at i
Ġfo ot
ëĤ ĺ
Ġcand id
it ect
( (
ak er
çŁ Ń
é£ ŀ
æį ¢
re et
ä¸Ģ äºĽ
P R
1 20
èª į
ãĥ Ľ
ol a
pt y
åĵ ¡
åĪ »
ÑĨ Ð¸
Ġinclud ed
æ¿ Ģ
Ġcol umn
Ġd raw
Ð´ Ð°
çĪ ¶
Ġpar ents
c ar
ä¸º äºĨ
Ġpl atform
am ma
ĠEng lish
ut o
_ D
ç« ¯
Ġem erg
Ġdon de
Ġchall eng
ĠØ§ÙĦØ ´
Ġsu a
ìĥ ģ
åħ Ń
Ġfl u
Ġse ems
ÃŃ cul
ãģ¦ ãģĦãģ¾ãģĻ
åĭ Ļ
d f
val id
Ġstr ess
Ġpolit ical
Ġstud ent
è§ī å¾Ĺ
ĠM ich
Ġins ide
ļ Į
ĠT est
åŃĺ åľ¨
Ġpre p
in os
ht ml
am i
is i
Ġs low
Ġaut h
om a
ĠP ort
Ġhel d
ĠGener al
ail y
Ġs end
upy ter
con s
| c
Ġd il
Q U
us es
ĠI I
av ing
ĠÐ ¡
Ġp le
åį ¡
ãĥ³ãĥ ī
" >Ċ
ä¸Ģ å®ļ
åıĳ çİ°
Ġb ir
ç´ ¢
Ġm icro
Ø¹ Ø¯
Ġ$ {
we b
ĠD av
r ap
å¿ ľ
Ġcl in
? âĢĿ
Tr ans
Ġch em
Ġcomput er
s a
Ġdou ble
åºĶ è¯¥
Ġcu ando
Ġincre ased
Ġ Ñĩ
im os
å¸ ®
Ġprogram s
. r
ic io
æĹ ħ
Ġ< <
ig ma
é ¨
' )
ri al
er cial
Ġat au
m ission
Ġt ro
âĢĻ une
åħ ´
ĠM us
5 9
è® ²
ãĤĪãģĨ ãģ«
æĢ ¥
Ã ī
Ġs ab
' )Ċ
N ode
ãĥ Ķ
E st
çĽ´ æİ¥
è³ ĩ
- B
Ġc opy
.... ....
Ġaff ect
Ġmej or
ĠB rit
åĽ Ń
ĠRes earch
el ect
iv ate
/ d
åĶ ®
Ùħ ÙĦ
Ġst d
åº ı
am ples
E X
Ġm ix
ìļ ©
Ġdiffer ence
Ø± Ùĥ
j upyter
D ate
} }ĊĊ
19 1
ch es
Â °
åĨ ·
enci es
Ø± Ø©
è¾ ¼
ãĢ İ
Ġl abor
or r
Ġre lev
Ġf ire
è¿ ½
ìĦ ±
it able
åħ «
æĺ ¥
çĸ Ĺ
´ Ģ
Ñģ Ñı
Ġdet ails
âĢĿ çļĦ
æĬķ èµĦ
ÙĪ Ø¯
Ġappro pri
çĶ £
ãĢ ı
i ans
Ġpress ure
Ġh ope
ic ht
Ġunderstand ing
è´ ¢
c ore
Ġv ac
! !
res ult
æľ Ŀ
erm an
æĭ Ľ
o i
i ance
con n
Ġex plic
Ġe j
at ur
Ġv oc
Ġatt ention
çķ ¥
ãĢģ ãĢĮ
. )
I F
Ġrun ning
ĠPa ul
Ġdif er
Ġc es
] [
Ġbe c
Ġpor que
Ġhim self
Ġfri end
ign ed
iz er
Ġtrans fer
te ger
ä»ĸ çļĦ
Ġp ed
Ġbl og
cont ent
ĠC ity
Ġc it
ìł ľ
Ġsat isf
Ġm ention
' ve
Ġmen y
Ġs n
èĭ ¥
Ġm undo
Ðº Ð¸
h am
Ġman ufact
Ġor d
un s
Ġwr ong
ç´ §
er ve
Ġfor ward
Ġhand s
s es
ĠA ug
Ġmay or
Ġaut o
s ummary
åĪ ¤
ou ble
l as
Ġpat ient
åĩº çİ°
M y
Ġp Ãºblic
air s
Ġbe aut
ĠB u
con tr
Ġeconom ic
ãĥª ãĥ¼
Ġv on
æĿ ±
Ù ĳ
Ġgr aph
_ h
in ition
ãĤ Ģ
Ġhe av
Ġest ud
åı ¦
å½ ķ
Ġf ast
in n
Ġbenef its
ä¹ĭ åĲİ
ì ¹
it os
un k
Ġappe ar
ud ad
. B
Cl ass
Ġhac er
æ³ ¢
Ġsa w
ar c
, \
Ġlo ad
Ġj u
ç» Ŀ
åĲ ¸
ãģĳ ãĤĭ
æĺ¯ ä¸Ģ
Ġdef ined
æĤ ¨
pon ent
Ġë ª
ä¾ ¡
ist ry
Ġinvol ved
ï¼Į åħ¶
ç»Ħ ç»ĩ
Ġallow s
ä» ķ
ĠV er
h r
ä¼ ¤
Ġfact ors
Ġloc ation
èª ¿
T S
Ġle ave
Ġgr an
im age
ĠAmer ica
ä¸ ¾
Ġr at
Ġsci ent
ist e
Ġstr ength
Ġel ements
s l
åķĨ åĵģ
ur t
Ġt it
ĠN orth
de v
Ø§ Ùĭ
äºº åĳĺ
ĠC ount
Ġn ut
el a
app ing
æĭ ¿
act ive
Ġpre par
Ġpart s
Ġreport ed
t ies
Ġdi agn
is is
ar ies
Ġad ult
R A
Ġso on
Ġrem ember
Ġcap t
lic k
Ġdevelop ed
Ġp ick
ient es
ä¸Ģ èĪ¬
Ð» Ðµ
Ġcomm it
æŁ Ĳ
5 6
U s
re a
è½ ¯
Ġ );Ċ
æĪĳ çļĦ
Ġdemon str
ro om
um an
us iness
ĠN one
ãģŁ ãģĦ
ĠL os
Ġ$ (
Ġìł Ħ
Ġ Î
Ġmarket ing
Ġcred it
u v
ĠH ar
ĠPro gram
C ode
Ġsub s
Ġit em
ãĤ¹ ãĤ¿
Ġim medi
Ġdesign ed
Ġpub lished
ĠÐ· Ð°
o o
äºº æ°ĳ
èĥ Į
gr aph
å· ¦
çĹ ĩ
Ġtra vel
Ġf ra
Ġnom bre
èĦ ¸
D F
S er
çĽ® åīį
Ġsom et
_t ype
Ġl ives
Ġdirect ly
æ¯Ķ è¾ĥ
ä¹ ħ
å© ļ
h old
å·¥ ç¨ĭ
Ġop in
- g
uc le
å¦ Ī
Ġad alah
oc o
Ġj ava
Tr ue
Ġin j
Ġb ank
Ġg est
u ent
Ġatt empt
Ġs ans
ĠS ant
Re ad
ec ause
Ġad apt
Ġspe ed
ï¼Į å¥¹
Ġcan cer
A tt
> >
Ġê° Ģ
Ġpro pos
åħ³ ç³»
ar ily
í Ĭ
- P
Ġ __
- v
èĩª åĪĨ
Ġapplic ations
ail ed
ĠO ur
h as
ag on
æĵ į
äº Ĵ
Ġmil it
çİ ©
ef ore
ãĤĵ ãģª
erv ices
al d
Ġdoes n
ole an
ĠÐ °
ä½ Ļ
ãĥ ľ
" ;Ċ
Ġcost s
åı ³
ĠIntern ational
ĠTe chn
ĠD i
ĠJ es
ĠS et
Ġ ut
é¡ »
ĠS ol
b t
ĠCent er
) (
Ġd ro
+ \
b ih
le h
ron ic
R ec
Ġbec ame
.. /
Ġprincip al
Ġabs ol
Ġv a
Ġti em
èĩª çĦ¶
Ġc ry
A f
b or
éĢ £
m os
ell ow
éĵ ¶
end re
M od
Ġdire ction
Ã¡ri o
ãģ® ãģ¯
Ġin cl
M L
Ġpart y
n d
. in
Ġindividual s
Ġl ug
ĠS i
ffic ient
å¯ Ł
Ġcom ing
èī º
ativ a
ĠO ct
Ġpe u
Ġt our
å¸Į æľĽ
Ġa im
Ġacc ur
æ³¨ æĦı
Ġany one
Ġcas o
è¿Ļ ä¸Ģ
Ġ ult
## #
H and
Ġm Ãªme
Ġcomp ared
è Ĩ
Ñ Ĭ
ter m
ĠD el
Ġhe ight
æĪĲ ä¸º
t ime
ç½ Ĺ
ES T
Ġs en
ag ai
Ġst ore
Ġact ive
ograph y
com ing
Ð¼ Ð¸
ou l
íķĺ ëĬĶ
ĠL o
Ġcel eb
Ġb ed
A cc
A m
vers e
ot al
åĢ ĭ
ç» ľ
çĹ Ľ
ell o
u ary
ac ing
as ons
Ġcustom ers
Ġoff ice
Ġfe ature
Ġincre asing
R eg
" .Ċ
Ġj our
Ġtool s
Ġtr Ã¨s
Ġn ode
re c
ed ia
Ġform at
' un
ĠCour t
Ġe in
å· Ŀ
çİ¯ å¢ĥ
é¨ ĵ
ĠC oun
ith ub
Ġd oc
k ing
Ġwor th
Ġmaterial s
ÑĢ Ñĥ
Ø§Ø³ Øª
Ġpr Ã³
Ġse a
Ġbook s
p ackage
èĻ½ çĦ¶
Ġp lease
Ġaut or
Ġse u
åı «
Ġfor e
ä¹ İ
it Ã©s
Ġst aff
ãĥĨ ãĤ£
ĠâĢ ¦
19 0
Ġdoes n't
ĠWh ile
èĤ ī
ir t
çĽ¸ åħ³
ä¸Ģ æł·
Ġdid n
ri er
ab led
ĠH ol
Ġb ud
Ġconst ant
p y
ĠĠĠĠĠĠĠĠ ĠĠĠĠĠĠ
Ġmem ory
ĠS w
ativ ely
æĪĸ èĢħ
Ġrece ive
Ġredu ce
Ġr Ã©s
Ġp em
an z
ê ¸
åĩ ı
x i
ier no
Ġpret ty
Ġhab it
aj e
P L
Ġin nov
Ġcent ral
In dex
ä»£ è¡¨
çģ µ
_ N
ĠIn c
ing ton
p es
Ø¨ Ø±
ess e
ç» §
ãģĹãģ¦ ãģĦãģ¾ãģĻ
ter ior
Ġh y
ì Īĺ
Ġim ages
è®¤ ä¸º
Ġs ector
ĠD irect
el ine
ÂłÂł ÂłÂł
è¾ ĵ
ĠI S
å± ĭ
ĠP al
Ġf ig
6 00
U M
Ġp ict
us ion
åį ļ
P E
æľ ĭ
æĻ ļ
umer ate
ë§ Į
Ġc in
Ġno v
D o
L og
ĠS a
åı ¥
ĠR uss
ä¼ ĳ
ç¾İ åĽ½
ãģĿ ãģĨ
Ġt ouch
å¥ ĩ
Ġser ver
Ġm Ã©d
Ġus es
Ġres id
åĸľ æ¬¢
Ġad a
æĪ ı
ĠN ow
ë³ ´
I A
ins i
çł ģ
ĠS en
é ¼
or ith
é¡ Į
Ġc os
se e
Ġl iv
ig o
m ore
ff ect
ë į
Ġf elt
ĠSe e
Ġgre ater
âĢĻ Ã©
å¼ Ĥ
Ð¾Ð ±
Ġtemper ature
Ġmult i
ah an
Ġac qu
Ġj un
ous ly
g s
b ed
å¤ ľ
å¦Ĥ ä½ķ
Ġespe cial
å¼ ·
ĠW ar
Ġd og
Ġident ify
é ²
åıĤ åĬł
ac a
ĠIt 's
Ġg irl
Ġex pression
st ract
Ġcol lection
ä¸ĵ ä¸ļ
Ġb ound
è¿ °
ther n
% %
ĠG re
çķ ª
ĠM arch
Ġpel o
¡ °
M essage
Ġcr Ã©
ens ity
çĦ¶ åĲİ
pre t
p ath
st ant
- align
Ġ( )
Ġex cept
Ġs ed
æī §
Ġt ur
Ġcho ose
os is
Ġpur pose
Ġc ru
Ġd rop
#### ####
Ġide as
Ġon es
éļ Ľ
Ġsa ve
9 7
n el
/ or
ĠÐ½ Ðµ
ä¼ļ ç¤¾
Ġnot e
Ġs qu
Ġdown load
ĠSe pt
Ġwon der
arg o
Ġsp ect
Ġl ines
i at
æŁ ĵ
Ġro t
Ġit ems
Ġp sych
Ġsk in
èĦ ĳ
ĠDep artment
çµ Ĳ
Ġl leg
Ġto wards
ÑĢ Ð¾
ÙĬ Ùħ
ef ul
- up
Ġp ush
Ġê² ĥ
Ġl ack
> </
åĢ Ĵ
T able
on om
Ġal t
u ir
vent ion
èĭ ¦
Ġdo or
Ġse ason
h aps
Ġprim ary
è® Ń
Ġwe eks
ĠB er
Ġl ab
fun ction
æī ¹
Ġd apat
Ġt as
Ð¾Ð º
ãģ« ãģĬ
ç ¹
ï¼Į æīĢä»¥
ens es
yd ro
ĉ public
Ġcurrent ly
ãģĮ ãģĤãĤĭ
Ġfil es
èŃ ¦
Ġdel iver
è Ĵ
ĠL et
ĠT ra
Ġbe gan
ĠAust ral
Ġp and
Ġre ference
æŃ Į
ç¬¬ äºĮ
æıĲ é«ĺ
ë ¯
Ġbu ilt
âĢĻ h
ĠJ os
éĿ ©
ãĥ İ
Ġtamb Ã©m
' ;Ċ
Ġde cre
. N
c ast
ĠE duc
Ġl ate
- de
v oid
ier on
è¨ Ī
Ġcommun ication
åıĳ çĶŁ
A b
Ġde part
} =
arg a
act ory
D A
Ġp ull
Ġí Ļ
m ing
Ġbas is
ch en
Ġsol id
æĿ¥ çļĦ
è¿ĩ ç¨ĭ
åģ ľ
Ġìĭ ľ
âĢ ĺ
Ġenc our
åľ° æĸ¹
Ġb order
Ġnum bers
L o
åī ¯
ìĹ ħ
Ġfunction s
Ġthrough out
h an
Ġthere fore
å¯¹ äºİ
el es
æİ ¢
¤ ĳ
Ġopt im
ĠØ§ÙĦ Ùģ
çľĭ åĪ°
st ruct
Ġeas ily
Ġdeg ree
Ġd in
Ã ¹
à¤¾ à¤
Ġr ules
pl it
Ġcan 't
Ġun o
ãģĪ ãģ¦
Ġc op
è Ľ
P A
Ġdeterm ine
Ġm ode
æł¹ æį®
k er
icro soft
è¡ £
Ġse cret
Ġw in
Ġsol utions
l ambda
5 2
Ġlim ited
> ĊĊ
Ġro ad
Ġm ant
Ġsol o
{ item
èĥ½ å¤Ł
ib er
Ġt ab
Ġent r
Ġb all
is iÃ³n
éļ ľ
Ġthink ing
Ġexper iment
q l
Ġsaf ety
ï¼Į åı¯
â ĳ
ìķ Ħ
Ð² Ð¸
Ġro b
Ġrecomm end
T T
æľĭ åıĭ
Ġoff icial
ãģ«ãģª ãĤĭ
ĠÙĩ Ø°
Ġproject s
Ġquick ly
Ġconn ection
ĠP ublic
éĿ Ļ
éĺ ¿
ÃŃ an
åıĸ ãĤĬ
{item ize
] ;Ċ
ĠN et
ĠInd ia
Ġmach ine
Ġser ious
- pro
åŃ £
ĠH ere
St atus
' );Ċ
æĭ ¬
ç ĵ
end e
el ess
fun c
Ġmean ing
em p
E O
ro y
w idth
Ġoff ers
Ġopportun ity
Ġem ot
ap er
ar roll
Ġf ab
ir ing
ä½ľ çĶ¨
èª ŀ
êµ Ń
ãĥĹ ãĥŃ
~ ~
h at
ob ject
b um
Ġmon itor
v ement
Ã³ s
a ign
Ġk ar
ãĤĪãģĨ ãģª
Ġv ent
c ite
Ġsci ence
O pt
åĿ ļ
ill er
íĻ Ķ
Ġsomet imes
Ġv it
Ġref lect
Ġbas ic
ĠH ist
Ġn ames
Ġg ives
Ġf irm
æ¥ ¼
Ġsign al
ĠI D
Ġex ecut
Ġas ÃŃ
ĠM ad
Ġch arg
ĠM art
ateg or
ĠÐ Ł
ĠF rom
b eta
te e
Ġl ost
Ġ ÑĢÐ°
Ġrequire ments
çļĦ ãģª
åį «
è³ ª
Ġpred ict
on n
Ġmarg in
Ø¨ ÙĬ
ĠO ut
ur ity
èĭ ı
æĤ £
Ġspe cies
( &
æĽ ²
Ġ ÑģÑĤ
B C
Ġproper ties
Ã¡ l
Ġbehav ior
Ġ ÑĤ
. is
Ġorgan ization
âĢĻ d
ä½ł çļĦ
# include
Ġinc or
Ġ čĊ
ci as
Ġd ia
Ġ/ *
çµ Ħ
å®ŀ çİ°
ĠAs soci
éĢ ²
ĠS ur
Ġm ess
. util
( b
æ± º
Ġsay ing
æĦ ¿
Ġp ul
. ex
en ge
Ġtr ust
Ġb ur
l or
ç Ĵ
Ġre pl
Ġdist ribution
Ġs leep
Ġreg ul
add ing
Ġf at
ĠPro f
Ã§ o
Ġpol ic
c r
ç½ĳ ç»ľ
Ġters ebut
Ġv ict
iz es
åİŁ åĽł
ï¼Į ä»İ
V ID
gr oup
iss ions
Ġup date
om m
o ber
ĠØ Į
ĠO ff
Ġass um
Ġorig in
Ġk new
ĠM od
o e
Ġ\% $
æĿ ¾
S ize
az on
ãĤµ ãĥ¼ãĥ
ĠO f
p et
8 00
C R
ÙĨ Ø§
en o
Ġd ar
As s
ers ion
re w
or ge
ìł Ħ
Ġest Ã¡n
Ġw oman
ind a
åĿ Ĺ
im ents
Ġv os
Ġob jet
Ã¼ r
é¢ Ŀ
Ã Ł
Ð» Ñı
çĽ ĺ
d own
è´ §
s m
Ġres ol
Ġt ask
Ġass ist
Ġcustom er
Ġm other
Ġlook ed
Ġë ı
ÃŃ st
us ter
Ð¾ ÑĤ
g y
Ġf ight
Ġant i
éĢ Ģ
Ġre le
av ig
Ġch a
Ã »
. W
åĬ ¹
{en umerate
ra f
ph i
Ġsur v
ĠP or
Ġtiem po
Ġd ark
Ġs ect
ed er
u ciÃ³n
æ ĩ
ç¨ ®
Ġth us
M A
en z
Ġle bih
å² ģ
Ġstep s
Ġm ere
m ap
. pro
ãĢĤ æĪĳ
Ġl ÃŃ
ĠUn ivers
åº Ń
olog ies
í ĥ
Ġt ent
è¯ ī
cl os
ĠD an
éĻ Ī
ĠS u
í ļĮ
Ġus eful
Ġexper t
Ġh ol
5 1
Ġun s
L os
_ i
æĿ¡ ä»¶
mathb b
Ġfil ter
Ġth erap
Ġ .Ċ
ä¸ ĥ
åį ł
å® ¡
ç¥ ¨
Ġconst ruct
ĠØ µ
ĠĠĠĠĠĠĠĠĠĠĠĠĠĠĠĠ Ġ
par ent
Ġbo ard
æ´ Ĺ
an cy
åĵ Ī
Ġocc ur
or ial
ĠÃ© l
Ġcho ice
Ġst ock
Ġa plic
Ġcl ients
ĠF irst
Ø§Ø µ
ÙĬ Ø³
é ½
A g
orm al
æĻ º
Ġperform ed
ç ĩ
om as
Ġsw itch
Ġchar ge
åĳ ¼
le m
Ġins urance
Ġs Ã£o
ØŃ Ø¯
G ener
et es
å® Ī
Ġm ental
Bu ilder
è¿Ļ ä¹Ī
ì £¼
ãģ§ãģį ãģ¾ãģĻ
? ĊĊ
Ġoper ation
Ġh it
ĠGo vern
æĽ ¾
ĠApr il
Ø± ÙĪ
ill ing
ä¸¤ ä¸ª
Ġob lig
f ield
Ġpol ÃŃt
åĮĹ äº¬
ess o
ri ef
Ñ ĺ
Ġup d
w orks
çļĦ è¯Ŀ
pect ed
ÙĤ Ø¯
ep h
Ġs old
Ġl ed
æĿ Ģ
è¡ ¥
ace book
ĠC ap
Ġh ospital
ãģ¨ ãģ¯
åģ¥ åº·
in ar
Ġc ir
en u
Ent ity
ç ŀ
Ġsa fe
ort e
if orn
éħ ¸
Ġt ous
_ B
Par am
ãģ§ ãģĤãĤĭ
ĠAn g
å· ´
ĠL aw
è ¬
Ġappropri ate
Ġb rain
Ġtem por
íĬ ¸
S c
ï¼Į è®©
Ġpart ir
Ġmill ones
Ġl lev
Ã³ g
ãĥ Ħ
Ġr ates
Ar ray
i ation
ĠL ond
Ġb a
L O
Ġdef init
ĠU p
i able
Ġmenj adi
Ġf uer
ãģķ ãģĽ
ĠØ§ÙĦØª ÙĬ
ion e
ber g
h ood
Ġpel a
Ã¨ me
Ġh id
ĠJ une
ç £
Ġs ac
ãĥ© ãĥ³
Ġd ynam
Ġcont ains
/ p
ãģĻãĤĭ ãģĵãģ¨
b al
Ġs ample
åŁİ å¸Ĥ
äºĭ æĥħ
ĠC r
ĠE sp
Ġvis ual
Ġsit es
ant age
èı ľ
il ter
Ġd ÃŃa
æľĢ åĲİ
ä¹ Ŀ
ord s
Ġhe at
Ġprodu ce
ãģķãĤĮ ãģŁ
ĠS ub
G o
çº ª
ud o
è¿ĺ æľī
Ġcon oc
Ġform er
å¤ ı
Ġgr up
e ch
Ġparticular ly
ç« Ł
u Ã©s
. H
P or
oun ter
çĶ ļ
ĠO F
AT ION
Ġ( !
n ers
m ax
æ¦ Ĥ
il os
ic ios
k y
Ġlead ing
åĽł æŃ¤
Ġst age
Ãº s
Ġs ang
A ct
å¤Ħ çĲĨ
ãĤĵ ãģ§
se c
ãģķãĤĮ ãĤĭ
Ð¾Ð² Ð°
UL L
an j
è¿ Ķ
Ġst ra
Ġadminist r
æħ ¢
Ġhel ps
Ġmen os
ä»· æł¼
Ġser Ã¡
R I
Ġt ah
ĠB ank
ib les
Ð² Ð¾
éģ ĩ
Ġcomplet ely
èĳ Ĺ
Ġrec ently
Ġot ros
ç§ĳ åŃ¦
ãĢĤ âĢľ
Ġg Ã©n
ìĻ Ģ
Ġt an
ãĢĤ è¿Ļ
Cl ient
Ġ ign
Man ager
ĠM al
ag ue
yth on
Ġde ad
en as
a el
a Ã§Ãµes
è° ¢
ä»¥ åıĬ
Ġs ido
ĠÐ Ĵ
à ¸
Ġsal es
éķ ĩ
Ġwork ed
Ġcont ribut
5 3
ens ions
Ġrequ ires
ĠPres ident
Ġdes cription
Ġpr ime
Ġr adi
ãģĹ ãģĭ
Ġc amb
è ĵ
ï¼ ĵ
//// ////
Ġprovid ing
âĶ Ģ
Ġwh ose
Ġf air
Ġvari ety
h ia
Ã± os
Ġex pos
se qu
2 50
g un
and a
os itory
Ø ¤
m ark
em at
Ã´ t
Ġhe ard
est s
Ġ ^
A ut
m itted
ĠK ing
k in
Ġr andom
Ġsc ale
ra v
åįķ ä½į
Ġgo es
ĠF eb
ĠØ§ÙĦØ ®
éģ ĭ
agr am
å® £
clus ion
od o
Ø¹ Ø©
Ġconst ruction
äº ¿
Ġgener ally
Ġst ru
aÃ± a
ãĢĤ ä½Ĩ
Ġd ent
Ġcl ick
ar ter
18 0
> (
am an
Ġprom ot
f low
Ġr ule
ell ig
att le
åħ¨ åĽ½
Ġdist ance
Ġm erc
; "
ch eck
ĠrÃ© g
Ġn or
arg s
Ġth row
Ġro ll
Ġg ave
l ink
Ġexist ing
ç»ĵ æŀľ
ĠT w
E s
Ġcrit ical
Pro perty
ĠH igh
Ġ Å
n y
ĠS pe
ic ult
í Ħ
Ġl ie
æĢ ķ
ĠI d
Ġd ont
Ġt anto
Ġf ine
ig e
ãĤ¤ ãĥ«
Ġal one
Ġl abel
Ġ{ ĊĊ
å®Į æĪĲ
ĠD ist
Ġc ivil
C O
Ġres ource
v ider
ï¼Į ä¸º
S i
Ùĥ ÙĨ
Ġgo al
ym bol
å½ ©
Ġmoment o
ĠR el
ï¼Į å¦Ĥæŀľ
ĠD em
- D
el er
ĠM or
ãģª ãĤī
Ġre ve
Ġfact or
at abase
Ġa ctions
çĶ± äºİ
Ġemploy ees
Ġrespon d
def ault
Ġcor por
ate ur
um in
h ar
9 6
çĸ ĳ
Ġhigh ly
ru it
Ġhe ar
_d ata
è¡ ĵ
Ġprot ection
Ġdis cover
Ġstat ement
ĠSo cial
Ġë ¬
Ġen h
pr ime
Ġs Ã³
çľ Į
m i
Ġpre v
Ġext rem
t imes
Ġpod er
Ġvol ume
Ap p
Ġ} ^{
Ġgu id
ãĢģ Ċ
any ak
Ġsup ply
æ¯ ķ
ĠÃ ī
Ġ= ==
f a
è° ģ
Ġc art
Ġlib r
ra el
Ġth reat
Ġf ederal
Ġpar ent
Ġd rive
å¥ Ĺ
T H
ĠĠĠĠ Ċ
f s
åģ ĩ
æİ§ åĪ¶
an cia
Ġv iv
è¡Į ä¸ļ
Ġk ids
åĨ ²
Ġoff ic
Ġpro y
Ġs an
Ġcompon ent
Ġess ential
ĠR em
8 6
Ġê ·¸
Ġl ui
Ġs ell
il on
æĦŁ è§ī
Ġf u
Ġno vel
Ġp ages
Ġpl ans
k i
ien cy
ĠAp p
ĠJes us
åħ µ
gr ad
Ġe arl
Ä ±
Ġprocess ing
S P
ãĤ¹ ãĥĨ
Ġvo ice
ov id
è£ ½
Ġw ish
Ġv ie
atic ally
5 4
F A
ĠAug ust
un ci
é¢ ĳ
C ategory
empl ate
form at
ĠM et
Ġcare er
Ġh op
Ġro ot
Ġph one
Ġre con
æĶ »
ann ya
Ġparam eters
as ion
l en
Ġcoll abor
Ġthat 's
ìĬ µ
og en
Ġpo or
, ĊĊ
ch ar
æĬ Ĺ
pect ive
Ġc at
ä¹Ł ä¸į
ĠM ac
ĠIn s
Ġ íķľ
ãģ® ãģĭ
un der
Ġturn ed
ÙĬ Ø§
Ġl ayer
ãĢį ãģ¨
ĠH ouse
ĠM o
Ġw ide
Ø¹ ÙĦ
Ġdev ices
ĠSept ember
ç¡ Ģ
Ġpres idente
\ _
- year
Ġco ol
ĠB el
Ġm arch
Ġ ..
Ġqu ien
Ġcreat ing
M P
Com m
ĠT HE
Ġk ep
Ġ q
un es
Ġmy self
AT E
Ġto wn
Ùħ Ø©
iforn ia
æ¸ ¯
i ant
çĻ Ĥ
éĥ¨ éĹ¨
åŁº ç¡Ģ
j er
Ġqu el
Ġtechn iques
8 7
éĵ ģ
Ġì ļ
ãģĮ ãģĤãĤĬãģ¾ãģĻ
Ġtri al
cl es
Ġr out
ëı Ļ
[ "
Ġa x
qu ad
Ġallow ed
is l
åħ· æľī
åĽ½ éĻħ
Ġintern et
Ġarg ument
ëħ Ħ
å¿ħ é¡»
id en
ES S
ĠJ apan
{ align
y r
Ġd aily
is c
Ġap plied
ĠU K
ãĤ ĥ
Ġobtain ed
Ġbo ol
Ġstrateg y
Ġutil iz
Ġmin ist
Ġel le
est e
æłĩ åĩĨ
Ġthe ory
d d
ä¸ ´
Ġdirect or
ul f
åĿ Ĳ
Ġsym pt
1 10
al ed
F IG
s i
ãĥķãĤ ¡
åĪ¶ åº¦
ä»¥ ä¸ĭ
Ġtr at
å° Ħ
åī §
Ġch ance
Ġv ert
Ġf ather
ä¸Ģ ä¸ĭ
ĠB ras
Ñ į
tr ue
ĠDe velop
Ġscre en
Ġcons erv
os a
Ġpod r
Ġgre en
Ġcommun ic
pl ies
Ġinst r
Ġsch ed
Ġchang ed
åı ¶
Ġdis pon
. [
Ġap ro
Ġn as
Ùģ ÙĬ
Ġaw ait
Ġestab lish
ĠPro ject
ãģı ãģª
el ete
Ġperm it
Ġimport ante
æİ Ī
Ġsoci ety
ĠP ark
ä¸Ģ èµ·
Ġel e
ĠK e
çİ ī
r ich
Ġe arn
P er
Ġen f
m ar
l os
ç» ĥ
Ġf ully
b and
Ġreg ister
S he
Ġf az
Ð¼ Ð°
\ left
Ġread y
íķĺ ê³ł
Ġres erv
kn own
r ir
æĺ ł
ĠEurope an
ĠS ervice
Ġb ah
ĠBl ack
cd ot
Ġc atch
æ¶ ²
Ġad opt
Ġinter face
Ĩ µ
ĠCount y
Ġgrand e
æ¯ Ĵ
Ġset ting
om in
Ġinter view
Ġo leh
an i
Ġcou ple
con text
ian a
Ġnot re
Ġsuccess ful
ĠGr oup
}$ .
m ult
Ġb aj
ĠA rm
u at
Ð ¡
å®Į åħ¨
Ġh ous
Ġre lease
ĠJ uly
æĶ¯ æĮģ
le vel
f ord
Ġinvest ment
Ġs we
Ġin come
Ġci udad
ak ukan
Ġbro ad
åĪ ¥
Ġt on
ed s
Ġget s
éĽ ¨
ĠV ol
ĠØ§ÙĦØ µ
ient os
Ġf arm
Equ al
åĬŁ èĥ½
Ġt or
Ġm id
R et
Ġsel ected
Ġprocess es
æ¤ ľ
åħ ¸
ĠIntern et
Ġbenef it
Ġcon vert
}{ \
éĹ »
ĠDav id
åĪ ĺ
g est
- re
Ġre pe
ĠÃ© gal
Ġhealth y
æ´ ¾
Ð´ Ð¸
Ġen contr
ien en
Ġëĵ ±
( a
Ġs ources
æķ £
yp es
ãĤŃ ãĥ£
requ est
ĠS el
å ´
ä»Ĭ å¹´
Ġg ames
ak a
ĠT er
Ġbr and
éĤ£ ä¹Ī
ic ol
Ġant es
Ġp ens
ĠCol lege
pl o
lo at
å ª
Ġ row
Ġk ita
Ġnum er
ĠO b
çļĦ ãģ«
ones ia
$ ĊĊ
çľŁ çļĦ
C L
Ġmob ile
âĢ »
In put
te x
Ġtr ade
T O
e urs
ãĢģ ãģĿãģ®
v as
ãĤı ãģĽ
Ã ¥
in as
E E
Ġf al
ï¼Į åĽłä¸º
Ġo l
ro te
ä¸į è¿ĩ
Ġrelev ant
è° Ī
ĠP ost
Ġp u
ĠB en
Ġdis pos
ĠJan uary
ï¼Ł âĢĿ
M e
Ġs ong
- F
ib ly
at en
Ġgrow ing
ou ter
ert a
å¹ ħ
ig a
ãģĭ ãģ£ãģŁ
Ġalg un
åĽ º
ãģĭ ãĤĬ
Ġb oy
Ġh arm
oc a
Ġbe y
Ġequip ment
Ġd it
Ġper t
Ġbr ought
ak t
ĠB ro
hor a
Ġintern al
Ġm ai
ãĤģ ãģ¦
Ġstart ing
Ġdes arroll
éģ İ
Ġla unch
S el
Ġexact ly
s up
Ġne igh
Ġconst ru
ãģĹ ãģ¾ãģĹãģŁ
æŁ »
T A
æ¹ ĸ
æľī éĻĲ
Ġp il
P art
Ġprot ected
et ing
l s
Ġbey ond
ãģ ²
z en
Ġë³ ´
Ġtest s
Ġlug ar
tr as
åĽ½ åĨħ
The y
it ud
Ġcompon ents
{ fig
Ġpol ice
ĠF e
Ġneg ative
Ġre asons
. Get
Ġsp irit
Ġform s
ĠU N
ãĥ¼ ãĤ¯
ìļ Ķ
éľ ²
{ H
è§£ åĨ³
m t
Ġmeet ing
ç´ ¹
Ġcar ry
? "
Ġpres ident
íĸ Īëĭ¤
ä¸ľ è¥¿
z er
Ġa j
emb le
ĠB ook
Ġinterest ing
ac ement
ãĤĭ ãģ¨
èµĦ æºĲ
Ġse k
ab y
åĩº äºĨ
Ġanal y
Ġm unicip
Ãº mer
Ġv en
ĠE r
Ġover all
Ġmov ement
Ġes per
Ġsu ffer
orn ing
ç¨ ³
Ġg iving
B S
Ġoper ations
Ġ== Ċ
- L
Ġt ree
ra it
Rep ository
ç²¾ ç¥ŀ
åĢ Ł
å¹ ¸
B A
ĠØ§ÙĦ Ø±
ĠW ork
ĠÃ©gal ement
Ġgu ide
} _
Ġ ?Ċ
Ġestab lished
ãĥª ãĤ¢
h es
Ġlook s
Ġhapp en
Ġph ase
ent y
Ġs un
Ġbegin ning
Ġb an
åĮħ æĭ¬
Ġtod as
U E
Ġh ace
ãģª ãģĮ
ert ain
å§ Ĳ
old s
Ġelect ric
st ate
Ġprote in
ĠSci ence
con tain
Ġpl aces
Ġdam age
Ġtri ed
êµ ¬
ĠM ost
ÙĦ Ø©
åĵ ¥
{ m
Ñĩ Ðµ
æł ĳ
g i
f ol
Ġst orage
ä¹ĭ éĹ´
Ġc Ã³
èį ī
Ġtest ing
ĠØ§ÙĦ Ùĥ
P U
E lement
in ct
if ul
ÙĤ Ø©
Ġceleb r
è¯ į
t itle
qu er
Øª Ø±
æĪĲ åĬŁ
ì °
Ġìł ķ
åĽ °
ç´¹ ä»ĭ
è ¸
åº ĥ
ĠComp any
Ġc ore
S ch
ãģ§ ãģĹãĤĩãģĨ
Ġtrad itional
ĠF acebook
Ġ} );Ċ
Ġschool s
Ġ rom
ãģį ãģ¾ãģĻ
ren ch
Ġìķ Ħ
äºĨ è§£
Ġl i
å¾ ģ
æ± ī
íĦ °
èĦ ±
é¡ ¾
ï¼Į è¦ģ
éª ¨
Ġac id
ian o
ĠÐ¿ Ð¾
ë¬ ¸
Ġequ al
ĠU se
iz aciÃ³n
ĠA ir
Ġm ath
Ġm and
Ġdis p
åħ °
ĠI' ve
ash ington
Ġet h
Ġtr as
ĠAl so
ä¸į è¦ģ
Ġnot ice
Ġìł ľ
s um
S ource
Ġa ument
ĠCal ifornia
Ġemb od
Ġmay be
Ġad just
al y
Over ride
ĠPar is
ĠB usiness
y ar
Ġper man
ic ip
ãģĳ ãģ¦
Ġpand em
ä»» ä½ķ
Ġf ond
ç© ¿
Ġpresent ed
é¡ µ
Ġf igure
Ġrem ain
è¡ Ĺ
th eta
ang ed
Ġpol y
èģ ·
Ġfund ament
ir i
Ġlarg er
Ġfollow ed
C A
Ġrap id
ãģĭ ãģª
- A
. '
ĠCan ada
ue go
Ġmax imum
Gr oup
Ġal though
j son
çŁ¥ è¯Ĩ
Ĥ °
Ġf ear
ĠCl ass
Ġst ream
- R
enci as
ĠNov ember
Ġspe ak
7 2
j ar
in put
k at
C D
S A
S ub
å¼Ģ åıĳ
ly ing
ÑģÑĤ Ð¸
Ġha ir
ĠAn t
Ġí ĺ
Ġì ĸ
ĠØ ·
é¡ º
Ġtip o
åĸ ¶
S tr
Ġsp read
Ġhand le
è¿Ļ éĩĮ
æ® ĭ
Ġam pl
é Į
ari an
æĹ ¢
ãĥĩ ãĤ£
ĠE ven
Ġmov ing
en ess
ä¹ ¡
ul ated
_ w
P re
Ġpa id
Ġmot or
Ġc ast
ĠÐ ļ
éĺ ¶
amil y
Ġsm art
Ġf am
EC T
åİ Ĥ
Ġlaw s
' une
% Ċ
Ġinit i
ĠØ§ÙĦØ °
Ġpl anning
Ġrem ove
Ġalg orith
Ġd ern
() )
Ġfeel ing
ä¿ ĥ
éĿ ł
Ġtem ps
Ġm ount
Ġfield s
ur as
Ġw indow
Ġ[ Ċ
Ġclaim s
Ġplay er
T ER
ĠOct ober
Ġc up
S up
Ġg old
Ġm ismo
Ġp are
_ output
Ġann oun
Ġm iddle
7 6
ial og
and er
id ge
ãģ® ãģĮ
Ġg ard
qu ier
ĠL ic
Af ter
% ,
c irc
è² »
Ġm end
è´¨ éĩı
est a
ĠW indows
Ġì Ĩ
Ġsist ema
ĠInd onesia
æĭ į
00 1
abil ities
Ø³ Ø¨
Ġc um
c ase
Ġother wise
âĢĻ a
Ġpro jet
ç² ī
ĠM er
Ġproy ect
Ġdat abase
ãĥķãĤ ©
ĠT V
Ġp ou
Ġc m
T oken
ĠSo ci
Ġcu enta
Ġcomm ercial
Ġth ous
C ount
ent ially
ä¸Ģ çĽ´
çº ³
ĠÐ¾ Ð±
ç¼ º
ul s
Ġcol lege
im b
Ð° ÑĢ
Ġsh ip
Ġh ttp
l ich
Ø§Ø ·
ĠMedic inal
h ow
ĠRe ad
ï¼Į å½ĵ
ĠØ§ÙĦ ÙĪ
Ġel ev
ç ĳ
ï¼ ħ
h ad
äº ®
Ġinter pret
ç¬ ¦
Ġsur g
Ġj ournal
ãĤĮ ãģŁ
und red
Ġch urch
å¥ ĸ
ud io
ãģ§ ãģ®
æĵį ä½ľ
Ġcent ury
10 1
Ġlet ter
or row
Ġexp and
Ġempres a
Ġ' ''
ind er
G B
em por
ç§ Ģ
ol ic
Ġìľ Ħ
eg a
ãģ¨æĢĿ ãģĦãģ¾ãģĻ
ig ration
b i
/ c
at os
ate ver
u ct
Ġbir th
æĴ Ń
. x
ëĵ ľ
ĠR D
Ġdo ctor
id get
um i
( new
\ \
ĠÙĪ Øª
Ġp esso
ĠL og
Ġv end
Ġopportun ities
P os
íķ ł
Ġf on
re z
åľ° åĮº
Ġgr at
ãģ£ãģ¦ ãģĦãģ¾ãģĻ
Ġv ill
Ġel im
ï¼Į å¤§
at ro
ĠÂ ¿
ab s
Ġvirt ual
ĠP ress
ãģĹãģ¦ ãģĦ
çī¹ åĪ«
Ĉ Ĉ
Ġpres ence
Ġsh ape
Ġto ward
ãĤĴ è¡Į
Ġtrabaj o
app ed
åį ±
ìĨ Į
o ch
ãĤĮ ãģ¦
Ġn ucle
Ġor ang
èº« ä½ĵ
ì ¶
Ġw arn
äº§ ä¸ļ
çĶ¨ æĪ·
Ġconf lic
so le
Ġprodu ced
Ġfor t
ĠInstit ute
at as
äº «
ĠLond on
Ġappro xim
ĠR E
y ing
re me
7 9
Ġprim er
ĠN acional
. app
è¿ İ
ä¸Ģ æ¬¡
o ire
ĠCh ar
Ġshow ed
ud i
ĉĉ ĉĉĉ
ĠPh il
-- -
åį Ī
Ġdis s
n et
. to
Ġloc ated
è² ·
Ġindepend ent
il ing
c u
Ġn ation
Ġexc ell
Ġj o
P ara
8 9
g ithub
/ l
æ± ½
_ pro
ìĹ ¬
èĦ ļ
Ġeffort s
ĠÐ ľ
Ġvari able
Ġbusiness es
_ v
Ġinv ention
Ġr ound
Ġp ode
é §
Ġdeterm ined
çĶļ èĩ³
ci pl
Ø§Ø ¶
Ġconf irm
S C
ci ent
Ġm ur
ç¤ ¼
Cont roller
Ġcamp aign
Ġfe et
ê ±
å± Ĭ
Ġtra in
cl ient
im g
st ances
Ġwork ers
Ġdist ribut
Ġincor por
Ġpie ce
éĶ ®
ĠMan agement
- term
Ġ+ =
ock et
ãĤģ ãĤĭ
Ġclass es
Ġimmedi ately
ĠDec ember
t ers
Ġfab ric
P P
åıª æĺ¯
ãģĹ ãģı
il er
ë© °
ĠC D
Ġtr es
Ġm ir
åį ĸ
ÑģÐº Ð¸
ĠM a
act ers
op en
ag em
Ġìŀ Ĳ
ing er
Â ¿
Ġfollow s
ï¼ģ âĢĿ
Ġsud ah
Ġpro s
ĠÐ »
Ġser ve
ru ary
è§Ħ å®ļ
Ġcl ar
P age
ãģĦãģŁ ãģł
Ġmilit ary
Ġì £¼
ãģ ĸ
Ġcoun ter
ãĤĦ ãģĻ
C all
ĠP C
ĠD ie
Ġp ays
éģ ¿
â Ĺ
ĠIs rael
ãĢį ãĤĴ
Ġv el
à¤ ¿
Ġcom fort
ä¸ Ŀ
Ġ{ \
Ġis n
R ef
æĿ¥ è¯´
Ġrel ative
Ġex ec
N ow
Ġcult ural
. html
Ġp ag
ĠIn formation
T e
Ã©ri e
ãĤ¿ ãĤ¤
Ġm ont
Ġdi et
æĶ¿ çŃĸ
Ġd oll
ãģĵãģ¨ ãĤĴ
Ġearl ier
I B
Ġill ustr
Ġim pos
l ock
èĪ ª
el p
h i
Ġs ous
] {
Ñģ Ð¸
Ġl iqu
Ġb ottom
Ġsex ual
^{ -
æ¬ §
çļĦ å¤§
èĢģ å¸Ī
' m
Ġadv ice
Q L
ĠE t
æ° ¸
Ġpart ies
Ġfr ame
un ity
use um
Ġn one
S te
ãĤµãĤ¤ ãĥĪ
() )Ċ
Ä Ļ
ac ion
åĬ ª
Ġpued en
Ä ĥ
åł Ĥ
Ġan os
il a
è´£ ä»»
Ġtrav Ã©s
Ġhapp y
çĨ Ł
is Ã©
Ġr ich
Ġì °
Ġpass ed
Ġsh op
. re
D et
Col or
Ġplay ers
Ġobserv ed
ĠT ur
ï¼Ł âĢĿĊ
_ re
Ġw ood
i u
Ġqu er
ĵ ãĤ¹
Ġval or
Ġac adem
ä¸Ĭ æµ·
_s ize
ç ¸
M ore
Ġatt ach
ÙĪ ÙĬ
Ġvoc Ãª
ä¸Ģ æŃ¥
ev ent
åĬ ³
ãĢĳ Ċ
j s
Ġtalk ing
å¨ ģ
od ing
Ġne arly
ï¼Į ä»ĸä»¬
Ġla in
fr amework
ĠÐ µ
" ]
O K
ä½ľ åĵģ
ãĤµãĥ¼ãĥ ĵãĤ¹
Ġh yp
Ġa insi
çī Ľ
Ġbe comes
Ġreport s
éĢ ı
Ġclin ical
Ġest os
tt ps
ou ver
Ġconn ected
Ġcapac ity
ers e
T E
èĮ ¶
éŃ Ķ
Ġtr uth
-t ime
Ġo k
id ay
as is
p ost
å½¢ æĪĲ
ĠØ£ ÙĪ
_ L
Ġt ener
éĴ Ł
Ġey e
åĲĪ ãĤıãģĽ
Ġis t
le ctions
Ġo Ã¹
ĠS ince
Ġcaus ed
åħĪ çĶŁ
. E
Im age
Ġdi jo
ep s
à ¯
T C
Ġter rit
Ġp ad
Ġn Ãºmer
ĠprÃ³ xim
Ġj Ã¡
Ġbal ance
Ġn p
Ġco ordin
Ġw el
Ñĩ Ð°
Ġfamil ies
Ġro ck
N umber
Ġgo als
ĠE v
ur er
ĠF ound
c are
æľ «
Ġbud get
æĿĲ æĸĻ
ĠA tt
Ð½ Ðµ
ä¸Ģ ç§į
éĽ ª
æķ ĳ
Ġg an
_ to
åºĶ çĶ¨
ĠÐ¾ ÑĤ
if s
Ġs ession
ë £
du ction
ĠL eg
]] ''
ĠA v
ri e
M ethod
Ġst ories
Ġman ifest
ĠCO VID
Ġj us
Ġfin ally
Ġst uff
å®ŀ éĻħ
at rix
Qu ery
Ġpro ces
ìĬµ ëĭĪëĭ¤
Ġp ow
Ã¢ n
å¢ŀ åĬł
Ġr end
Ġag ree
am er
ra int
ãĥ» ãĥ»
_c ode
Ġplay ing
ang es
Ġz u
ĠÐ¿ ÑĢÐ¸
Ġh our
Ġest ar
åº Ĭ
Ġeconom y
Ġal iment
ens or
in ese
d i
ĠO ther
Ġchalleng es
bu ild
6 1
Ġmin imum
6 2
Ġh ttps
æĦŁ ãģĺ
al an
ĠW ashington
Ġgr ant
ĠAn al
ĠT ype
ec n
æĥ Ĭ
Ġìŀ Īëĭ¤
ing u
Ġregard ing
ativ o
Ġinterest ed
W eb
Ġinflu ence
iv ery
ĠO pen
P O
Ġav ant
Ġdec ided
ï¼ į
Ð¾Ð ·
g ent
ãĤĴ è¦ĭ
/ *
Ġrecord s
Ġsur r
Ġdet ect
Ġt iss
Ġre ven
ĠBrit ish
ãĢĤ ä»ĸ
Ġexerc ise
18 9
Ġarch itect
éģ ķ
I l
Ġkar ena
æľī äºĽ
ä»Ĭ å¤©
ĠD et
âĢĿ ãĢĤ
Ð´ Ðµ
å¼ Ł
ul o
6 3
Ġmechan ism
âĢ¦ Ċ
ê³ Ħ
( this
ĠPro v
Ġl ors
ĠS eg
Ġc ant
Ġmem il
N ull
ĠD ay
Ġcon ven
Ġ Ø§ÙĨ
Ġm ist
ĠT ime
æ¸¸ æĪı
ig er
ãģ® æĸ¹
ãģ® ãģĬ
u ate
Con n
ãģ® ä¸Ń
Ġmod ule
ĠPl an
ç· ļ
Ġd ip
l ike
èĤ Į
ĠG en
m as
Ð¾Ð ¶
ut a
Ġenc uent
å¤§ ãģį
ĠTr ump
Ġat Ã©
é¢Ĩ å¯¼
Ġrest rict
Ġtrans l
æľī åħ³
b f
ĠA D
ish ing
Ġobject s
ï¼ĮèĢĮ ä¸Ķ
' h
å¹´ çļĦ
il ed
Ġj ur
ãģ© ãģĨ
Ġent ry
åİĨ åı²
ç§ĳ æĬĢ
èª ¬
in y
es o
ay out
æīĭ æľº
D r
pre ci
M ed
ãĤ¯ ãĥª
Ġseb agai
Ġob vious
Ġfun cion
n i
c ap
ãģ Ĳ
å¤ļ ãģı
or ation
Ġc ro
âĶĢ âĶĢ
Ġexam ples
is her
l ah
st atic
Ġachie ve
æł ª
åº ĵ
ĠL ord
ĠN ote
ĠBo ard
S D
- H
ç»§ ç»Ń
Ġbill ion
Ġrespons ible
Ð ļ
ĠF ederal
Ġf resh
çĲĨ è§£
part ial
o ci
å® ģ
Ġc ri
å «
Ġext ends
è Ĺı
Ġar en
æ°´ å¹³
å¥³ æĢ§
em pre
pon s
Ġtrab al
ç¨ĭ åº¦
Ġcom un
et o
Ġh undred
d ed
æĸĩ ä»¶
ĠO ver
F ig
ç»ĵ æŀĦ
ific ations
e ah
$ -
Ġstru gg
le q
èª Ń
Ġmain ten
ul ate
ig ger
Ġëĭ ¤
è¿Ľ åħ¥
æ³ķ å¾ĭ
Ġp on
u ation
rom e
ãĢĤ èĢĮ
ĠM ag
ibr ary
ri o
' Ã©
ra z
ut s
Ġsl ight
Ġg ain
è¡Į ä¸º
Ġ ]
// /
â Ī
h al
-s ize
Ġsympt oms
ent er
å¥ ¥
fil ename
ãĤ ´
Ġd ivid
Ġem p
ë ¹Ħ
o on
æı ´
ify ing
ãĤ ®
ãģĦ ãģĦ
Ġenc ore
Ġded ic
Ġstra ight
> /
Ġin clus
âĢĻ il
ï¼Ľ Ċ
Ġmov ed
Ġpl ants
Ġsym bol
anc ing
ed a
ãĢģ ãģĬ
Ġgar ant
ĠM il
ĠC H
ç¬ Ķ
is co
Ġtah un
wo od
st all
T R
et ch
ĠD ate
P D
ãģ ¶
è¯ ¯
ĠChrist ian
is k
Ã³ m
ĠO pt
P oint
Ùĭ Ø§
ãĢį Ċ
åĮ» éĻ¢
$$ Ċ
Ã± a
und a
Ð³ Ð¾
t ag
Ġhapp ened
æį Ł
un que
ĠFr anc
ãģŁ ãģ¡
æ¤ į
æ· ·
Ġconse qu
ãģ¡ ãĤī
O ur
Ġint ent
çĽ® æłĩ
ci ous
pert i
åıª æľī
- color
im er
$ {
ĠAr ch
Ġd ry
\ right
b en
ĠE very
ĠM icrosoft
Ġide al
è§ ¦
ï¼Į åı¯ä»¥
P ost
åĲĦ ç§į
Ġdom ain
Ġp adding
Ġdevelop ing
æĸ Ĺ
Ġex hib
Ġh uge
anÃ§ ais
/ w
Ġconcent r
ä¸ ½
å½ ¹
ĠS il
Ġp urs
Ġpract ices
ãģ¸ ãģ®
Ġcon j
Ġcommun ities
10 2
ass word
æĸ° çļĦ
i us
Ġan te
æĽ´ å¤ļ
ä½ł ä»¬
Ġm orning
Wh y
Ġdep uis
Ġsust ain
- ch
ic ks
w ide
Ñģ ÑĮ
åı İ
ar am
Ġcr im
art a
Ġe arth
Ġus o
Ġman era
ãĥ¼ ãĤ¿
s igma
Ġsc en
Ġsc ore
Ġre pro
s ize
å· ¨
Ġb urn
in ya
g h
çĿ £
è´ µ
ä¹ĭ åīį
Ġeas ier
Ġap par
) }
ä» į
Ġw ants
Ġd ÃŃas
ĠAN D
Ġan imal
| S
ah a
åį ĺ
Ġm ac
Ãª s
ild ren
Ġt a
Ġrest aur
ãģªãģ© ãģ®
Ġform ation
Ġau f
è®° èĢħ
Ġorganiz ations
ãģ£ ãģ¨
d b
Ġveh icle
æ¶Ī è´¹
St art
Ġ: :
æī ĺ
Ġsignificant ly
Ġfore ign
m y
çĽ® çļĦ
th at
ut os
Ġpro posed
Ġreturn s
Ġchar acters
ĠSec ret
Ã©c n
Ġê² ½
. id
F l
æķĻ åŃ¦
Ġident ified
Ġmot ion
Ðµ ÑĢÐµ
ĠĠĠĠĠĠĠĠĠĠĠĠĠĠĠĠ ĠĠĠĠĠĠĠĠĠĠĠĠĠĠĠ
.s pring
Ġr ac
. /
ĠAn y
Ġess ay
O W
ĠM any
ĠJ ournal
ĠP ara
fr ast
ê° Ħ
å¸ Ŀ
Ġcirc um
Ġm ole
Ġse Ã±
ĠrÃ© al
uest o
å® ħ
Ġw arm
Ġes e
Ġd ib
Ġsequ ence
ãģ¦ ãĤĤ
Ġm ission
( [
åĤ Ļ
Ġw rote
ad ata
Ġw er
å¾Ĺ åĪ°
è®¡ åĪĴ
è½¯ ä»¶
() ,Ċ
ãģĵ ãĤį
Ġc ad
if orm
Ġfix ed
um a
ĠØ§ÙĦ ÙĦ
ank aj
ĠOr gan
è· Ŀ
Ġsat u
ic ia
ot es
. J
qu ery
Ñĩ Ð¸
éĴ Ī
Ġs or
ow s
ĠL ear
Ġprof es
Ġelect r
ï¼Į å°Ĩ
b ra
ãģĹãģ¦ ãģĬ
æı ¡
ell s
Ġcle arly
Ġfa ith
Ġcom plic
Ġm ad
r ing
ì¹ ĺ
ĠìĿ ¸
P ol
Ġsa at
Ð½ Ñı
ag i
ãĤ ²
Ġlat est
Ġcr isis
Ġhor as
ĠTh us
ĠAssoci ation
I O
roll ed
éģ ©
Ġenvironment al
ĠEduc ation
Ã Ĺ
Ġì ¶
ic ed
ak at
is o
we ight
Ä į
r d
Ġtrans ition
ĠNew s
çļ ĩ
Ġr are
Ġprim era
ig u
Ġin tr
is me
â ĺ
ç« ŀ
o z
ãĥ¼ ãĤ·ãĥ§ãĥ³
Ġparam eter
Ġflo at
r um
Ġl inks
Ġdr ink
ub l
ï¼Į æ¯ı
Ġseg ur
ãģĻãĤĭ ãģ¨
Ġset s
Ġmas ter
ne xt
ä½į ç½®
Ġdom in
Ġvari ables
åĲĪ ä½ľ
è Ķ
Ġsh ared
Ġrele ased
Ã©t Ã©
Ùĥ ÙĦ
Ġad vert
Ġper haps
Ġd anger
ĠComm ission
ĠQ ue
è¼ ī
ric s
vers ion
Ġfind ing
Ġnue vo
è· ĳ
st yle
co hol
ĠL at
ãģĤãĤĬ ãģ¾ãģĽãĤĵ
Ùħ Ø±
Ġmed ium
L et
ĠWh y
åħ³ äºİ
ĠInd ian
ç¬¬ ä¸ī
ador a
ames pace
Ø¨ ÙĦ
ĠP lease
ãĤ³ ãĥ³
çľĭ çĿĢ
Ġcar bon
Ġcl imate
ç» į
Ġass ign
Ġstand ards
èİ· å¾Ĺ
ĠR ich
Ġsupport ed
Ġn Ã©
ric k
Ġbl ue
Ġ çļĦ
F igure
" I
Ù Ģ
ĠT od
ĠB i
ĠBras il
Ð Ł
N S
Ġeffic ient
ĠI P
F e
Ġle urs
ann ot
Ġb anyak
ĠU ser
Ġis n't
``` Ċ
Ġm Ã¡
Ġredu ced
Ġ* /
== =
ĠP our
Ġ"" "Ċ
ä¼ģ æ¥Ń
Ġmeas ures
OR T
å»º ç«ĭ
ãģªãģĮ ãĤī
ĠL as
Ġimport ance
âĸ ł
r il
ci os
ç´ °
çĶ ²
æĮ ¥
ĠO bject
ugh ter
aw a
Ġj oint
Ġjob s
Ùħ ÙĬ
ug in
Ġe at
ê³ µ
Ġfo is
r l
Ùħ ÙĪ
Â» ,
åĬª åĬĽ
Ġlead ers
ãģ«ãĤĪ ãģ£ãģ¦
ĠP erson
åħ· ä½ĵ
ĠS ervices
Ø§Ø± Ø©
ï¼ ķ
ĠAl though
ãĤī ãĤĮãĤĭ
Ġ! Ċ
ç¡ ¬
Ġtem pl
Ġagre ement
Ø§Ø ²
ãģ« éĸ¢
è®¡ ç®Ĺ
Øª ÙĬ
æ° ı
Ġchall enge
| C
Ġz ero
pos es
è¯ ¢
ï¼Į Ċ
Ġb ul
Ġopin ion
c ks
V ER
Ġl ang
Ġh ydro
Ġor ient
g amma
æ¥ ļ
Ġcomb ination
ĠOff ice
P our
Ġsepar ate
im p
å®¶ åºŃ
1 30
ĠN or
Ġcertain ly
ï¼Į çĦ¶åĲİ
ä¸º ä»Ģä¹Ī
Ġpay ment
Val id
æĿ Ĥ
ĠF und
{ d
Cont ent
ä¹ ±
Ġperm et
( S
éĩĩ çĶ¨
Ġw ww
) |
æİ ī
Ġed ge
Ġy ield
Equ als
oth ing
_ R
è¬ Ľ
an os
å° ģ
Ġhigh est
ãĥķ ãĤ£
wh ich
7 00
ç¿ Ĵ
Ġrem ains
ä¿Ŀ æĬ¤
ĠÙħ Ø§
Ġm ism
Ġsp end
ì§ Ħ
ãģ« å¯¾
Ġl ect
èĥ ľ
å¢ Ĺ
- T
æĿ Ł
Ġlarg est
] )
æ¢ ¦
Ġex clus
Ġn amed
Ġnot es
Ġpos it
Ġteach ing
éĻ Ħ
r is
æĢ Ģ
ribut es
Ġcomp at
Ġqu ery
Out put
Ġ íķĺ
. assert
ä¸Ģ çĤ¹
aut hor
Ġatt ract
å Ĥ¬
ç§ ĭ
} (\
Ġtyp ically
èŃ ·
- N
é ¹
Ġh ref
Ġfail ure
æļ Ĺ
åī ²
å¼ ±
Ġdoc uments
Ġmention ed
Ġch annel
ĠFeb ruary
t able
çĶµ è¯Ŀ
ve z
èĤ ¯
åİ ļ
id ing
Ġn iv
Ø¯ Ø©
f in
Ġbeaut iful
ĠB ecause
ìļ °
å¤ ®
ĠT ext
Ġdesp uÃ©s
( r
am ing
Ġsmall er
ĠN ULL
opy right
Ġv s
Ġvis ion
ãĢį ãģ®
Ġ( Ċ
Ġdec isions
Ġe uros
ruct ure
ot ic
æĢ ª
ĠÂ ł
åĵģ çīĮ
æĪ ¦
or gan
k g
Ġtherap y
ĠF rench
S ON
Ġpart ner
. -
Ġcomp re
Ġì ¤ĳ
Ġrais e
Ġinform aciÃ³n
land s
Ġsp ent
é¡ ŀ
} ^
Ġspec ified
æĬ ĵ
éĽ ·
ì Ĥ°
Ġr ank
ï¼Į åıĪ
Ġprevious ly
ìĭ ł
In d
å» ¶
äº§ çĶŁ
16 0
Wh ile
åįģ åĪĨ
Ġcas a
Ġapr Ã¨s
Ð Ĳ
Ã©l Ã©
et ed
18 8
Ġw ife
ill es
ĠJ ul
graph ics
ign e
Ġbre ath
uest a
å¸ Ń
18 6
èģĶ ç³»
fer ences
é¥ Ń
ens a
Ġt um
æľº æŀĦ
ä¸ļ åĬ¡
æĺ¯ åľ¨
Ġmat rix
èĻ ĳ
AR T
aint iff
æĭ ¥
c ular
Ġold er
è®¾ å¤ĩ
æĹł æ³ķ
æŀ ¶
` Ċ
Ġmu jer
respon se
ĠThere fore
Ġreturn ed
Ġv acc
Ġm m
7 4
ãĥ¼ãĥ Ĺ
Ar t
éĢ Ķ
Ġaltern ative
Ġgener ated
ĠGr and
ĠJ ames
ph p
Ð ŀ
Ġê³ µ
= True
Ġsh ift
æ² Ļ
ex p
Ġcorrespon ding
) =
ĠM ont
Ġconfig uration
Ġfor ces
ol ar
( int
ĠFl or
æľĢ å¤§
Ġa k
Ġw ind
ĠCoun cil
ĠEst ado
å®¹ æĺĵ
Ġun less
çĮ ®
ĠØ§ÙĦØ ·
Ġdiscuss ion
Ġgrand es
Ġpl aced
Ġsc ript
Ä ħ
ä¸ °
åĩĨ å¤ĩ
íĸ ī
p g
Ġparticip ants
E dit
éĤ£ ä¸ª
Ġmu ito
Ġpower ful
Col umn
Ġmon de
çŃ ĳ
Ġst ation
Ġpe ace
Ġw ild
Ã¡ri os
í Ķ
çĿ ¡
Ġpolic ies
ÙĦ Ø§
ĠâĢ ¢
ĠE ast
pec ific
ĠCh inese
Ġchem ical
Hand ler
éĮ ²
ìĿ´ ëĭ¤
ang ing
ï¼ī ï¼Į
ç» ¼
. ;
Ġ ðŁ
ä»Ĭ åĽŀ
Ġtechn ique
u ar
Ġest r
bl ock
Ġen erg
" |
ĠS k
Ġcontin ued
/ r
ç» ©
ĠT H
Ġlearn ed
q rt
.spring framework
un gan
Ġmes es
ĠE ach
up date
ĠAf rica
ĠĠĠĠĠĠĠĠĠĠĠĠĠĠĠĠĠĠĠĠĠĠĠĠĠĠĠĠĠĠĠĠ ĠĠĠĠĠĠĠĠĠĠĠĠĠĠĠĠĠĠĠĠĠĠĠĠĠĠĠĠĠĠĠĠ
ĠI T
D ep
P T
Ġr u
} .
.d ata
Ġext ract
I ST
- G
crib e
Ġm ent
ëª ħ
ĠDevelop ment
Ġfail ed
ä¸ĭ æĿ¥
ici ans
æħ ĭ
Ġadv antage
ĠC ode
7 3
å¢ŀ éķ¿
ient ras
ãģ¨ ãģ®
s im
el as
ï¼ ı
Ġplay ed
Ġport ion
å° ļ
Ġart icles
Ġt ar
H ere
ĠT ex
Ġcaus es
p p
Ġmajor ity
oc s
Ġf n
ilos oph
Ġmet al
ĠÃ© v
ĠE N
èĪ ŀ
ĠC ovid
Ġk et
Ġcol d
Ġreal ity
Ġl ock
åħ¶ å®ŀ
( i
ir us
- e
ĠØ º
æĺ¯ åĲ¦
est ed
Ġcom ments
ĠPe ople
ç» ¿
ĠE X
st ream
ÙĦ Ø§ÙĦ
Ġmerc ado
ĠÃº n
Ġr ender
Ġexperien ces
is se
g ment
éĸ Ģ
ě [
éĺ µ
Ġgener ation
Ġrespect ively
Ġe uro
od er
l ong
it ness
Ġnuest ro
x x
Ġis ol
Ġpas ado
n s
pr ivate
Ġman age
d elta
ann ed
æĬ ĺ
Ġb ond
Ġdiffer ences
é¡ į
Ġclos ed
C S
æİ Į
Øª Ùĩ
ĠA L
Ġoffer ed
C an
čĊ čĊ
ãģ§ ãģĹãģŁ
Ġcont re
è® ¨
åĲ ¯
}{ |
Ġun its
ÑģÑĤ Ð°
u id
s hip
Ġre form
as se
æ´ ĭ
Ġvir us
Ġcall s
- of
è» ¢
Ġb orn
Ġmot iv
ft y
Ġ ~
Ð¾Ð ¿
Ġtechn ical
ĠE lect
D ec
In stance
< filename
Ġstrateg ies
ĠA lex
ĠP M
æĿ ¨
Ðº Ð¾
í ı
cl ar
Ġt ut
D R
stand ing
ĠB re
a uc
Ġ[ ]
as ure
ãĥ¼ ãģ®
Ġpro ceed
{ R
Ġprofess ion
Ġempres as
Ġpurch ase
Ġì ²
Ġman ner
Ġpict ure
Ġsum mer
ĠMin ister
å¿ Ļ
Ġremov ed
is cal
ĠS am
Y es
Ġanim als
æĺ¯ ä¸Ģä¸ª
Ġimplement ation
æ² ī
Ġinf o
ill o
og raf
ri z
ĠA M
Ġprep ared
èĢĥ ãģĪ
é ±
Ġest ado
D S
Ġon to
urs os
* }Ċ
ĠO per
Ġflo or
{ N
Ġsur pr
Ġv ul
éĩ Ĭ
ä¸» ä¹ī
| M
Ġke pt
empl o
åıĸ å¾Ĺ
Ġcomp rom
å° ¼
L ine
è« ĩ
row ser
Ġin ici
h ost
D elta
.l og
ĠL in
Ġcomplet ed
ê ¹
Ġpr ices
pt r
ÙĪ Ø¨
Ġmere ka
ett ings
D B
å® Ĺ
7 1
Ġdon c
_ k
Ġcas os
ĠAustral ia
re es
Ð Ŀ
å½ Ĵ
è® ¿
Ġver d
Ġl if
ĠO s
anc er
En d
Ġgl ass
Ãª t
i Ã§Ã£o
fr ont
éĻ Ĩ
ch os
çŃ ¾
/ b
æĹ §
% )
ĠH ome
iss ance
ĠAd minist
lo ok
Ġme ant
Ġb ol
Ġfamil iar
he ight
çŃĶ æ¡Ī
od ies
å¦Ĥ æŃ¤
12 3
Ġa inda
è© ¦
Ġot ro
N et
pert ies
un it
ph one
Ġk m
Res ource
F actory
int a
8 4
ä¸į æĸŃ
\ x
Ġconcern s
éĶĢ åĶ®
r Ã©
ĠEng ine
Ġ ),Ċ
Ð Ĵ
ĠC reate
æĽ ¿
Ġint ellig
ä»· åĢ¼
iz a
ä¼ Ŀ
ĠCh urch
Ġ( \
ĠD iv
Ġë Ĳ
Ġup per
el ines
Ġrelationship s
ï¼ģ âĢĿĊ
ĠC e
ãĥĹ ãĥ¬
éĢ Ĳ
ĠH uman
è½ ®
åĪ º
è¶ £
Ġtrav ail
Ġgener ate
ĠRep ublic
}^{ \
ç¦ ģ
Ġt ienen
el d
æķ ¢
it ors
St ream
Ġhar us
ou vel
Ġve get
ar p
de c
e ira
Ġdescrib e
Ġtod a
âĢĻ in
Â º
Ñģ Ðµ
} -
ĠO l
Ġb atter
ĠProf ess
ÃŃ vel
em on
w ers
Ġbr anch
Ġwh atever
AM E
ĠM ath
S ome
Ġst ri
Ġt ou
ĠT or
ed om
ãģ İ
Th ese
ĠnÃºmer o
Ġal ter
Ġg one
ãĥ¼ ãĥ³
Ġshow ing
é± ¼
Ġser a
ĠP et
Ġl ands
Ġgrup o
Ġlibr ary
A ction
Ġproced ure
æľīéĻĲ åħ¬åı¸
Ġdefinit ely
Ġse pt
Ð· Ð°
Ġbe g
ĠA re
ry pt
ĠL ong
rel ated
Ð¾Ð» ÑĮ
Ġap preci
ç©º éĹ´
ëŁ ¬
Ġcit iz
ç½ ª
çĸ «
Ġ Ñį
ĠC amp
Ġc ash
ĠA PI
ĠUn der
ĠC ast
Ġh o
è´Ł è´£
ĠF ree
Ġp ackage
Ġn ouve
Ġst im
ãĥĹ ãĥª
æ§ ĭ
. *
å¤ļ ãģĦ
Ġpl ate
ÙĬ Ùģ
st d
Ġve ctor
Ġ ÑĦ
on ly
p c
ĠP ower
å¼Ģ å±ķ
Ġfrequ ency
Ġa z
Ġad emÃ¡s
Ġk er
ãĥ ¤
Ġse perti
ĠS ection
æĤ£ èĢħ
c ell
Ġd ere
o very
Ġem pty
Ġo tras
ĠG erm
åª Ĵ
Ø£ ÙĨ
c ement
Ġa us
æ²» çĸĹ
è¿ ·
Ġbut ton
ĠB as
Ġres ist
ob ile
Ġdiff Ã©r
Ãª tre
çļĦ å°ı
Ġhapp ens
ĠF ig
ĠØ °
ĠS ing
Ġl it
12 8
Ġoper ating
çĤ º
ĠÐ Ŀ
ach ing
Ġn ice
ãģĦ ãģ¾ãģĹãģŁ
ç»ı èĲ¥
é¡ ¶
D on
Ġp ac
Ġaspect s
Ġexpl ain
Ġìĥ ģ
ç¢º èªį
**************** ****************
åķı é¡Į
ĠA S
Ġs amples
ie urs
ĠA R
Ġrad io
æĻ® éĢļ
L as
ä»ĭ ç»į
- th
æ´ ²
Ġlo an
Ġaw are
éĵ¶ è¡Į
Ġsur vey
Ġl en
for ce
Ġe ight
ê ´Ģ
Ġseg Ãºn
ab an
w ell
é¦ Ĩ
ĠE conom
11 1
yar akat
ĠÂ» ,
åĬł å¼º
ĠL ife
Ġand roid
p ol
ĠG al
Ġmed i
Ġsett ings
ĠJ ew
Ġv ide
ĠF re
ĠAn n
ä½ Ľ
Ġdon n
B N
ĠRet urn
Ġdi ed
os en
Ġsem ana
iven ess
Ġ ig
ĠJ ack
Ġal bum
ric an
ãĥ³ ãĤ¹
az ing
Ġex ternal
Ġsub stant
ĠSt reet
éĩĳ èŀį
Ġreach ed
Ġequ ival
Ġmin or
Ġd ess
ĠT im
è¾¾ åĪ°
L A
ï¼ Ķ
Ġmil es
v an
E xt
ct x
ou pe
è¿ĩ åİ»
ĠÐº Ð°
Ġk id
Ġal go
Ġvol t
anÃ§ a
b urg
æķĪ æŀľ
v ironment
Ġmo ins
åĨ³ å®ļ
Ø§ Ùĩ
Ġappe ars
ĠR ob
Ġmemil iki
Ġê ±
it an
Â ®
18 7
Ġdecl ar
est ival
Ð¾Ð´ Ð¸
äº¤ éĢļ
It 's
un c
Ġing red
Ġo ct
ĠL ib
ç§¯ æŀģ
Ġterm in
Ġt ub
( {
cre te
æĢĿ æĥ³
åĪ ¸
/ t
own load
]( /
ĠAs ia
k o
14 0
å° Ĥ
9 2
Ġtel ah
ĠJ o
Ġsel ection
ĠG ood
C heck
est ic
Ġexcell ent
Ġf er
ac le
st art
}} \
Ġsurr ound
olog ÃŃa
ĠC ON
8 2
Ġpur poses
8 1
Ø§Ø ®
ãĤĴ ãģĬ
ï¼Į å®ĥ
ä¼ ´
Ġan o
Ġatt end
åĢ ¤
ĠC heck
Ġdef inition
Ġd ut
ome ga
Ġqu Ã©
t au
ĠDes ign
ĠgÃ©n Ã©r
çĽ Ľ
à¥ ĩ
ĠLic ense
ç§ ĺ
? "ĊĊ
ol low
' a
æīį èĥ½
Ġprot ocol
r am
Ġwe ak
F irst
æ¨¡ å¼ı
ploy ment
ri ev
j u
ru ctions
ï¼Į éĥ½
éĩį çĤ¹
Ġ( (
Ġk em
Ġdef ine
. y
ro ot
ĠC ult
æ¸ Ĳ
ent ity
Ġr um
Ġtop ic
èī¯ ãģĦ
Ġlead er
Ġt et
ĠGre en
Ġinv ent
ëĲ ĺ
Ġcy cle
íķ Ļ
R L
_ IN
frast ructure
ro t
ĠJ ud
Ġus u
ĉ Ċ
ĠF urther
Ð» Ð¾
- a
Ġcompre h
ĠM ais
çĬ ¯
h and
ĠC arl
urr ency
Ġhelp ed
Ã¡ m
Ġb ers
Ġn acional
éĿ¢ çļĦ
( String
Ãª te
Ġgu ess
Ph one
Ġim plic
O per
ĠAcc ording
èģ ļ
) -
ol f
az a
h op
éľ ĩ
Ġr oute
ĠWh ite
Ġm outh
include graphics
Ġc ov
ĠE qu
Ġm ul
ĠComm it
è¨ ¼
_p ath
Ġrat io
è¡¨ çİ°
8 3
ĠS on
è¨ĺ äºĭ
èĩª èº«
ĠC are
ĠÐ Ĳ
Ġ'' [[
en ne
Ġcert ific
Ġmod er
å® «
j i
èĢ ³
å½ĵ çĦ¶
ä¸į åı¯
ad s
P M
ãĤĤ ãģĹ
æĲ Ń
èŃ ĺ
åī ĳ
ĠFound ation
å®¢ æĪ·
Ġcual quier
ĠV is
èĪ ¹
a e
åıĺ åĮĸ
ĠUS A
ri end
9 1
Ġm ud
ãģ® ãģ§ãģĻ
ri age
om ain
ĠGovern ment
æ±½ è½¦
Ġchang ing
ìĦ ¸
ãĤĵ ãģł
} )$
ç®Ģ åįķ
çĤ İ
Ġfundament al
è¦ ı
y e
ç °
Ġins pir
ãģ«ãĤĪ ãĤĬ
aut h
æľī æķĪ
äºº ãģ®
ãģķãĤĮ ãģ¦ãģĦãĤĭ
Ġb rief
ç¿ »
æı ı
ĠL ou
wh at
Ġc ort
ãģ«ãĤĪ ãĤĭ
ç¼ ĵ
ord ers
çĴ °
äºº ä»¬
Ġmuch o
Ø¹ Ø±
R em
B D
â Ĺı
Ġtra ffic
Ġcontain ing
Ġ( $
Ġpro d
f it
Ġdat os
ì² ´
R el
vo ir
9 3
Ġsu fficient
y er
è¿Ļæł· çļĦ
o is
ĠIn vest
çĥ Ī
Ġr ise
''' Ċ
Ġnot ed
ag ne
Up date
Ġbehav i
ĠSt at
ĠS l
ĠCent ral
. class
all el
Ġt Ã©cn
Ġest as
Ġth read
Ġd ik
ãģ¨ ãĤĤ
ri an
Ġf ill
Ġa ward
å¸ «
Ġp emb
back ground
Ġch ain
empt y
í Į
t ed
ĠAm azon
ĠF il
ier a
s u
Ġform ed
ar ante
Ġp air
Ã³ l
} }$
éĤ£ äºĽ
l ast
ĠP an
Ġmill ions
Ġp aint
s ch
Ġp uis
as an
qu is
Ġdifer entes
_ ex
Ġinstr ument
pl ant
ĠG ob
ï¼Į æľĢ
ĠRev iew
AN D
in fty
ĠO N
Ġth ick
Ġaud ience
æī§ è¡Į
é ī
] ĊĊ
< T
Ġ/ >
Ġep is
Ġad m
ĠO R
Ġcover ed
ĠC he
Ġsu iv
Ġtechn ologies
è² ©
a o
ĠSt and
pr im
ÙĦ Ùħ
Ġw id
Ð ł
_ \
ĠTw itter
Ġex ists
çµ Ĥ
ãĤĬ ãģ®
Ã¡ ct
Ġfun ds
iÃ¨ res
Ġre action
Ġextrem ely
èĻ ļ
Å ¡
all s
d r
Ġp ra
Ġpro ve
ä¸į åĪ°
ĠìĿ ¼
Ġabs or
ct ors
Ġocc up
ig ital
ï¼Į åĨį
Ġheav y
éĽ ¶
ĠK ey
ate urs
ìķ ¼
Ġnuest ra
Ġann ual
K E
Ġt oute
Ġwas n't
ant ic
Ġwas te
ÐµÐ½Ð¸ Ñı
ç« ¥
Ð² Ðµ
r ho
et ime
ãģ«ãģª ãĤĬãģ¾ãģĻ
Ġc atal
ĠÙĦ Ùħ
ĠPro t
Ġsi empre
k now
ĠCon gress
s g
ĠM Ã©
ãĥ¼ ãĤº
à §
Ġcorrespon d
il o
unt os
18 5
Ġ Ã³
Ġh oy
S eg
ìŀ ¬
ad y
éľĢ æ±Ĥ
" "
Ġf ir
um s
h os
Ġcontr ast
æĸ¹ åĲĳ
Ġl lam
k it
æ¬ ²
. G
Ġex ception
Ġs pr
v ille
Ġes o
Ġë¶ Ģ
à¤¿ à¤
æģ Ĳ
Bl ock
æĬ ±
Ġcl ub
è³ ¼
æĺ¾ ç¤º
ä¼ Ĭ
& amp
Ġexperien ced
äºĭ æ¥Ń
. v
ãĤĴ ä½¿
en cial
Ġart ist
f ix
. )Ċ
ÙĤ ÙĬ
Ġd Ã©s
ÙĨ ÙĬ
ob s
å° İ
Opt ions
Ġt ecn
ìŀ ħ
if i
Ġb aby
ì ¡°
ak ers
è ľ
on o
Ġadd ing
Ġex change
Ġj oin
Ø³ ÙĬ
Ġmanag er
Ġdet ail
Ġal s
åĲ ī
ĠV iew
Ã¡ b
ĠM ex
.n et
Ġm Ã©
Ġgu ard
it z
éģ Ķ
ĠSup er
ä»ķ äºĭ
Ġëª ¨
C reate
A V
ĠE xt
ap pro
Ġapp oint
Ġfocus ed
Ġdent ro
af e
Ġident ity
Ġentre pr
um es
Ġs ale
ä¸į çŁ¥éģĵ
Ġen able
Ġt ag
è¾ ĳ
éļı çĿĢ
or al
æģ ¶
æĮ ¯
Ġcar ried
Ġs ich
Ġcl oud
ĠDirect or
or ig
åĩº çļĦ
ĠM en
ic ans
ĠI ll
Ġenv iron
ur an
Ġth erm
å¼ ¹
_l ist
Att ribute
_ x
ãĥ³ãĥ Ĩ
åĢ į
ãģĵ ãģ¡ãĤī
Ġo m
Ġsc ope
Ġw he
re ct
ãģĻãĤĭ ãģĵãģ¨ãģĮ
ĠS in
Ġp ob
ĠP en
Ġk el
æĢ§ çļĦ
ĠÃ© p
èģ ŀ
Ġbel ong
Ġd ies
ateg ories
é¤ Ĳ
ĠI r
ĠG old
ãģ ¥
Ġur l
ĠÐ¸ Ð·
9 4
æİ ª
ĠØ§ÙĦÙħ Øª
Ġseem ed
as y
Ġo d
A F
}_{ \
ograph ic
ç³ ĸ
Ġline ar
Ùĥ Ø±
ĠR ice
ie ux
But ton
Ġerr ors
Ġ å¹´
Ġe fect
xt ure
Ġcol on
Ġauth ors
Ġa hora
Ġsee ing
é¢ ¨
an co
ur b
Ġh us
Pro duct
V er
æķĻ å¸Ī
ãģŁãĤģ ãģ«
Ġm igr
O s
çĶµ åŃĲ
Ġdel ivery
å·¦ åı³
Ã ¯
Ġstruct ures
Ġliqu id
Ġspecific ally
( -
Ġautom atically
ç® ±
C ons
Ġfinan ci
emb ly
Ġr ent
Ġacc ord
å¸® åĬ©
l n
Ġpr est
Ġlos e
Ġest o
ĠPh ys
æĮī çħ§
c s
Com ponent
Ġm ens
Ġknow s
ĠEst ados
å®ŀ æĸ½
è° ·
Ġdeb t
Ġst ated
å³ ¶
åĦ ª
è¿Ĳ åĬ¨
{ M
æ£ ®
rit er
s ible
Ġso it
ĠOn ce
Ġelim in
cre en
è¯ Ĺ
åĿ ı
é» ĺ
Ġg al
Ġteach ers
Ġre pres
{ array
Ġrais ed
go ing
Ġadv anced
ä¸ĩ åħĥ
ĠSec urity
éº »
fo ot
Ġre com
ĠM ary
Ġlead s
/ h
E P
Ġassess ment
r ar
Ġê ´Ģ
ĠS em
Ġbah wa
å Ĺ
Ġm ic
åĬ¹ æŀľ
Ap i
ĠØ§ÙĦÙħ ÙĨ
[ \
ĠT able
ä»¥ åĲİ
Ġint ended
Ġag ent
åħ¶ ä¸Ń
Ġg ather
ĠĠĠ Ċ
ĠV ir
ouve z
ç ĺ
ï¼Į æĽ´
an as
Ġview s
Ġg ene
c iones
( name
Ġsal ud
Ġf ish
a a
çĪ Ĩ
Ġtel ev
èĥ ŀ
éĩĮ çļĦ
Ġwh om
Ġed itor
L C
Ġn avig
ĠA z
Ġal cohol
Pro vider
æĺ ¨
Ġkep ada
æ£Ģ æŁ¥
Ġprof ile
ement e
() ĊĊ
Ø® Ø±
pon ents
ĠTechn ology
ä¸Ĭ ãģĴ
ĠTex as
å¿ ĺ
y cl
k m
åŃ¦ éĻ¢
ag en
Ġcirc uit
Ġt ard
ab etes
å»º è®®
Ġtre ated
ï¼Į ä½¿
æĮģ ãģ¡
ê° ľ
Ġhe cho
è®¸ å¤ļ
ĠRe al
Ġph en
ari as
Ã¶ r
.l ength
Ġscient ific
Ġt ail
it i
R S
ï¼Į å¦Ĥ
åŁ¹ è®Ń
.p ng
ĠÃ©t ait
Ġsang at
Ġdec ide
Ġm ater
. </
B ack
Ġprem ier
Ġb ias
ĠT op
Ġproper ly
un te
at ura
ĠMich ael
âĢĻ aut
O ff
ĠëĤ ĺ
h ouse
Ġsm o
çĽ ĸ
ĠÙħ ØŃ
ĠUn ion
Ġadminist ration
Ġpers pective
Ġse ven
B ase
Ġaff ord
el se
ĠM el
Ã© ment
H T
ãģł ãģ£ãģŁ
Ġaud io
Ġsp ot
ĠO p
Ġs port
ãģĹãģ¾ ãģĨ
uel a
ic he
u ce
Ġav oir
Ġav ait
ĠH a
åº Ĩ
Ġex tr
Ø¯ ÙĬØ¯
oper ator
Ġresult ing
{ eq
Ġfon ction
æ¥½ ãģĹ
x ico
AL L
ëł ¥
C o
ĠUn idos
word s
çģ ¯
ĠB ur
l ib
% ;Ċ
Ġpan el
ne a
ï¼ī ãĢģ
åĥ į
os ter
ĠE U
IN E
Ġdr iving
éļ Ĳ
ĠAc adem
iz ado
am pl
Ġown er
Ñ Ĺ
ãģ¨ ãģĵãĤį
Ġrel ation
Ġhelp ing
Ġre un
ĠJ un
éĻ¤ äºĨ
Ġsu gar
Ġcrim inal
ĠD NA
Ã¡ g
U D
ack s
ĠCon n
eth yl
æŃ£ å¸¸
æĮ ĳ
µ ľ
Ù İ
æī ©
ĠK ar
Ġmas yarakat
æ± ł
çĬ¶ æĢģ
Ġ ÑĤÐ°
it is
å½ ¼
$$ ĊĊ
as te
ä½ ³
Ġf ib
Ġsim pl
çļ Ĩ
ĠM as
ĠL ike
Ġcor on
ĠM ake
/ j
Ġf uel
V is
col umn
red dit
Ġdise ases
ĠE arth
Ch ar
æĸĩ ç«ł
ĠT erm
Ġw ire
å¯¼ èĩ´
åĸ Ŀ
uer do
ãģ¨ è¨Ģ
æĶ¿ æ²»
act or
åħ³ æ³¨
Ġpro of
Ġcour ses
ãĤ¢ ãĥ«
è¿Ľ ä¸ĢæŃ¥
Ġindust rial
Ø¯ ÙĬ
Ù ı
Ġv i
Ġj am
ä¼ļ è®®
Ġintrodu ced
ed ad
Ġsec ure
ãĥĸ ãĥ©
Ġexper ts
æļ ´
çĥ Ł
éĢł æĪĲ
ãĤ¹ ãĤ¯
è® ¯
å½¢ å¼ı
ãĤĴ åıĹ
ĠØ¥ ÙĨ
ĠC am
Ġreci b
I E
Ġserv ed
b les
è¦ ³
ear s
ro g
uh an
Ġfr ag
Ġfr anÃ§ais
j ours
ÙĦ Ùģ
Ġev ol
em ple
Ġle v
]( #
Ġas ync
. create
qu ir
is p
F alse
ãģĿ ãģĹãģ¦
9 00
ĠEsp aÃ±a
ĠG erman
ang o
12 5
æ ¾
ĠN a
ãĤĬ ãģ¾ãģĹãģŁ
åĭ ¤
Ġt ips
ëĭ Ī
Ġre ject
è¡Į æĶ¿
ìľ Ħ
par ams
å¤ļ å°ĳ
Ġtas ks
æľª æĿ¥
_ E
åĨ °
ĠPro duct
ĠGl obal
æ¨ ª
Ġhab ÃŃa
Ġ/ >Ċ
ĠInd ust
åĩł ä¸ª
åĩ Ģ
ĠD ev
ãĤĴ ãģĶ
ĠSoci ety
Ġsyn th
ëĲ ľ
ot ype
Ġhe aring
ãģĵãģ¨ ãģ¯
ç»ĵ åĲĪ
Ġst ar
ber apa
åĶ Ĳ
ash ion
Ġint el
ê ·
Ġpesso as
æĶ¹ éĿ©
Ġbe coming
ĠTr ue
ud hia
Ġ< =
Ġacadem ic
ĠW il
ĠÃ© qu
Ġal leg
Ġp oco
r or
æł· çļĦ
ç´ ¯
éĽĨ åĽ¢
âĢĻ ex
æľī ä¸Ģ
Ġë ¯
Ġalgorith m
åģ ı
n ement
ĠGob ierno
Ġteach er
Ľ Ħ
Ġdem ocr
ist an
Ġlead ership
Ġaff ected
åĪĽ æĸ°
ĠRe port
æĿ± äº¬
Ġincre ases
if ies
ĠM ax
Ret urn
Ġf uck
åĳĬ è¯ī
( C
c at
f aces
N ote
ãĥ³ ãĤ¸
| [[
_ g
ro ph
Ġdes ired
Ġrel atively
y les
ä¸ ģ
i ros
ch ain
ĠP R
pl ot
re as
f Ã©r
Ġc ategory
ur ies
H O
äº¤ æĺĵ
æ©Ł èĥ½
èĽ ĭ
ac er
S u
Com p
Ġk om
Ð¼ Ðµ
ĠEng land
ãĤ·ãĥ £
Def ault
åıĤ èĢĥ
è Ĺ
ÑĤ Ñĥ
v are
ÃŃ o
Ġem ph
B ook
I X
ä¼ °
Ġí ı
H z
Or der
Ġtr uly
Ġre pr
Ġs umm
AN T
ê² ½
Ġas eg
Ġr ace
èµĦ éĩĳ
F C
Ġsee k
at ique
Ġto ken
en ced
ĠM ot
Ġex cess
| P
å¹ ķ
ĠÐ ł
å³ °
Ġë ²
< re
Ġap art
ç¨ĭ åºı
å¹³ åı°
ç»¼ åĲĪ
ĠM odel
è´ ¥
b ase
ard o
é ĨĴ
ire ction
ativ as
An y
ä¿Ŀ æĮģ
Ġdest ac
Ġfun ding
è· µ
Ġde be
ĠT om
Ar g
ĠM em
v i
âĢĻ en
& gt
Ġopen ed
Ġsol ic
Ġgo b
it ure
ĠO k
es ar
Ġ( '
Ġper d
Ġmo is
Ġhon est
Ġe con
Ġop pos
æľī çļĦ
Ġp ure
çªģ çĦ¶
( M
Ġprogram a
Ġsc r
ĠGe orge
Ġmov ie
Ġmost ly
Ġcook ies
Ġreg ional
g reg
C lick
ĠZ e
éĢŁ åº¦
ãģĹãģŁ ãģĦ
Ġha ven
ĠdÃ© velop
æĶ¶ åħ¥
ER T
Ġâ Ĥ¬
R ed
all ed
Ġr h
Ġay ud
all a
Ġseg ment
ĠP o
p age
Ġg ast
é¡ ¿
Ġ( "
Ġcent re
' il
Ġb ow
n t
å»º çŃĳ
ĠT O
Ġbo olean
ark an
un ately
Ġpattern s
Ġf ant
ern ame
Ġf le
O h
Ġobjet ivo
ain er
åł´åĲĪ ãģ¯
èĩª çĶ±
pon ame
Ġeffic iency
ĠÙĦ Ø§
ig ue
Ġa os
ãģ« åħ¥
çĪ ¸
t op
æĬ¥ åĳĬ
Ġsou l
/ S
ãĤ¤ãĥ³ ãĥĪ
<re poname
Ġopen ing
} =\
Ġt ant
Ġviol ence
orn o
Ġmiss ing
Ġdiscuss ed
Ġ ÑĢ
Ġins ert
Ġvel oc
Ġthought s
Ġh at
Ġinterest s
.app end
Ġseg undo
and on
Ð½ Ð¾Ð¹
Ġv ÃŃ
d y
25 5
or ney
Add ress
é² ľ
Ġprec is
og a
Ġvict im
ci p
al f
Ġtro is
ëĭ ¨
H A
Ġa head
ĠAp ple
êµ Ĳ
Ġpass ion
Ġb ot
Ġs ounds
Y our
ÑĪ Ð¸
att ers
ĠB ol
el o
ä»» åĬ¡
or em
Ġsal t
I Z
ĠM iss
Ġconduct ed
ĠH en
ic iones
Ġw est
c rit
.j s
ĠM ass
ĠìŀĪ ëĬĶ
Ġdepend ing
Comm and
Ġe u
ç½ĳ ç«Ļ
al ian
ĠĠĠĠĠĠĠĠĠĠĠĠĠĠĠĠ ĠĠĠĠĠ
| B
"> </
Ġt rop
ĠR oy
ãģĵãģ¨ ãģ§
] )Ċ
Ġslight ly
at re
ĠG reat
Ġsec ara
Ġperson nes
Ġ åľ¨
ex port
Ġpr on
çĸ ¾
ï¼Į å°±æĺ¯
Ġdist rict
Ġo x
çľŁ æŃ£
Ġcomp ens
ÙĪ Ø¬
if er
æıĲ åįĩ
ĠCont rol
ut ely
Ġreg ions
çĶ º
ĠI II
ar Ã¡n
éĺ ´
Ġa id
åĨ ¬
ial ize
h ir
ĠPl ant
Ġse us
Ġwill ing
Ġc ub
Ġf Ã¼r
æľº ä¼ļ
Ġ ÑĢÐµ
ãģª ãģ®ãģ§
æĹħ æ¸¸
Ø´ Ø±
åħ¨ éĥ¨
________ ________
Ġa st
Ġt err
( e
â Ħ
_ text
ĠÙĩØ° Ø§
Ġinj ury
/ f
em ail
ï¼Į åį³
Ġre b
Ġ à¦
h ere
Ġfem ale
Ġinst al
ic ian
Ġemploy ee
Ġst ored
Ġmed io
Ġdet ailed
Ġag ua
Ġë į
Ġmess ages
ition ally
Ġ[ '
ĠÂ §
Ġresearch ers
éĴ ¢
_ W
Ġinst ant
Ġle aves
ãģķãĤĮ ãģ¦
Ġdou bt
ãģĦ ãģı
ol o
ìĭ Ŀ
F T
C P
at ural
S ystem
ãĥ¥ ãĥ¼
æķ´ ä¸ª
ãĢĤ ï¼Ī
åį ·
.s h
Ġcomb ined
Ġqu ot
ĠØª ØŃ
Ġs and
ä¸į å¾Ĺ
c ido
åĪ Ģ
un to
Ġte ams
ĊĊ ĊĊ
A Y
m ut
è¯´ éģĵ
ĠHist ory
é½ Ĳ
O G
å¥ ¶
æİ¥ åıĹ
Ġdi am
Ġnue va
ìĦ ł
Ġthous ands
he ader
fr ame
Ġemb argo
Ġthere 's
ve is
n u
. In
ï¼Į æĬĬ
Ġgr id
æ· ¡
ÑģÑĤ ÑĮ
im as
Ġis so
ĠC le
} ;Ċ
ene z
ĠRo bert
Ġj ou
Ġauthor ity
èĳ ī
ĠAf rican
Ġpie ces
ra ction
ĠN ame
ĠMed ical
( v
Ġplus ieurs
go ogle
" ).
i embre
os o
åĬŀ æ³ķ
ĠAd v
éĽ £
our se
n amespace
ĠpÃºblic o
ĠM ult
ac cess
æµ ª
æ¯Ķ å¦Ĥ
25 6
Ġel los
åħ³ éĶ®
Ø§Ø¯ Ø©
ĠÐ ĳ
Ġdrug s
-------------------------------- --------------------------------
Ġkeep ing
Ð½ Ð¾Ð³Ð¾
ï¼Į åį´
n ership
ob e
Ġh ers
Ġrelig ious
U t
Ġ Ø§Ø³Øª
Ġsol ar
", "
Ġdr iver
è¯´ æĺİ
Ġsub sequ
ĠN av
å¨ ĺ
ÑģÑĤ Ð²
Ã¡t ica
äº ķ
æ± ĩ
O b
ĠSt art
P e
ä¼ł ç»Ł
t i
Ġdesp ite
Ġê° ľ
æĺİ æĺ¾
n um
Ġgu arante
Ġcom unic
Ð¿ Ð¸
B ox
Ġlo ved
l ocal
Ġex port
å¥¹ çļĦ
er as
Ġtout es
C M
Ġfacil it
k u
Ġad j
Ġacc ident
\ includegraphics
ç»ı éªĮ
Ġredu ction
Ġphot os
und ial
æ¸ Ī
Ġfind ings
Ø§ Ùĥ
ìĥ Ŀ
X X
ãģ¾ ãĤĬ
Ġqu ando
å¿ĥ çĲĨ
ĠN OT
Ġsh ot
ÙĪ Ùģ
åĨ Į
Ġes a
W S
ex pected
or i
ĠÐ Ķ
ĠCommit tee
çļĦ éĹ®é¢ĺ
ä¸Ń å¤®
x ic
Ġm ientras
ĠÐ ŀ
, '
\ in
Ġt rib
Ġvul ner
ĠB ay
Ø¨ Ø©
Ġpre gn
Ġr ub
ost o
Ð½Ñĭ Ñħ
ëł ¤
N e
Ġba ik
ell er
A uth
ps ilon
å® ľ
Ġdist inct
Ġp ool
å¯ Ĵ
Ġprogram me
r Ã¡
ann els
ìĽ Ķ
/ com
å·¥ ä¸ļ
Ġarg s
å¸ ģ
aw s
ĠìĨ Į
é Ĩ
èĮĥ åĽ´
ĠS aint
ĠÃ ģ
aj a
| -
r s
Ġt error
ä¸ĵ å®¶
A c
çİ° ä»£
d raw
Ġcover age
clud ing
ĠI' d
es a
Ġconf ir
äº ¡
æł¹ æľ¬
S im
ed ge
Ġp p
æ¸ Ľ
è´ ´
Ġw ave
ĠF ile
Ð ĺ
ect ions
our d
Ġevent ually
åĺ ´
Ġjus qu
Ġproyect o
æŃ£ åľ¨
ĠRes ult
Ġaut res
_ RE
Ġth r
çĶµ å½±
N one
Ġne ut
Ġf av
ãĥ¼ãĥ ŀ
Ã¡ p
åĿ Ģ
çı¾ åľ¨
ĠCol or
10 8
Ġrespons ibility
ï¼Į æĹł
Ġhist oria
Ġe gg
ãĢĤ å¦Ĥæŀľ
Ġquel ques
Ġexpl ore
_ key
Ġres istance
ãĢģ ãģĵãģ®
èĢĥ èĻĳ
Ġleg isl
ĳ ľ
Ġn arr
è» ½
Ġtri p
è· ³
éĵ ¾
Ġinstit utions
Ġp end
ind o
. \
éĽ ħ
âĢĻ av
Ġask ing
åľ Ī
åĲ Ľ
Ġupd ated
ê¸ Ī
Ġmeas ured
. io
Ġant ib
ÃŃ d
Ġcharacter istics
Ðµ Ð¹
Ġcam era
Ġrepres ents
M et
C ase
æº ĸ
Ġh anya
Ġsc ene
con f
Ø¯ Ùħ
af ter
Ġjour ney
âĸ Ī
ach es
at Ã©g
) ]Ċ
se arch
Ġv ary
Î ±
. âĢľ
iz aÃ§Ã£o
co in
Ġphot o
çº ¸
Ġsuper ior
Ġmark ets
Ġin her
ph ere
" );ĊĊ
Ġb acter
Ġle aving
ãģĵãģ¨ ãĤĤ
ĠB ill
ãĥ ¦
Ġfl at
èŃ °
v ements
Ġwrit er
ĠT el
sm all
ĠOn line
Ð³ Ð°
é«ĺ ãģĦ
ĠW ell
Ġdest roy
Ġ} ;Ċ
ç¯ ĩ
oc c
ä¹ĭ ä¸Ģ
L ink
G E
Ġj ue
ost a
leg al
n b
Ġap oy
Ġm Ã©t
æĿ¥ äºĨ
Ġìľ ł
em y
j os
S p
Ġber b
ĠØ§ÙĦØ° ÙĬ
Ġnumer ous
ĠP eter
J e
Ġcon form
el per
ĠÐ¿ ÑĢÐ¾
ĠP RO
ic ing
Ġprov ider
Ġm ine
ĠCom put
Ġtou jours
opt ions
po ch
Ġun os
Ġg un
( T
Ġ ...Ċ
è³¼ åħ¥
ĠN on
ĠH and
Ġhold ing
åİ ħ
Ġrecomm ended
Ġimpro ved
pe z
Ġniv el
Ġin hib
ĠT R
/ C
í Ĵ
ol v
i est
AG E
Ġpe que
: "
Ø¯ Ø±
ĠFr ank
de pend
Ġd ress
Ġz one
ãģ£ãģ¦ ãĤĤ
Ġthan k
ãĤı ãĤĮ
Ġal ors
ĉ m
èį £
En g
_ ST
ad io
Ġfr amework
- k
ìķ Ī
Ġaccount s
Ġass ume
ãģ» ãģ©
ser ver
Ġqu ed
os c
ut ional
ff ee
èĵ Ŀ
åħ± åĲĮ
Ġmes mo
Ġk il
Ġcon ver
Ġgu y
10 5
Ġform al
AS S
Ġnet works
ri que
Ġm ale
Ġexp ans
ä¸ĭ çļĦ
æ¶ ¨
Ġdep th
Ġpr ison
/ st
ĠBu ild
ĠUs ing
å® ĩ
Ġcre ation
å® ½
V ersion
iv as
åıĳ å¸ĥ
éģ į
æĪĳ åĽ½
ç»ı è¿ĩ
èĤ¯ å®ļ
â Ĥ¬
clud ed
å° Ĭ
ä¿Ŀ è¯ģ
å¹ ¼
ä¼ ¸
pl ete
æľĢ è¿ĳ
/ v
ĠS un
is chen
I 'm
Ġ iron
Ä Ľ
Ġg od
Ġprom ote
press ed
Ġequip o
h us
on ic
å¯ »
æģ ĭ
u int
{ x
Ġv ital
å¾ Ħ
Ġdis cipl
ubs ection
ĠH ospital
Ø§ÙĦ Ùħ
Ġinter ior
ãĢģ ãģĿãĤĮ
ed y
éŁ ©
ï¼Į çľĭ
Ġent ity
Ġpract ical
im m
Ġag ency
Ġconvers ation
Ġcircum stances
ÙĪ Ø³
ĠWill iam
Ġt ing
å² Ľ
å° ¤
å¾ Ĵ
C I
ĠJe an
f ont
. name
ĠEn d
Ġth rows
ĠpaÃŃs es
ree k
-t he
pos itory
ustom er
Ġhom es
Ġdat as
ol ars
ab e
è± Ĩ
ĠGerm any
éĽ Ħ
ĠCor por
ĠL and
Ġwe ap
ĠÙĥ Ø§ÙĨ
_st ars
ac io
Ġst ick
ap es
Ġpr Ã©c
æĬ ½
} +
olds ymbol
ip p
art s
Ġfavor ite
F R
ut ter
Ġhus band
å¯¹ è±¡
çī Ļ
ä½ľ èĢħ
ĠDem ocr
Ġco oper
æĦı è¯Ĩ
U B
Ġass ets
par se
Ã¤ n
ãģ¨ ãģį
n al
ĠD uring
ãĥģ ãĥ£
b oldsymbol
çĴ° å¢ĥ
in ha
ĠR od
å¦ ¹
æĦ Ľ
Ġfeed back
Ġaccur acy
G l
Ġext ent
ro ad
im ens
Ġequ ation
_ j
èĥ ¡
================ ================
ç¨ ¿
çĲĨ è®º
Ġaccom pl
åľ £
çĽ Ł
Ġe ine
ĠB ig
Ø§ÙĨ ÙĬ
Ġconsist ent
UR L
< gh
Ð½ Ñĥ
æľī äºº
ÙĬØ± Ø©
ic ate
Ġexpl ained
Ġwait ing
Ġs ie
bu f
i ot
ĠMÃ© xico
a que
~ \
g age
Ġdepart ment
or ph
ĠB est
ØŃ Ø©
èµ µ
Ġjust ice
Ġv ote
ĠW ord
ë¬ ´
çº ¯
Ġk am
l at
Ġapproxim ately
ĠD en
Ġproced ures
ist es
Ġst re
ch i
Ġsus p
ãĤ¢ ãĥĥãĥĹ
Ġn icht
U P
Ġeffect ively
ess ions
Ġsin o
ĠAut hor
Ġest ate
é ¬
æĸ° éĹ»
çĶŁ åĳ½
ot os
èı Į
ï¼Į æ²¡æľī
ĠĠĠĠĠĠĠĠ Ċ
How ever
åĿļ æĮģ
l ik
| D
ar eness
ë¯ ¸
ĠP age
Ġlist ed
s qrt
ĠTh omas
on ym
Ġagr icult
Ġ< -
Ġg ro
Ġmin im
D P
Ġsqu are
Ġsmo oth
Ġdel ay
T ypes
ãĥļ ãĥ¼ãĤ¸
ĠIs lam
Ġrec overy
Ġpl ane
é Ĭ
Ø§Ø ´
æĪĲ äºĨ
çļĦ äºĭ
Ġevalu ation
ĠH all
in ations
Ġar ms
Ġd ensity
åŁº éĩĳ
( _
Ġ[ âĢ¦
Øµ ÙĦ
Ġ\ Ċ
å°ı æĹ¶
ut ure
æĽ´ æĸ°
âĢĻ e
Ġso il
à ±
Ġwon 't
ï¼Į çİ°åľ¨
ĠÐ ¶
Ñģ Ð¿
ĠF igure
M E
Ġres p
ang kan
A ccess
O p
ĠAss ert
Ġit er
Ġmus ical
Ġhist Ã³
ÙĦ Ø³
ĠT wo
.s ize
Ùĥ ÙĪÙĨ
/ pro
| \
b ig
wh ile
ĠThe ir
äº¤ æµģ
Ġtempl ate
w iki
ĠÙĩØ° Ùĩ
Ġliter ature
val ues
æľĢ é«ĺ
Ġ ``
M any
ol id
Ġy es
Ñ ĳ
Ġcr ime
ëį °
ãĢĤ ä¸Ģ
èīº æľ¯
/ D
Ġí Į
Ġinter action
Ã¨ res
Ġc ities
amb iÃ©n
ãĢģ å¤§
Ġprov in
Ġb em
c ut
i ap
Ġpos itions
r ate
Ġcomp are
ĠB ud
ĠS E
ĠdÃ© f
ë¯ ¼
Ġallow ing
Ġph ilosoph
Ġh Ã¡
18 4
Ġpro c
Ġne go
up akan
èĦ Ĥ
en os
' in
ar o
æ¶ ¦
Ġauth ent
Ġe ating
m iss
Ġfuer on
ç³» åĪĹ
Ġí Ķ
Ġk ing
def ined
ãĥĲ ãĤ¤
ad ian
æĦı åĳ³
Ġes col
Ġì ¡°
Ġfor g
ĠÙĪ Ùħ
Ġot ra
ç¡® å®ļ
Ġconflic t
Å ĵ
Ġbu ffer
ac ity
Ġ\ <
æĪĲ æľ¬
Ġoffer ing
æ¼ «
B I
å¦ ĩ
Ġcontin ues
Ġk illed
Ġpen y
ce an
at ar
è® ¢
ĠØ£ ÙĬ
Ġa unque
qu are
å°± ä¼ļ
ĠMed ia
act iv
çĪ ·
ĠS y
åĬ ±
Ġsig u
ĠA P
xi ety
ãĤ¯ ãĥ©
ä» ª
íķ ©
Ġfor am
ul ed
èĢ Ĳ
Ġcreat ive
Ġob st
çĦ¡ æĸĻ
Ġr id
- ex
çº ·
el et
åħ¨ éĿ¢
å® ¿
åľ Ĵ
åĪ« äºº
10 3
Ġp ip
æĽ´ åĬł
ent re
Ġcl uster
Ġhous ing
ung en
ï¼Į çĶ¨
Ġr ing
F in
tr es
ê¹ Į
Ġk ill
Ġsud den
Ġdis put
Ġur ban
èµ ¶
Ġam azing
çĽ¸ è«ĩ
Ġarg uments
Th en
Ġspe ech
ä¾¡ æł¼
A X
n on
ĠØ¨ ÙĬÙĨ
Ġdis clos
h ab
Ġdoll ars
ĠK ore
a ud
Ġhistor ical
Ġalgun os
ĠAmer icans
å¯ Ħ
ell ed
up er
ìļ ´
am ment
ä¿Ŀ éļľ
Ġdepend s
æ¯ İ
Ġm Ãºs
Ser ver
è¿Ļ æĺ¯
Ġass istance
æĶ¹ åĸĦ
th en
ĠNet work
C al
Ġrem aining
Ġcir cul
cl ose
Ġtre es
O pen
im est
Ġadult s
Ġ íķ´
åŃ Ļ
ä» Ļ
ãĥĿ ãĤ¤ãĥ³ãĥĪ
ire ment
Ġlist en
g re
os es
m d
Ġcomp aÃ±
ä¼ Ļ
ĠSe cond
{ P
Re qu
æĳ Ħ
f ico
ĠSant a
ĠO h
è© ³
Ġ} );ĊĊ
Ġlic ense
ãģ ľ
Ġch am
Ġrem ote
Ġre in
ãĤ¢ ãĤ¤
ĠsÃ³ lo
ari able
ĠF OR
ĠcÃ³ mo
Ġch apter
Ùĩ Ø±
Ġmainten ance
ional es
w an
Ġtrad ing
ÐµÐ½Ð¸ Ðµ
ì Ī
ĠÃł s
ĠIn f
S ee
Ġg ender
ĠB et
à¤ ¤
az ine
ãĥ¼ ãĤ«
M T
z z
ĠP ed
act s
Ġposs ibil
ĠW ater
- on
ĠSm ith
Ġsh aring
Pro ject
éĺ¶ æ®µ
c ape
por ter
H S
éĺ ħ
Ġac uerdo
ãģ¹ ãģ¦
ĠD eb
í ŀ
ï ¿
cl aim
plo ad
åıĹ åĪ°
çĶµ è§Ĩ
ĠM ain
Ø§ÙĦ ÙĬ
ë¶ Ħ
er ver
çĪ¶ æ¯į
ĠJos Ã©
ern el
æıĲ åĩº
en ciÃ³n
è° ĵ
17 0
Ġl ado
è¦ ĸ
åĩ ¡
port e
item s
O m
Ġê³ ł
æĸ¹ æ¡Ī
Ġin ner
ĠL u
ident ial
P ort
Ġaf in
ty pes
Ã¡n d
H ttp
Ġval u
ol s
im ately
Ġpl ot
Ġhor iz
æģ ©
y o
í ģ
all er
ãģį ãģŁ
B ar
åĤ ¨
ĠëĤ ´
æ· »
rit o
åĨľ æĿĳ
Ġcontain er
cc iones
Ġn am
çĲĨ çĶ±
ãĥĩ ãĥ¼ãĤ¿
Ġcons umer
- com
ed it
ad r
ĠU ne
U se
Ġêµ Ń
j as
ì ¦
Ġstart s
äºº ãģĮ
Ġcon ce
ĠM ethod
ann er
é£Ł åĵģ
ER R
g os
Ġwor se
Ġexpos ure
Ġcitiz ens
Ġannoun ced
Ġber k
åĲĮ ãģĺ
Ġexpress ed
Ġfact s
Ġoper ator
åĪ¶ ä½ľ
Ġproces o
Ġpost s
ãĤ° ãĥ©
3 50
Ġd ict
ç§ Ł
ĠìĹ °
Ġlog ic
Ġhelp ful
| {{
Ġof re
Ġcompar ison
E d
ament os
- and
ve ctor
S ec
æĥ³ è¦ģ
Ġë ¹Ħ
z as
è¿ Ŀ
èİ «
éģ Ĺ
Ġris ks
ĠìĿ ĺ
10 4
Ġbo ost
Ġcrit ic
ĠC reat
ult y
è§Ħ åĪĴ
IT Y
ĠP S
Ġsub stit
Ġsitu ations
ĠÐ¿ ÑĢÐµ
= Ċ
Ġemploy ment
L ast
Ġcha que
ãģ«ãģª ãģ£ãģ¦
ìľ ł
æĶ¹ åıĺ
Ġb is
åī Ĥ
Ġc et
Ġpub lish
ãĢį ãĢĮ
i ens
Ġwe ar
Ġconcent ration
ãĤī ãģĦ
Ġembod iment
em as
Ġn ouvel
Ðº Ñĥ
EN D
éķ ľ
à¤ °
Ġin frastructure
Ġtal ent
c urrent
Ġsu itable
Ġengine ering
ĠA ff
ãģĹãģĭ ãģĹ
w in
Ġmanag ed
: right
ÑĤÐµ Ð»ÑĮ
é¦ĸ åħĪ
Ġfunction al
Ġinst ructions
èĤ ¥
Ġd ream
Ġv ig
/ **Ċ
/ M
ä»¥ åīį
æ´» åĭķ
ä¿ Ĥ
Ġin ject
Ġreason able
List ener
F ilter
Ġdynam ic
. annot
ĠT imes
Ġch amp
Ġcall ing
Ġs ports
ĠP ay
Ġsecond s
Ġun c
ĠÂ ·
Ġl uck
ãģª ãĤĵ
Ġwe ather
ä¹ ³
gr ade
âĢĻ ,
Ø¹ Ùħ
ib li
ĠÐ² Ñĭ
ĠÐ¿ ÑĢ
ul er
Ġw a
Ġë Ķ
ĠEl le
éĻ º
Ġc oc
ķ Į
æĦı ä¹ī
Ġf aster
ç¼ ©
Ġdistribut ed
Ġp in
Ġì Ĭ
Ġw itness
ãĤ¯ ãĥĪ
æĪĳä»¬ çļĦ
å£ ģ
ìĺ ģ
Ġeduc ational
ä½ĵ ç³»
Ġí Ĩµ
( R
é£İ éĻ©
Ġcont ro
Ġ.. ...
As ync
æĹ¶ ä»£
Ġmer upakan
è© ķ
Ġelect ronic
. Add
æ Ĩ
ĠM ap
Ġì Ľ
Ġfor th
ret ch
ĠIt s
èĢĥ è¯ķ
åĪ© çĽĬ
Ġmonitor ing
Ġsk ill
å¹¶ ä¸į
Ã¨ ne
U I
Ġr aw
b our
Ġcour s
Bu ffer
Ġthey 're
ob re
ç«ŀ äºī
ãģį ãģ¾ãģĹãģŁ
é¥ ®
Ġelect ro
ĠR iver
Ġí ĸ
ï¼Į å°ı
ĠC ard
ãģķ ãĤī
^ ^
Ġdel ete
Ġob t
J ust
Ġste el
ç¨³ å®ļ
Ġdir ig
åĲĮ åŃ¦
ar ÃŃa
t x
è®¤ è¯Ĩ
Ġp ouvez
n ull
Ġfre edom
Ġ\ &
omet ry
Ùĩ Ø¯
Ġthan ks
ob j
{ A
Ġun iversity
Ġsurg ery
Ġbro ther
Ġrefer red
åĽŀ çŃĶ
en ant
éĹ Ń
ĠA ccess
} ;ĊĊ
Ġwas n
* Ċ
ĠJ ava
- related
G e
az z
åĨ ł
og y
Ġext ension
Ġmen u
Ġh et
æı Ľ
ier re
Ġbig gest
Ġs pring
ãĥĩ ãĤ¶
Ġt ick
åĩ ½
ĠR ef
ĠA T
èµĦ äº§
ĠCar ol
åĶ ¯
M C
åªĴ ä½ĵ
Ġindic ate
åľ° åŁŁ
æĬĢ è¡ĵ
Ġìķ Ĭ
Ãº de
D el
æ¡ £
Ġê ¸
Ġf ruit
ien ne
æĦı æĢĿ
Ġcar a
ĠY es
)ĊĊ Ċ
H P
ic ion
ĠPol icy
ĠWest ern
Config uration
Ġtem po
end ar
ste in
ock er
p ass
åĬĽ éĩı
ÃŃ l
Ġsupport s
å±ŀ äºİ
ed ing
G R
id ents
erv ation
ĠPro cess
Ġins p
ĠDist rict
Ġf aut
åĪĨ åĪ«
Ġemot ional
çµ ¦
ĉ s
c ount
1 12
Ġpol l
æ¹ ¿
ãģĹãģ¦ ãĤĤ
3 60
Ġcont empor
ĠSo ft
at akan
ĠC R
o es
ëĭ ¹
Ġmuch os
Ġen fer
âĸĪ âĸĪ
Ġl Ã©g
æ» ĳ
w ater
Ø¨ Ø¯
Ġb lo
çª Ĺ
M ode
é¥ °
om ic
y al
é¢ ľ
ĠF ood
Ġde pos
ãģª ãĤĭ
Ġg ente
ãĢį ãģ¨ãģĦãģĨ
ap pe
Ġconf idence
Ġtop ics
B o
Ġfe els
éł Ń
i Ã£o
éĸĭ çĻº
Ġsh oot
B r
æĿ¥ è¶Ĭ
ĠÃºlt imo
ĠĠĠĠĠĠĠĠĠĠĠĠĠĠĠĠ ĠĠ
Ġs plit
ìĹ Ń
out s
æļ ĸ
ic ious
Ġbe berapa
è¿ĩç¨ĭ ä¸Ń
æ³ ī
M on
çķ °
ĠÐ ¢
Ġl ots
æĹ ģ
ri or
_f ile
n am
å¼ µ
v ol
Ġcap able
-s h
Ġseg unda
ĠD atabase
ãĥĥ ãĥģ
Ġb io
Ġjud gment
Ġfaz er
ett es
bre ak
Ġprofessional s
æ¡ ¥
os ing
Ġj ump
Ġest able
Ġv eter
Ġn orth
ãĥ §
ak u
éļ Ķ
W ork
ìĹ °
Ġil s
ãģĻ ãģĻ
ãģĪ ãģ°
ä¾ §
æĭ¥ æľī
y ou
st ood
å£° éŁ³
-t ype
èĸ ¬
Ġsp ending
Ġde j
ĠAr ab
èµĦ æĸĻ
| N
ĠC ivil
Ġs rc
Ġcont rib
18 3
######## ########
æ¯Ķ èµĽ
%% %%
Ġser ta
Ġf an
b as
åľ Ĩ
æĲ º
S cript
Ġë° ľ
çļĦ æĥħåĨµ
Ġwor ry
Ġt ables
ãģŁ ãĤĬ
ĠP op
Ġrel ax
U G
ĠG ar
ĠD a
Ġnat ur
Ap plication
è¶Ĭ æĿ¥è¶Ĭ
ÙĪ Ø¹
Ġap enas
an al
ĠÐ± Ñĭ
Ġm ail
Y PE
æŁ Ķ
{ S
Ġsegur idad
äºº çĶŁ
Ġg el
Ġgra v
Ã¡ vel
Ġag ar
ĠC ert
Ġappe al
Ġestim ated
p u
Ġda ughter
Ġcollect ed
å¯¾ å¿ľ
Ġcel a
id Ã©
Ġabsol ute
........ ........
Ã©r ation
è°ĥ æķ´
ĠCon f
æĩ Ĥ
Em pty
ãĤį ãģĨ
Ġper ce
ÙĪ Øª
Ġconsider ing
Ġz ona
ãĤ·ãĥ ¥
Ø¦ ÙĬØ³
. de
Ġlib ert
èµ ¤
Ġconcern ed
Ġsu ite
j Ãł
Ġrecord ed
D ev
ĠØ® ÙĦØ§ÙĦ
aut o
L S
è¶ħ è¿ĩ
ĠC ath
ĠØ¨ Ø¹Ø¯
Ġvide os
ĠØ§ÙĦ ÙĬ
Ġfor get
Ġcru cial
Ġst reet
Ġd ra
ĠEx per
æĢ§ èĥ½
Ġb at
om y
Ġhers elf
Ġsou th
éĥ½ æľī
èį Ĳ
Ġsup posed
ĠPl ay
Ġsup pl
å° ¾
ĠOn ly
ĠFranc isco
def ine
æ¯ «
Ġseg u
ä¸ĭ è½½
Øµ Ø±
ost ic
Ġprem iÃ¨re
åĪ ·
éĥ½ ä¸į
Ġpeu vent
Ġr ain
g le
ĠM at
Ġsuggest ed
é§ ħ
Ġphot ograph
Ġfacil ities
_ V
contain er
uk a
ëĤ ´
Ġprinci ples
vare psilon
æī ¬
Ġpart ners
Ġ ÑĤÐµ
Ġ ice
åĲ ´
Ġjun to
ãĢĤ ãģĿãģ®
( :
èī² çļĦ
è²© å£²
Ġout comes
è¯ º
ãĤĴ æĮģ
Ġj ul
c ale
íĴ Ī
n ode
os ph
Ġbag i
ĠM S
an cial
il an
Ġseg uir
Ġh ing
Ġgr ade
Ġs ÃŃ
Ġin du
Ġr ig
Ġel eg
Ġcoun sel
Ġs yst
M ax
Go ogle
resh old
Ġsign s
ibil idad
l ar
Ġfr ente
c or
Ġob ra
ĠF alse
åĽ ³
Ġofficial s
Ġn ada
Ġdef endant
A I
Ġno ise
åį Ķ
Å Ľ
Ġtiss ue
f irst
ãĥĿ ãĥ¼ãĥĪ
arn ing
ãĥ¼ãĥ Ħ
Ã© ric
iction ary
Ġocc urs
Ġinf ection
}ĊĊ //
Ġt ak
` ,
< String
Ġêµ ¬
Ġappe ared
ĠF ort
Ġtrans action
ï¼ ĸ
.f ind
ack ing
AC T
ap ed
Ġprof it
Ġres olution
Ġaf irm
m b
æĿ ¯
Ġcry pt
Ġc ards
Ġig ual
mer ce
T op
ĠB it
Ġac know
åıª èĥ½
é¢Ĩ åŁŁ
Ġc ot
Des cription
ĠØ§ÙĦØ «
Ġpart ie
ĠØ ¶
Ġrun s
Ġhealth care
ãĤ Ĩ
ç§ ¦
ars h
/ g
ĠE ll
çĽ¸ ä¿¡
ÙĤ ÙĦ
Ġnucle ar
AP I
è¯ ļ
fl ag
ÑģÑĤ Ð¾
Ġdec ades
Ġbre ast
ĠAnd roid
olog ie
Ġproduct os
Ġfrequ ently
Ġsever e
ĠÂ» Ċ
æľĢ æĸ°
Ġprep are
ĠJ er
Ġproblem as
Ġs ant
Ġl ived
Ġang le
Ġecon Ã³m
Ġswe et
re al
ual ity
Ġposs ibly
ĠP rem
Ġgob ierno
Ø° Ø§
ãģ¾ ãģĹãĤĩãģĨ
h av
ĠÙĪ Ø£
Ġyou th
AB LE
? ?
Ġmel akukan
Ġdeg rees
Ġj ours
è¾ Ĩ
ï¼ĮéĤ£ ä¹Ī
ĠÐ ĵ
Ġf illed
un ning
un j
E F
ĠComm unity
in ue
ãĤĪ ãģı
Ġexp ensive
Ġob j
s v
v os
Ġpro port
Ġn ative
ĉ for
st on
Ġd ialog
Aut hor
ĠI' ll
ãĥ³ ãĤ¯
re ement
ik ut
Q ue
10 6
Ġt ight
Ġover ride
Ġtr igger
Ġfin ished
Ġp s
C ar
ÙĬ Ø§Øª
æŃ ¯
ãģ§ãģĻ ãģŃ
Ġconsum ers
B O
in fo
Ġhigh light
urs or
emb ro
ic amente
åĲİ çļĦ
Ġmemb uat
az o
è´ ·
Ġe c
( l
Ġre tr
å¹³ åĿĩ
æĻĤ ãģ«
_ value
ĠEn ergy
{ p
Ġel lo
ä»¥ æĿ¥
Å ¾
å½ĵ æĹ¶
åıĤ ä¸İ
\ u
Ġpass word
Ġdeb ate
ĠìĦ ł
ir Ã¡
Ġfil ms
Ġë§ Ī
Ġvis ible
å¼ ĥ
Ġan terior
è ¤
ĠS ign
ĠS Ã£o
æŃ£ ç¡®
Ġch ose
Ð½Ñĭ Ð¹
æ´ Ľ
ãĥĥ ãĥī
ĠseÃ± al
Ġfin ish
Ġterm inal
Ġaf ect
Ġapproach es
åľŁ åľ°
å¤ļ æķ°
g ers
ç±» åŀĭ
ë£ Į
Ġd ich
ç¥ Ŀ
itch en
Ġag ents
æĿ¥ æºĲ
Ġf i
æ´ ¥
ĠAr gent
ãģĤ ãģ£ãģŁ
Ġg er
ĠØ¹ ÙĦÙĬ
Ġexist ence
Ġsay a
ĠI V
( *
Ġstand ing
Ġsh it
Ġh i
ãĤ¸ ãĥ£
ç¾¤ ä¼Ĺ
b res
Ġ{ @
ĠÑģ Ðµ
{ T
Ġch osen
Ð ¢
Ġìĸ ´
Ġme ille
Ġorgan is
Ġv Ã©
Ġret ail
å¾ ¡
ak ed
Ġcompet ition
Ð¾Ð´ Ð°
J son
ãĥ³ ãģ®
Ġìĭ ł
.C ol
Ġ( *
Ġdef in
erv ed
Ġaccur ate
Ġmedic ine
Ġmus cle
Ġb le
Ä ģ
Ġfe es
ur i
ãģĻãģĻ ãĤģ
hip s
Ġë° ©
Ġph arm
) {Ċ
ec ciÃ³n
-f eira
ê ·¸
v ia
Ġfil ed
und le
åħ¨ çĲĥ
äºĭ ä»¶
Ġan unci
Pro cess
å¹´ åº¦
ch em
ĠB ack
ok ing
ĠS and
Ð½Ð¸ Ñı
Ġthem e
Ġimpos sible
å¾ Ĳ
Ø· ÙĦ
æĥ³ åĪ°
Ġk es
M in
ps i
Ġo portun
ĠN umber
æĮ Ĥ
ung s
è£ ģ
Ġbr ight
Ġve c
ê± °
ple ments
' ĊĊ
! âĢĿ
! [
ĠP as
Ġread er
æ¶Ī æģ¯
Ġtem p
} -\
Ġneigh bor
ĠEn vironment
Ġfood s
åı¦ å¤ĸ
ic ago
ven ir
_ add
Ġf Ã¡
Ġans wers
ĠÙĦ Øª
Ġsu ff
ĠLou is
å®£ ä¼ł
Ġdr am
Ġagre ed
Ġf iscal
âĢĻ Ã©t
Ġs ides
Ġrealiz ar
Ġlo op
è¾¼ ãģ¿
Ġ\ \
ĠÙĪ Ùĩ
Ġf ic
ç° ¡
ãĢģ ä¸Ģ
Ġhum ans
ic ul
Ġsched ule
Ø§Ø «
Ġel ection
Ġappro ved
a us
Ġprodu its
çĩ ĥ
E t
im ientos
Ġcin co
ãĥ¼ ãĤĴ
U rl
å¦ »
æ¹ ¾
Ġal ta
Ġencour age
un ca
Ġus age
Ġsuggest s
Ġev olution
ĠMark et
Ġaccept ed
éĺ »
ĠB al
av irus
ĠV ict
æĥ ł
è´ ¸
Ġesp aÃ±
R ev
- il
Ġl ogr
Ġre ct
ang k
Å ¼
Ġcomm itted
ci e
Ġìĺ ¤
åħħ åĪĨ
Ġpos ible
or ie
ĠN O
ç© į
Ä ĩ
Ã§ os
Ø« Ø±
ç¥ ĸ
Ġ> =
Ñĺ Ðµ
est ra
E ste
-v ous
ãģ¡ ãĤĥ
at if
ĠRuss ia
' .
çĶ³ è¯·
Ġ ub
" ),Ċ
ãĥ¡ ãĥª
ĠprÃ©s ent
ang g
z t
Ñģ Ð°
n ab
y an
ist ent
Ġentire ly
adi us
Con st
è§Ħ æ¨¡
Ġcalcul ated
Ġadv ance
Ġv in
Ġf if
é¬ ¼
Ġhold s
æ¢ ħ
Ġsitu aciÃ³n
æĦŁ æŁĵ
)$ ,
Ġrec over
ĠE le
Ġa comp
Ġstat ist
é ŀ
ãĢĤ ãģ¾ãģŁ
angu ages
U ne
Ġch er
Ġsuccess fully
Ġsupport ing
H ist
Ġutil is
D irect
å¿ į
Ġcons ent
ĠÐ² Ð¸
ï¼Įè¿Ļ ä¸ª
ont al
ãĥ¬ ãĤ¹
Ġsu c
B M
Ġindic ated
ãĥ Ĵ
k es
P lease
ãģ¤ ãģ®
Ġhe 's
Ġcom ent
èģĮ ä¸ļ
ĠE dit
åĶ ±
ĠRich ard
Ġsu it
Ġcrit eria
èĤ ¤
ĠM ach
ãĥŃ ãĤ°
ant ages
99 9
Ġch air
_ G
Ġcl im
ĠÙĥ ÙĦ
abil idad
Ġrece iving
omet imes
IN T
Ġext ended
ak i
è®¾ ç½®
ãĥĹ ãĥ©
ï¼ Ļ
ah kan
% .
Ġm atters
rid ge
Ġt eng
Ġre cher
Acc ording
Ġdiscover ed
çĬ¶ æħĭ
E G
W ell
Ġequival ent
Ġdec ir
l ang
ÙĪ Ø§
Ġput ting
ä¿Ŀ éĻ©
Ġsen ior
! ĊĊ
Ġ ×
Ġform ula
Ġun iform
ä¸ī ä¸ª
p ub
è°ĥ æŁ¥
ĠB oth
_s et
l ines
ĠF ern
æ¶ ī
Øª Ø¨
èĸ Ħ
Ġcal idad
Ġmin ute
Ġknow ing
ä¸į å¥½
Ġcon vent
Ġdes ire
Ġtrad ition
er d
ĠC N
dis play
Ġn urs
UL T
åŃĲ çļĦ
ĠMart in
ÃŃcul o
Ġë§ Į
Ġse j
ĠM useum
- level
er int
Ġanaly z
Ð½Ñĭ Ðµ
E ach
Ġl ig
or o
T od
Ġdirect ory
sp ace
ĠPart y
è¿Ĳ è¡Į
Ch ange
ot i
Ãª m
Ġemerg ency
V D
( {Ċ
Ġcompos ition
Ġ+ Ċ
Ġgirl s
Ġcont en
åĨĻ çľŁ
til de
ch ron
ĠØ «
Ð½ Ñĸ
ĠMad rid
Ġassoci ation
Ġpl astic
Ġb attle
00 2
çµĲ æŀľ
emb l
ul as
å¡ Ķ
è¯ ¦
Ġhy per
Ġc ul
Ð´ Ñĥ
åĩº çīĪ
Ġdef end
åĨľ ä¸ļ
Ġab use
Ġdis co
Ġap pr
Ġim per
ld ots
Ġwatch ing
ä¸į ä»ħ
ĠCent re
- K
åı ¬
- W
ĠR om
Ġcompreh ensive
Ġreal ize
Ġre tain
åı¯èĥ½ æĢ§
Ġstop ped
Form at
Ġun f
at ers
åĮº åŁŁ
ĠC EO
ol der
è¦ §
Ð¿ Ð°
ãģĬ ãĤĬ
Ġmix ed
Ġh ub
Ġfor ced
fort unately
ĠØ¨ ÙĨ
_ H
é¸ ¡
Ġm g
ect s
Ġabsol utely
â Ļ
Inter face
åĪ¤ æĸŃ
II I
operator name
ind s
é¼ ĵ
Å ĳ
ÃŃ p
åĢ º
Ġad equ
ãĤ¹ ãĥŀ
ä¼ĺ åĬ¿
ĠFlor ida
Ġche z
ĠpolÃŃt ica
Ġcent ro
íŀ Ī
ÑĪ Ðµ
ĠdÃ© jÃł
éĽĨ ä¸Ń
Ġinter act
Ġiss ued
Ġprovid ers
è¢ ĭ
Ġsens or
ãĤĦãģĻ ãģĦ
-------- ----
for cement
Ġstat ements
right arrow
ÙĪ Ø§Øª
as p
ĠJ ac
ë§ Ī
Ġr ough
ä¸¥ éĩį
ĠVal ue
ĠR en
//////// ////////
èį ·
åħ Ħ
ĠØ ²
Ġmar riage
all ow
ãģłãģĳ ãģ§
Ġdo it
ãĢ ľ
ĠM aster
Ġdet ection
Ġb ra
ï¼Į åĲĮæĹ¶
åİ» äºĨ
Ð¼ ÐµÐ½
mult icol
Ġm oy
Ġtyp ical
Ġan xiety
ĠT ask
ĠP ub
od ed
ant i
Ġexpl an
id i
æº Ģ
Ġmob il
Ġtest ed
ĠCl ub
h Ãµes
uk e
å¥³ äºº
Ġsol ve
\s ubsection
æ¢ °
ig os
Ġperm ite
D i
Ġpri x
Ġdedic ated
Ġt un
ĠN ous
ãĢģ æĸ°
ĠâĢ ŀ
èĢħ ãģ®
æķ ı
ĠR os
æĸ½ å·¥
ãĤ· ãĤ¹ãĥĨ
2 20
_ of
åĽł ç´ł
ĠÙħ Ø¬
Ġgr ab
ä¸Ģä¸ª äºº
Ġrepresent ation
Ġadv oc
iss ement
Ġni Ã±os
Ġcorpor ate
Ġac ord
ĠWh ere
Ġtrans mission
çĿ Ľ
ç± į
Ġa present
r Ã³
Ġìĥ Ŀ
rit ing
Ġcomp te
Ø´ Ø§Ø±
åĭ ĩ
Ġsign ed
Ġresid ents
ãģĹãģ¦ ãģ¿
Ġh ora
éĢļ å¸¸
Ġintern acional
Ġpar k
m essage
r at
Ġapplic able
ĠCh em
Ġst rict
Ġcon ference
* }ĊĊ
Ġbro ken
Ġspe aking
ç¹ ģ
Ġvill age
ac ias
Ġpl aintiff
Ġa er
Ġdi abetes
çĶ ĺ
Ġanal ys
æ® Ĭ
M ay
Ġgood s
èĩª åĬ¨
Ġincre d
Ġqu arter
Ġwe alth
ä½Ĩ æĺ¯
^ \
ì° ¨
Ġmel hor
Ġcomm ission
æİ¨ èįĲ
ìĭ ¤
Ġown ers
Ø³ Ùħ
å© Ĩ
ĠP DF
Ġdisc rim
Ġvalu able
èĨ ľ
18 1
S l
in et
æĳ ©
S pe
Ġ icon
Ġint ens
ĠS D
{align ed
ãģĭãĤī ãģ®
ëŀ ĺ
multicol umn
ist ence
ĠC u
ï¼Į ä¸İ
ãĤ·ãĤ¹ãĥĨ ãĥł
âĺ ħ
ĠV ous
b at
Ġ Ï
ter a
Ġb ull
if fer
Ġman ip
le urs
ãģĿ ãĤĵãģª
Ġend ed
Ð ķ
id em
Ġst ack
Ġh ur
ĠĠĠĠĠĠĠĠĠĠĠĠĠĠĠĠ ĠĠĠĠ
ĠS um
å®¢ æ§ĺ
S earch
Ġc row
Ġre place
P N
Ġk ata
Ġyou 'll
ack et
Ġì ¹
éĩı çļĦ
ÙĤ Ø±
Ġem ple
-d ay
al m
Ġimpro vement
éĸĭ åĤ¬
Ġm ol
av en
åıĬ æĹ¶
Ġì µľ
Wh ere
ĠØ³ ÙĬ
, -
çĶŁ çī©
æŃ ©
Ġann Ã©es
al ia
å®ŀ éªĮ
à¯ į
ç· ¨
Ã¡ri a
Ġr Ã¡p
Ġtr ata
rodu ction
ĠE th
ER S
é¤ ¨
Ġhouse hold
{ L
en cing
Ð» ÐµÐ½
ĉ f
Ġclos er
Ġco al
En try
ĠH ot
A v
Ġw is
ih at
Ġu int
ãĢĭ ï¼Į
- old
ĠRuss ian
éĢ ĥ
Ġof icial
Le vel
r ig
Ġsel on
l an
} )Ċ
- V
S ty
Ġloc ations
é¡ ĺ
AC K
Ġacc eler
ë¡ Ŀ
Ġmain ly
ĠC all
Ġte x
Ġsubject s
ĠF ire
Ġprob ability
. value
Ġr ess
ov en
ĠC ur
ĠO udhia
ik asi
al o
ĠU r
1 15
Ġfam ous
st atus
éħį ç½®
åĬĽ çļĦ
Ġmujer es
Ġh ier
Ġbr as
Ġfin ance
Ġb odies
ĠDan iel
Ġgen es
åĢĭ äºº
ĠM ond
Ste p
Ġorgan ic
opt ion
ĠL ink
pro cess
F L
å¯¹ æĸ¹
ãģª ãģĭãģ£ãģŁ
æĺ¯ ä»Ģä¹Ī
Ġdeterm in
åĲĪ åĲĮ
Ġn erv
Ġcl oth
and e
Ġr ural
åģļ å¥½
çĭ Ĺ
Ġst able
ĠW all
Ġv uel
å½ »
æłª å¼ı
" ),
-m ail
Ùĥ Ø§ÙĨ
RO M
_ ch
ãĢģ âĢľ
agr aph
Ġcho ices
Ġap are
ĠìĹ Ĩ
.j pg
p Ã©
Ġman ual
Ġhac ia
Ġco ffee
Ġlink ed
ãģ¾ ãģļ
ë Ħ
Ġdec or
u as
)) ,Ċ
b b
{ O
äºİ æĺ¯
æĮģ ç»Ń
" /
Ġst one
ĠC opyright
æľŁ éĹ´
op ath
Ġvert ical
åĪĨ éĴŁ
e a
ac ht
Ġder iv
Ġr a
Ġour selves
it ative
Ġconsum ption
Ġcer ca
s en
å± ı
Ġstud ied
ÙĬ Ø«
ĠìĹ ¬
ì ¡
OR D
Ġbaj o
Ġh all
æĲ ľ
æĥ ¯
çµĮ é¨ĵ
ĠL ocal
ĠS P
Ar gs
Ġreve aled
ä¸ ¹
im it
åģ ´
Ġcould n't
-w idth
Ġwid ely
ier ra
æĳ ĩ
Ġins pect
¢ ħ
ĠP ac
ĠW omen
w s
Ġf ashion
Ġj av
k ins
Ã¢ ce
Ġk ami
Ġsa ja
ĠD igital
Ġc ogn
ĠY ear
w est
ĠØª Ø¹
åŁ¹ åħ»
o om
Ġoff set
æĲ ŀ
Ġkind s
ĠEn t
Ġsh ut
Ġcon sole
èĩªåĪĨ ãģ®
Ġachie ved
im pl
Ġperson a
Ġest Ã£o
ag ger
Ġcont ribute
èĴ Ļ
F O
Ġdi pl
Ġmet ab
ĠJ uan
Ġrepe ated
U RE
Ġse in
Ġn odes
ãĤĭ ãģĵãģ¨ãģĮ
g el
ĠT en
Ã´ le
Ġaccom p
ĉ t
Ġh ij
Ġmil k
ĠM ov
äºĨ ä¸Ģä¸ª
åıį åºĶ
S ince
r ition
b in
è¡ ¡
åł´ æīĢ
Ġimplement ed
ĠR oman
Ġpublic ation
á »
Ġb ott
p ite
Ġcar acter
pro perty
Ġv ice
Ġl um
Un it
ĠC OM
äº¿ åħĥ
Ġaut re
ë¥ ´
ĠH el
c ard
ĠR am
Ġcommon ly
Ġinstall ed
ç£ ¨
ing o
Ġfe e
æķ° åŃĹ
ĠP os
Ġmas k
h n
ĠF ac
ĠK ab
Ġ"" "
equ al
çĥ §
æ¨ Ļ
j ud
un al
ĠN eg
âĢľ I
Ġmanufact uring
es c
Ġbuy ing
æ³ ģ
Ñī Ð¸
18 2
Ġb rowser
oun g
jo in
Ġposs ibility
Ġsu as
id ers
Ġhyp oth
Ġpart nership
å· §
Ã© f
v ision
N ext
ĠS uch
æ¯ķ ä¸ļ
auc oup
ãģª ãģŁ
G A
l aciÃ³n
.Ċ ĊĊ
çİ° åľº
Ġle y
ĠInst ead
ĠS und
çĮ «
Ġj son
ëĤ ľ
ĠCon stit
20 3
iz o
Ð» Ñĥ
Ġd ose
)$ .
us her
ãģŁãĤģ ãģ®
-s core
an che
Ġf ro
ĠL abor
Ġgu ys
ĠC S
èĳ £
Ġnouve au
Ġreg ulations
Ġend s
Ġn ive
ĠB rown
Cont rol
çŃ ĭ
hing ga
åĩ ¦
ap plication
ĠChar les
red it
T ube
} /
_in fo
ĠAn ton
ä¼ļ æľī
ãĥķãĤ §
Ġpub l
æĭ Ł
Ã©ri eur
O ther
èĪ Ĵ
Ã ²
! "
Ġg ap
Ġ Ñı
ĠSpe cial
.m d
ìĿ Į
Ġh ari
h m
Ġanal yt
el ah
ĠÃ ¼
ä¹Ł æľī
ĠP oint
Ġt Ã©lÃ©
Ġal ert
ix el
Ġunder stood
Ġmas ih
ol Ã³g
äºº æīį
Ġv oy
Ġcollabor ation
Ġfl ag
Ġfun c
** ĊĊ
Ġinvestig ation
Ġab andon
ĠìĦ ľ
-l ike
åį« çĶŁ
Ġn ing
Ġsav oir
ãģĿ ãģĵ
è¯´ çļĦ
æĮĩ å¯¼
P ress
u ing
t ax
Ġaw areness
Ġj og
are a
ĠP ankaj
Ġsub mit
æµ ®
ë² ķ
ar ks
med ia
å¦Ī å¦Ī
ãģĦ ãģªãģĦ
ool s
cont rol
Ġb inding
ent ry
ĠL A
Al so
æİª æĸ½
m id
Ġslow ly
åĨħ éĥ¨
ĠAt l
Ã» t
ĠÃºlt imos
Ġreview s
Ø· Ø©
ĉ private
ãĤ¢ ãĤ¯
ä¸į å°ĳ
è¨Ń å®ļ
ĠĠĠĠĠĠĠĠĠĠĠĠĠĠĠĠ ĠĠĠĠĠĠĠĠĠĠĠĠĠĠĠĠĠĠĠ
Ġwe 're
ç¾İ åħĥ
L ocal
Ġocc asion
å¿ ½
Ġp endant
P at
æķħ äºĭ
ĠC a
ĠM ount
Ġproble ma
Ġhid den
í İ
EX T
Ð ľ
on al
( D
Ġë¯ ¸
ĠEn ter
Ġrepresent ed
Ġre cept
ĠE p
( data
c f
Ġrespons es
Ġex pres
Ġrecogn ized
çĶ· äºº
is che
C or
< ?
M I
ä¿ĥ è¿Ľ
Ġread ers
Ġpandem ic
ãĤ¹ ãģ®
Ġcont rolled
Ġt orn
Ġ ib
Ġfamil ia
n ight
ĠO S
à¤ ¨
íķľ ëĭ¤
ĠB ern
ãĤĴ ä½ľ
Ġobject ive
è¿ ħ
uel le
( value
unt ime
P res
Ġreven ue
ph en
éĩĮ éĿ¢
up le
Ġnuest ros
Ġplan et
Ġtem a
Ġconse gu
ãĥ« ãģ®
Ġoccur red
Ð¾Ð² Ð¸
ĠØ£ Ùĥ
ĠÙħ Øª
Ġsecond ary
ut ed
è¦ ª
Ġinf lam
Ġqu art
ro ke
F unction
ç¦» å¼Ģ
ain es
d ated
Ġpartic ul
Ġw inter
arr ant
ens us
asc ular
oid s
Ġcum pl
ativ os
åĬ³ åĬ¨
. k
ĠS elf
Ġflu id
Ġcu atro
St at
er te
ĠVir gin
Ġta ught
Ġcontain ed
Ġp ant
Ġbuild ings
an an
Ġwould n't
- J
ĠPl us
ï¼ ĺ
ç· ı
Ġte eth
ëĬ ¥
Ġenter ed
He ader
ĠF ind
Ġth in
æ± ¡
í Ĩµ
åŃ Ķ
ific ial
{ s
Ġ ]Ċ
ĠM ill
åı¯ æĺ¯
ob a
éĿ¢ å¯¹
å¤ļ çļĦ
trans form
çŁ ¿
Ð· Ð¸
Ġsh ares
Ġpercent age
å¡ ŀ
åĲİ æĿ¥
' en
ç´ «
iz ada
-f ree
ĠØª Ùħ
U til
Ġredu cing
Ġë ķĮ
çļĦ åıĳå±ķ
ad ow
Ġwalk ing
Ġad min
n ormal
éł Ĥ
Ġgu er
çĦ ¦
ÙĨ Ø©
in ity
Ġserv icios
äºº æ°Ĺ
Ġbelie ved
Ġsee king
Ġì Ļ
Ġch ief
Ġmor al
h en
Ġrequest s
$ Ċ
Ġattack s
Ġan cient
æĬ µ
b id
ĠH y
atch es
_ at
Ġintellig ence
Ġfoot ball
% ï¼Į
10 9
åĬł åħ¥
Ġcontinu ous
Ġsign als
Ġcor ner
Ġrel ief
ĠR est
F S
ìĺ ¤
å§ ¿
ãĥķ ãĥĪ
ãģĵ ãģĵ
åº Ħ
ĠU RL
è¿ĩ æĿ¥
ĳ Ĳ
. V
ĠL ibrary
ĠC A
C e
ĠL ab
ia h
ĠÃ¡ rea
Ġprom pt
çľ¼ çĿĽ
çļĦ é«ĺ
Ġinvest ors
ë° ©
ï¼ī ãĢĤ
Ġe en
24 0
re y
Ġprop ri
Ġ Ā
Ġnouvel le
ä¸ĩ åĨĨ
Øª ÙĩØ§
Ġinvol ves
m ain
ros c
ä¼¼ ä¹İ
gress ion
Ġd Ã³l
ĠMus ic
L ength
ãģĶ ãģĸ
== Ċ
Ġoffic er
å§ ĵ
Ġs amp
Ġsit ting
Ġ} )Ċ
Ġf urn
ĠÐ´ Ð¾
Ġqui et
ent ing
çĻ» éĮ²
Ġresult ados
ing le
Ġsch eme
Ġë° Ķ
ill as
n ic
Ġinde ed
ä¸į è¶³
ĠOr der
ĠB ible
Ġr an
Ġindic ates
ĠIs land
çĦ¶ èĢĮ
Ġvol unte
.c ore
¶ Į
æĤ ī
Ġan ak
Ġsub t
ĠP ur
Ø³ ÙĦ
Ġfor est
ãĢģ é«ĺ
ĠS af
c as
çı ł
å® ĭ
Ġenf ants
æĶ¯ æı´
Ġcontrol s
ĠC L
ud es
æĸĩ åŃĹ
ãĥ¡ ãĥ³ãĥĪ
ĠA I
Ã© v
Ġaseg ur
ĈĈ ĈĈ
è² ł
Ð Ķ
}} {
Ġmar ried
ãĥģ ãĤ§
ĠEst e
Ġl l
ah r
Ġin n
St ore
Ġev itar
: #
Ġag encies
ãĤ³ ãĥ¼ãĥ
Ġtw ice
at Ã³
i ert
Ġj oy
æ´ ģ
å¹² éĥ¨
ï¼Į è¯·
Ġtr ou
Ġset up
Ġp i
çĽ¸ å½ĵ
Ġse ed
è± ª
Ġgreat est
Ġin fer
rem ove
Ġd iz
Ġë° ı
ĠD O
_t ime
Ġeng age
æĿ¥ èĩª
Re ference
åĭ Ł
ãĤĤãģĹ ãĤĮ
ĠA y
Ġrelig ion
Ġart ists
C urrent
' ),Ċ
if ts
Ġrel acion
½ Ķ
å¹´ è½»
Ø§Ø± Ø§Øª
Ġs elling
| A
Ġax is
ple x
Ġs ad
M ost
ìĸ ĳ
Ġcou pl
{ B
Ġter j
Bu ild
Ġperson s
it u
ĠCl in
ĠWh o
Ġconcept s
return s
ĠÂ £
Ġpar allel
ach ed
ĠJapan ese
Ġtell s
ĠØ§ÙĦÙħ ØŃ
é¾ Ħ
le z
æ°ĳ æĹı
d t
| T
Ġel abor
port ed
Ø® Øµ
.m odel
ãģĳ ãĤĮãģ°
od els
æŃ ³
ĠE vent
ãĤī ãģªãģĦ
In it
Ġcar s
Ġcomfort able
æĺ¯ ä¸į
D I
ĠÐ ĺ
_ get
us an
Ġen rich
rib le
el ement
ĠSc ott
() ->
Ġpl ays
L ong
ĠØ ¢
æ½ ®
ĠCol l
æĬ ĳ
ĠP em
s ite
OR M
æĻ ¶
ÙĪ Ø¶
Ġv ai
n is
Ġsp aces
m at
Ġfl ash
Ġserv icio
AS E
å¿ĥ éĩĮ
Ġdis pl
ĠS ud
ãĥĩãĤ¶ ãĤ¤ãĥ³
å§Ķ åĳĺ
åĩı å°ĳ
Ã´ n
å¢ Ļ
St ud
ç»Ĩ èĥŀ
M ark
å¥ ĳ
ent o
Ġtell ing
R C
g color
ĠL ook
Ġej emplo
Ġfeel ings
ĠH al
r est
ë¬ ¼
ĠÑģ Ð¾
In s
im ages
è¯Ń è¨Ģ
2 10
ï¼Įä¸į è¿ĩ
æ¸ ¡
Ġex ceed
O UR
Ġhot el
Ġreport ing
éĽ ¢
¤ Ģ
[ :
ĠmÃ¡ xim
Ġass igned
Ġse ule
Ġg ift
åĬł å·¥
Ġarchitect ure
åīį ãģ«
Ġexist e
ific ar
Ġb il
èº« ä¸Ĭ
í Ĺ
Ġsustain able
_t est
S ign
ad min
Ġ*/ ĊĊ
Ġnecess arily
Ġturn s
ih an
irt ual
gy pt
Ġw ur
Ġh orm
ãģĤ ãģªãģŁ
ĠS ou
ãĥ¼ãĥ ĸ
ot ed
ãģ ŀ
' aut
Ġcandid ate
un o
éŁ³ ä¹Ĳ
_ by
Ġl igne
et ry
Ġhon or
Ġs ind
ç¼ ĺ
Ġren ew
ä¸į äºĨ
is lation
ï¼Į çĶļèĩ³
Ġpop ul
ãģ µ
() ;
Ġimag ine
åĬŀ åħ¬
Ġdispos it
Ġs ummary
Ġde ber
Ġcomp art
Ġpay ing
comm and
ä¾ µ
çĤ ¼
è§Ħ èĮĥ
on ia
Om ega
ev en
Ġk ne
ĠAnal ysis
or ang
U C
å² Ĺ
ĠL ine
Ġdom estic
çµĦ ãģ¿
ï¼Į è¿ĺæĺ¯
ç»ĵ æĿŁ
ĠMay be
M B
Ġcomb at
ĉĉĉĉ ĉĉ
ãģ© ãģ®
Ġë ħ
- E
g ener
M ENT
æ²» çĻĤ
ãĤ ¼
ist o
Ġt us
Å Ļ
ãģĵ ãģĨ
$ .ĊĊ
æķ Į
Ġaccess ible
r ado
Ġfig ures
10 7
Ġlet ters
Ġprop ose
O V
å®ŀ è·µ
å°ĳ ãģĹ
n elle
æĪĲ ç»©
Ġdesarroll o
ĠS S
è¯ Ĭ
ĠMedic ine
hold ers
m ail
Ġinst ruction
ĠP ract
ific aciÃ³n
Ġr az
ĠH am
ir as
Ø§ÙĦ Ø©
íĺ ¸
æ´ ŀ
Ġin m
ul g
Ġjo ined
Ġar bit
gun akan
pro duct
Ġmeasure ment
. The
æ»¡ è¶³
ĠÙĪØ§ÙĦ Ùħ
Ġdis se
è« ĸ
_ index
Ġl atter
Ġcont roller
è§ Ī
Ġout come
çľĭ çľĭ
Ġsal ah
çļĦ äºĭæĥħ
ĠCh icago
çĨ ±
Ġa ug
Ġaccord ance
éĢļ çŁ¥
Ġ Ñħ
F ound
up un
ol ver
Ġ ï¼Ī
ĠP rom
Ø§Ø ©
Ġmed idas
èĻ «
âĢĻ ai
' e
ant a
Ġincre ment
Col lection
ĠI ran
Ġbe ar
dev ice
çĹĩ çĬ¶
Ġcol ors
ĠO ld
çĶ¨ äºİ
è¿ «
Ġf ellow
un an
Ġsect ions
Ġl ip
Ġs ick
Ã ½
ĠAcc ount
B efore
Ġdef ic
ìŀ ĳ
Ġpap ers
ak arta
Ġcons ists
i ac
ĠÃ §
Ġmi xture
æ³ °
Ġamount s
Cont ainer
Com ment
' ex
ì¶ ľ
Acc ount
fol io
Param eter
raint s
ç»ı å¸¸
æķ´ ä½ĵ
åķĨ ä¸ļ
éĿ¢ ç§¯
Ġout ros
Ø³ Ø±
ur ers
t or
æķ ¬
Ġn od
ä¹ Ĺ
Ġpriv acy
.annot ation
Ġf el
Ġord ers
Ġfac ility
åİĭ åĬĽ
Ġill ness
èħ °
ĠÑģ Ð°
çĶ¨ çļĦ
C u
Ġinnov ation
ĠJ im
æľŁ å¾ħ
Ġevalu ate
Ġro les
ĠR ock
Ġm ock
ï¼ Ĺ
Ġpot entially
ÙĪÙĦ Ø©
Ġsab er
ï¼Į å¾Ī
ãĥ© ãĤ¤ãĥ³
Ġf ell
ĠPort ug
Ġintegr ated
æ² ¿
ĠsÃ© cur
ĠdÃ© t
us o
å¤§ ä¼ļ
Ġcreat es
Ġdil akukan
Fr ame
ars er
ãģ® ãģĤãĤĭ
ãĥ³ ãĥĹ
å°Ĥ éĸĢ
ç¾ ©
ĠAr ray
ĉ case
æ½ ľ
=" #
Ġpay ments
í ĳľ
Ġveh icles
éĢ ±
å®¶ æĹı
ch arge
Ġlim its
Ġshe et
ol ve
Ġoppos ite
Ġregister ed
Ġj ika
ĠG er
TT P
ãĤ« ãĥ¼ãĥī
Ã ĥ
Ġlo ans
ãģ®ãģ§ ãģ¯
Ġsav ed
ac ia
Ġne ck
æ¸ħ æ¥ļ
B ody
æ¯ķ ç«Ł
oun der
ĠAb out
é£Ł ãģ¹
Ġrec ursos
ï¼Į è¯´
ĠE rror
c ounter
æĤ ª
te am
Ġsp in
ĠnÃ© cess
ov a
Ġdanger ous
E very
Ã «
ge q
G L
Ġf ing
| F
form ance
Ġmai or
ãĥĢ ãĤ¤
ï¼Į ä¸Ģä¸ª
åĩ Ŀ
ĠGu ide
Ġtr ouble
M D
. Is
ĠF ield
Ġgard en
Ġguid elines
çĭ Ĥ
Ġeng agement
0 10
Ø± Ø§Ø¡
ater al
Ġa con
ens ed
ĠGe org
Ċ ĠĊ
ĠS ar
ãĥĪ ãĥ¬
T ask
åĩł ä¹İ
Ġlie u
Ġcharg es
Ġto ler
ĠP ero
ãĢĤä½Ĩ æĺ¯
Âł Ċ
å¥ Ī
éŃ ħ
èª¬ æĺİ
is d
On ce
Pos ition
æĹ¥ ãģ®
or et
Ġsyn d
Ã³ d
d oc
ãģ® ãģ§ãģĻãģĮ
èĻ İ
éĢ Ĵ
hol der
Ġdivers e
or ough
è¾ Ľ
è´ Ŀ
ĠS earch
Ġtas te
ãģ« ãģĤãĤĭ
æĳ Ĩ
sk i
æī¾ åĪ°
iÃ¨ me
ip ped
äºº ç±»
Ã¡t ico
ĠPaul o
ĠB a
Y eah
ush ing
Ġattach ed
_ .
pon d
ãģ¾ ãģ¨
Ġìļ °
âĪ Ĵ
ãģķãģĽ ãģ¦
åĭ Ŀ
Ġdiagn osis
Ġco ast
um en
on na
Ġb ert
re q
Ġdeliver ed
ĠQ uest
ãĤª ãĥ³
Ġh urt
ĠSp an
Ġìĺ Ī
- line
Ġqual itÃ©
Ġconsider ation
ĠW ood
Ġbr ings
Ġhing ga
ãģķãĤĮ ãģ¦ãģĦãģ¾ãģĻ
E B
ĠR ights
12 1
ãĤ¦ ãĥ³
ie u
ĠEx pl
T ag
Ġl uego
æľ ±
b ro
Ġv ast
å®ī æİĴ
ĠT rib
ãģŁ ãģł
Ġinv ers
Ġsocial es
Ġbeg ins
Ġhard ware
ĠC amb
çĭ¬ ç«ĭ
b ug
é© ¾
ãģĹ ãģªãģĦ
Ġv ille
Ġbe aucoup
-t op
L ocation
Ġdef ense
Ġn an
Ġw ine
Ġy e
Ġand a
ãĤ¸ ãĤ§
Ġb inary
Ġus ual
ãĤ¦ ãĤ§
Ġprofess or
d ir
Ġarr ang
ap kan
Th anks
aj o
å¼ķ èµ·
Ġ} }
ĠF ore
ĠS yn
sh ould
Ġexpert ise
Ġìĭ ¤
çŀ ¬
Ø±Ùĥ Ø©
èģ Ĭ
Ġsur ve
Ġest imate
ing ly
igen ous
Ġsent ence
An other
éĸ¢ ä¿Ĥ
Ġca ught
F P
ĠA le
åĽ ²
Ġs Ã©rie
è¨ º
Ġdut y
Ġmism a
Ġcomp lement
br id
n n
Ġexper iments
4 50
éĤ ®
Ð³ Ð¸
Ġred es
Ġincl uy
Ġinst ruct
é² ģ
az e
Ġcon he
AT A
â ĨĴ
åĲĪ çĲĨ
ul ing
il arly
Ġappear ance
ĠFr iday
ç°¡ åįĺ
Ġsp Ã©
Ġcare fully
ĠR io
Ġrecogn ize
9 78
Ġmass ive
Ġres pir
ãģķãĤī ãģ«
Ġvers ions
F B
w ar
éĥ½ ä¼ļ
Ġbl ocks
ĠS erv
Ġb one
éŁ ¿
ä»ĸä»¬ çļĦ
ĠLear ning
Ġdel eg
Ġëı Ħ
c imiento
ci ence
ĠO ffic
P ub
ãĤ» ãĥ³
å² ©
an za
Ġbes ar
ĠA gr
ĠAp plication
Ġt ill
ĠU t
V ous
Ġenh ance
Ġext end
ot ros
ĠA ction
Ġon de
ĠP sych
æł¸ å¿ĥ
ail ability
Ġp up
ä»¥ å¤ĸ
Ðµ Ðº
Ġjud ge
ig an
ĠV an
Ġap ps
Ġb anks
w ing
erint ah
Ġa th
çļĦ æĹ¶éĹ´
Ġsac r
ĠH ill
Ġinter actions
ä¸Ģ åĪĩ
ĠM unicip
Ġh un
Ġexperiment al
reg ister
ĠD C
Ġ" \
æĮ º
éĴĪ å¯¹
< jupyter
Ġcommit ment
\ $\
ay ers
ĠStud ies
m odel
Ġco e
è£½ åĵģ
Ġsch olars
Ġch at
æĪĲ ç«ĭ
k et
ĠP ass
Ġpresent ation
åıĳå±ķ çļĦ
a ug
ĠØ¹ Ø§Ùħ
av el
Th ank
ĠSoft ware
ĠSt ar
ĠRo ad
Ġsh ock
ul um
åĩ½ æķ°
è¯ ¸
ĠTod ay
ĠCent ro
Ġla ugh
ï¼Į åĽłæŃ¤
ot ion
Ġprodu it
{ E
Ġdest in
Ġpass age
g ue
æľº åĪ¶
ĠC i
.' ĊĊ
ĠRes ponse
Ġë¬ ¸
æľī çĤ¹
Ġr it
Ġë§ Ĳ
Ġst ars
éł ¼
è¡Į åĬ¨
Ġre vel
A re
( --
Ġe ase
Ġdecre ase
ä»¥ ä¸º
æİ¨ è¿Ľ
å°¤ åħ¶
Ġguid ance
ÃŃt ulo
Ġ âĢĿ
ãģĳ ãģŁ
Ð½ Ð¾Ð²
ï¼Į åħ¨
çļĦ åľ°æĸ¹
} +\
d el
P ublic
Ġcon clusion
ro le
re ated
l ets
Ġexplic it
Ġor den
ĠdÃ© m
Ġsm ile
Ġmunicip al
ĠSer ver
ĠSystem s
ä¼ ¦
å®Ł éļĽ
in ho
. âĢĻ
ì ¤ĳ
Ġbl ess
m ann
n ap
Ġelect ron
Ġperm ett
Ãºblic a
re act
ĠMore over
Ġaff ili
Ġch ronic
ri ers
H D
éķ¿ æľŁ
Ġspirit ual
ĠK now
Ġab stract
se cond
Ġdo is
Ġdi as
Ġìķ Ī
æĦı è§ģ
IC E
ly mp
pl et
ãĤ³ ãĥŁ
æľŁ éĸĵ
ä¸Ĭ äºĨ
Ø§Ø± ÙĬ
Ġnot amment
r Ã¡s
Ġ> >
Ġant icip
ru its
Ġintegr ation
ĠP ers
ï¼Į æľ¬
wh en
ĠM A
Ġc ra
Ġcom enz
Ġb are
ĠP ut
ĠÃ© c
ĠEngine ering
Ġeff et
12 2
ãģ«ãģª ãģ£ãģŁ
Ġst ood
æ² Ī
\$\ $ĊĊ
Ġprim arily
11 4
ĠB ase
Ġed it
æ¢ ģ
_st ate
çģ Ń
èħ ¹
åľ ĭ
ĠT ake
ĠØ§ÙĦØ¹ Ø§Ùħ
äº ¦
Ġsent ido
Ġr ail
æĪ ª
ä¹ ĺ
ĠC irc
Ġd b
it led
Ġact s
Ġcol abor
ç§ Ĵ
Ġb ath
Ġn unca
ong o
p al
ãĢĤ ãģĵãģ®
ï¼Į è¯¥
Ġoffic ers
Ġcy cl
Ġperson nel
ĠAn other
Ġpro hib
Ġv ra
ĠEs s
Ġtrans formation
Ġre put
Ġclos ely
b el
Ġexpans ion
ãĢĤ å½ĵ
ĠN am
/ L
ĠM ah
Ġdi agram
i ores
Ġwall s
Ġb ought
Ġb ast
æĮĩ å®ļ
Ut ils
çī¹ çĤ¹
Ã© ro
Ġme at
çģ ¾
ãĢĤ æīĢä»¥
Ġf asc
å¿« éĢŁ
) ).
( P
are t
Ġintrodu ction
c ers
Ġmin utos
R ight
Ġdur ation
èĢ Ĺ
Ġcas i
Ġmod o
Ġí ĥ
å¿ Ĩ
ìĿ´ ëĿ¼
ok er
E A
( w
åĽ £
Ġp ump
ĠCarl os
G u
Ġmar ca
Ab out
H as
ãĥį ãĥĥãĥĪ
ĠA ward
ãģ® ãĤĤ
ĠL ight
Ġve ces
æī ķ
all ery
ãĤµãĤ¤ ãĤº
èĥ ¸
ble m
Ġbar u
ĠM att
ĠfÃ¡ cil
Ġimpro ving
Ġch ocol
ãģĮ å¿ħè¦ģ
ï¼Įè¿ĺ æľī
apt ion
ĠL uc
( k
Ġmach ines
Ø¥ ÙĨ
æµĭ è¯ķ
ãĥĥãĤ¯ ãĤ¹
Ġder ived
ĠC ab
J ohn
å¼ķ ãģį
Ġc argo
Ġun able
Ġs out
er ah
st al
èģ ĺ
ãĥ ĺ
ãģ¨ãģª ãĤĭ
uz z
12 7
Ġdec id
Ġun known
í ħ
ok es
Ġpict ures
ĠG ame
log o
Ġhead er
N a
Ġincreasing ly
çļĦ å·¥ä½ľ
Ġrep air
Ġmur der
Ġd raft
var phi
Ġde pression
res ource
Ġst ores
Ġcompl iance
Ã© qu
Ġâ Ī
Ġmod ified
ÙĪ Ø£
": "
ĠReturn s
Ġest ad
] );Ċ
17 5
åĪ¶ éĢł
ãĤ¹ ãĥĿ
ç¬¦ åĲĪ
ms g
_ A
é£ ²
Ġel ig
ĠÑĢÐ° Ð·
ÃŃst icas
ac o
Ġne ither
cript ions
M ar
/s rc
Ġauthor ities
off set
Ġch annels
/ A
å·¥ åħ·
Ġk on
éł ħ
æĺİ çĻ½
Ġpun to
ed ding
ĠArgent ina
Ġëı Ļ
ãģ® ä¸Ģ
Ġgr oupe
Ġh ip
çī¹ æ®Ĭ
Ġdist rib
c ir
Ġprinci ple
Ġadvert ising
ĠL ast
ynam ic
Ã© b
Ġpod emos
Ġtr end
Ġr iver
Ġgen etic
en ch
. as
çĥ ¦
Ġm art
gr y
ic l
Ġmed ida
Ġp ose
Ġc ategories
Ġman us
ãģĤ ãĤĮãģ°
u its
Ġ ],Ċ
itud es
Ġprefer red
äºĭ ä¸ļ
Ġimpro vements
è¿ ¹
og ue
Ġrecogn ition
ĠD er
ĠdÃ© but
~~ ~~
but ton
ĠìĦ ¸
ï¼Įåħ¶ ä¸Ń
Ġk itchen
è¯Ħ ä»·
Ġn arrow
ick en
è§Ĩ é¢ĳ
ist ant
Ġêµ Ĳ
åıĳ æĮ¥
æĹ ¦
rupt ion
Ġcur ve
ĠC ru
éĶ ģ
âĢ ķ
ä¼ Ł
è¿ ª
Ġreal ized
ï¼Į ä¸ŃåĽ½
Ġh ate
Th read
d k
Ġsuc ceed
Ġmuch as
Ġhab er
me an
f all
Ġdis order
Ġbl ank
anj ut
Ġconsequ ences
Ġturn ing
Ġtax es
ch arg
ç¡® å®ŀ
11 3
Ġbas ically
Ġphen omen
Ġdist ingu
eps ilon
Ġscient ists
- ind
cl ip
èĢħ çļĦ
H R
Ġdes e
ĠOb ama
Ġexpl o
conn ect
reg ion
ol i
../ ../
c en
âĢĿ ãĢĤĊ
Ġwebs ites
ë° ľ
ĠÐ¼ Ð°
ad ed
Ġob ten
é¦Ļ æ¸¯
Ġb in
ĠStud y
Ġgrow n
cha ft
crib ed
Ġprov en
åĮ» çĸĹ
éĽ» è©±
ä½¿ ãģĦ
um lah
ĠíĻ ķ
Ġmin imal
Ġdec is
Ñī Ðµ
ĠEx ecut
ĠÙĬ Ùħ
Ġest amos
anc ement
Ġdirect ed
æ² Ł
Ġparticip ation
Ã¤ t
ĠLe e
Ġdog s
æĪĺ çķ¥
ĠØ§ÙĦØ£ Ùħ
c uss
Ġs ir
ç»Ł ä¸Ģ
' ;ĊĊ
f n
ĠProfess or
ï¼ĮèĢĮ æĺ¯
aj es
Em ail
Ã¤ r
Ġprot est
b es
Ġmin ing
Ġunder lying
ĠS eb
Ġbut ter
_c ount
eng er
ãģĮ ãģĤãĤĬ
ĠF amily
r angle
åĮĸ çļĦ
æĻ ĵ
.p y
Ġmeng gunakan
çĽ¸ å¯¹
N on
ch t
end en
e h
æµ· å¤ĸ
ĠprÃ³xim o
ĠìĦ ±
ãģ«éĸ¢ ãģĻãĤĭ
åı¦ ä¸Ģ
ound ed
17 9
LE D
r ine
Ġtrabal ho
ãĢģ ãģĵãĤĮ
Ġpolit ics
- content
Ġ" /
ĠSup port
_ str
Ġst retch
- qu
éĢ Ĩ
Ġn ur
ĠH or
Ġhundred s
in to
ann a
ï¼Į å¥½
(" /
éĹ ª
Ġcont ribution
ä¿Ŀ éĻº
Ġpl ata
Ġro d
ç´ į
ä¸» ä»»
Ġenc ounter
.p ush
æ³ ½
Ġregular ly
P s
æĺİ ç¡®
Ġtra it
âĢĻ on
ĠAd emÃ¡s
at in
ĠTh ose
ĠThat 's
) );ĊĊ
ĠC op
Ġcamb io
åĳĺ å·¥
Ø¹ Ø¶
ï¼Į èĻ½çĦ¶
Ġespe c
Ġprior ity
s in
St ack
æĹ Ĺ
Ġdern ier
ĠCon se
Ġentrepr ene
Ġ );ĊĊ
èĩª åĭķ
Ã© rica
roll ing
ç¯ Ģ
_ de
Ġhapp ening
' av
acc ount
ĠØ° ÙĦÙĥ
ÙĬ Øª
ĠS om
æłªå¼ı ä¼ļç¤¾
T itle
çĶµ èĦĳ
Ġdest ination
ĠComm on
Ġnorm ally
igh ter
Ġc raft
ä¼ĺ ç§Ģ
ra ine
Ġse at
ĠìĬ ¤
ĠBl ue
çĳ ŀ
en h
v g
æİ ¡
ÑĨ Ðµ
ais e
in te
ĠAcadem y
Ġencontr ar
Ġtra vers
å¹¿ åĳĬ
éĶĻ è¯¯
Ġkey s
ì§Ģ ë§Į
Ġcom ercial
Ġdocument ation
M ock
Ġe cho
Ġmom ents
Ġliter ally
Ġg ust
ra h
æĬ ¼
Ġsens itive
Ġì§ Ħ
åĳ Ģ
ÃŃcul os
Ġlay ers
ach er
-b ottom
âĢľ The
ĠD ans
ä¸į éĶĻ
Ġperm ission
Ġc ache
ÂłÂłÂłÂł ÂłÂłÂłÂł
ĠrÃ© c
å¾Į ãģ®
- le
ä» ¿
è¶ ĭ
S w
ĠTe am
Ġbatter y
ĠG ard
Ġpl enty
ãģ£ ãģ
åİŁ åĪĻ
13 5
ĠP ak
Ġcol le
Ġmen ing
Ġcol oc
ä¸Ĭ ãģĮ
Ġad oles
Ġwor st
ĠF a
Ġlib re
Ġc ategor
ĠÙħ Ø±
00 3
Ã¡ st
gr id
he et
Ġst ake
ĠMan ager
Ñĸ Ð²
ç¯ ī
å¾ ª
Ġplatform s
Ġr ies
Ġpre ced
xy gen
Ġprogram ming
Ġelectr ical
è´ ¦
çµ ±
| }{
ĠE ffect
_ string
åĪ° åºķ
ÑģÐº Ð°
çĽĳ çĿ£
ä¸° å¯Į
Ġsc ores
Ġresult ado
Ã¨ le
ĠM D
Ġprote ins
Ġvol unt
ĠÐ¿ Ð¾Ð»
åĬ ´
éº ¦
å®¶ çļĦ
Ġoper ate
il ib
Ġv ess
Ġí Ĭ
åĪ ĳ
ä¸įåĲĮ çļĦ
at u
è´Ń ä¹°
ad v
S m
ãģı ãĤĭ
is ch
æ¯ı ä¸ª
äºº ãģ¯
ãĤ¢ ãĥĹãĥª
æķĻ æİĪ
å° ¿
om es
Ġsim ult
ks i
ĠC as
T V
Ġì ´
Ġë¶ Ħ
ed e
Ġh em
é¤ Ĭ
C ore
ãģĦ ãģ¤
ä¸ Ī
èµ ŀ
Ġopt imal
Ġprop ag
ĠC ook
Ġdivid ed
Ġclient es
olog ia
å¾ ´
Ġingred ients
ä¼ ¯
Par ams
Ġtot ally
Ġinclus o
) ^{
s ung
ĠMex ico
iment os
d et
å¥½ äºĨ
ãģı ãĤĬ
Ġcov ers
ha ust
éĢļ ä¿¡
Ġconstant ly
ĠP L
è£ ľ
Ġd ella
Ġ ;Ċ
an es
art icle
ic ular
om er
riev ed
ĠW al
++ )
Ġf ault
å¥ ĭ
Ġf ans
Ġb rown
. reddit
ÙĬ Ø¹
ÙĨ Ø¯
( ctx
O B
( B
ien cia
{ F
t n
ãĢħ ãģª
Ġserv ing
è« ĭ
è¦ ļ
è· Į
Ġwonder ful
æĢ Ĵ
ĠP ath
Ġsup plement
P erson
' Ã©t
io x
Ġconnect ions
ç½ ²
Ġw et
In f
Ġl ift
ĠP ot
åĨľ æ°ĳ
èª ²
Ġim press
ĠÐ Ľ
èĦ ī
Ġ io
ãģ¨ ãģ¦ãĤĤ
èĢĮ ä¸Ķ
Ġau ch
ãĥ© ãĥ¼
Ġcaus ing
( A
Øª ØŃ
Ġemploy ed
m ond
æĬ ¢
Ġre ward
eg i
| L
å¹´ æĿ¥
éĢĤ åĲĪ
æ³ Ľ
T arget
Ġcapt ure
ĠB efore
14 5
Ġexecut ive
{ n
} [
èĪ į
ÃŃ cio
ãĢģ ä»Ĭ
ism s
Ġwhere as
\ text
ĠH ave
ent h
ï¼Įè¿Ļ æĺ¯
Ġatt orney
r ase
c raft
Ø§Ùģ Ø©
åĩº åı£
Ġrem ained
Ġmagn etic
ĠCh amp
v in
Ġob ras
Î ¿
Ġpull ed
M R
Ġdim ension
un ya
ĠJohn son
Ġch art
Ġa Ãºn
up s
ĠA udio
åĴ ¨
ub re
In teger
emb ers
Ġ} ,
11 6
Ùħ Ø¯
Ġde ploy
Ġser ie
{ g
O k
èĤ ©
ÃŃ m
ĠPr ice
ĠAg reement
æŃ£ å¼ı
Ġn it
. google
å² ¸
Ġf ÃŃs
im ation
ĠE S
Ġgrad u
Ġex posed
ãĤı ãĤĬ
ãģ£ ãģĭãĤĬ
ä½ı å®ħ
çı į
æīĭ æ®µ
åĩº åİ»
Ġl anguages
ĠAr ts
Ġc iento
| align
å®Į åĸĦ
Ġfal ta
end as
Ġext ensive
Ãªn cias
Ġal to
Ġinter val
Ġm ise
16 8
c in
h u
Ġconoc er
ĠÙħ Ø³
ãĥ³ãĥ ģ
Ġocc urr
Ġlarg ely
ĠÙĪ ÙĤ
l ife
ÙĪ Ø²
Ġult imately
! (
ad amente
Ġcu er
Ġne uro
è¯¾ ç¨ĭ
S ettings
æµ ĵ
gr es
Ġinc ident
ãģ« è¡Į
K ategor
äºĭ æķħ
am ine
ateg y
ĠÃ ¨
bu ffer
Ġdis par
åħ¨ ä½ĵ
Ġperman ent
ç»Ł è®¡
. z
akt u
Ġbring ing
Ġex tern
ĠÙħ Ø¯
èħ ¿
P a
Ġadv is
ç¾ ½
y g
ĠEn tre
Ġrequire ment
ãĥĸ ãĥ«
H ER
Ġparticip ate
imens ional
ĠS ab
ï¼Įå¹¶ ä¸Ķ
Ã§ as
Ġdescrib es
Ġdemonstr ated
Ġcompat ibility
Ġmet a
ĠTh rough
Ġsp at
Ġnive au
Ø§ÙĨ ÙĬØ©
Ġn av
ç¤¾ åĮº
Ġinform ed
Ġor al
ĠSund ay
Ġimmedi ate
Ġf ulf
Ġconn a
nb sp
Ġk eb
ĠSh ow
ĠA C
ĠComm unic
Ġfound ation
Ġvolt age
in f
p ers
- out
. cl
ĠĠĠĠĠĠĠĠĠĠĠĠĠĠĠĠ ĠĠĠĠĠĠĠĠĠ
Ġc ust
æ³¨ åĨĮ
ed u
Ġs ister
Ġcolumn s
i ere
å¹¸ ç¦ı
ĠspÃ© cial
Ø¯ Ø¯
Ġs now
Øª Øµ
ĠCon fig
Ġpartic les
R oute
Ġcommunic ations
Ġch est
Ġbehavi our
Ġchalleng ing
ĠFurther more
Ġinstall ation
o ice
b lo
em ory
olog ist
ï¼ī ãģ®
è®¤ çľŁ
ure au
Ġrepr Ã©s
ĠTh anks
n els
Ġass im
ag u
fo is
éŃ Ĥ
up aten
Ġinter es
Al though
å¯ º
ĉ this
w as
ç»Ī äºİ
Ġn ach
ï¼Į åĬł
ĠCh ildren
k l
ĠCon st
ĠCorpor ation
ĠM ir
Ġserv i
ĠD ur
ric o
G amma
ag ues
ĠMus lim
Ø± ÙĤ
ĠJust ice
ÙĪØ± Ø©
b ool
ĠDo es
å¥ ı
çİ° è±¡
Ġb read
à¥ ģ
æľº åħ³
Ġjust ify
Ġtw enty
Ġqu ier
æĹ¥ å¸¸
Ġleg islation
ute ur
ĠL ake
åĪĽ éĢł
Ġpro por
Ġou v
ab ri
åħ ¼
ãĢĤ æĪĳä»¬
ed i
éģ Ń
Ġpl ug
Ġrout ine
ï¼Į äºº
æŀ ª
rap per
Ġe fic
ãĤ° ãĥ«
Ġposs ess
p ack
Ġclaim ed
è¯ģ æĺİ
Ġintel lect
D ans
è ¹
Ġtra ined
Rec ord
r er
ãģķ ãģ¾
ost on
Ġrecommend ations
ĠCl oud
Ġsem ua
1 18
ãģªãģ© ãĤĴ
Ġt ang
Ġcon crete
}ĊĊ Ċ
éĻį ä½İ
Ġgre w
ãģĮ åĩº
v ier
G S
Ġtr ends
æĿ °
Ġp ic
Ġfa Ã§
åħ¬ åħ±
æı Ĵ
U V
Ġë¬ ´
te en
ĠIm age
D C
p erson
Ġing res
Ġesc rit
ĠM ur
w rite
ãģķãĤĵ ãģ®
r ice
n ger
åģ ¶
ãĥŀ ãĤ¤
u vo
ĠÃ ¢
") ]Ċ
æĺ¯ ä¸ª
Ġper f
ne g
Ñĸ Ð´
ĠÃºlt ima
æŃ¤ æĹ¶
æĸ¹ ãģĮ
ä¸Ĭ å¸Ĥ
ĠT ax
fr ak
æ³ ¡
Ġj orn
Ġpl as
Ġon going
Ġ+ +
Ġpod em
è£ Ĥ
ub a
Ġìĺ ģ
ĠC ore
m ethod
ial e
çĬ¶ æ³ģ
ĠT our
Ġs od
ç» ª
an qu
ĠA k
14 4
Ġlarg o
ĠV eter
mod ule
Ġdemonstr ate
ĠH T
is an
Ġvisit ors
Ġconvent ional
Ġwel come
Ġsor ry
17 8
O ption
Ġatt ribute
ìĨ į
ëª ¨
Ġmember ikan
åĴ¨ è¯¢
ri Ã¨re
Ġbig ger
ib l
Ġpass ing
æĪĲ åĪĨ
åĳ Ī
ĠE gypt
ãģĪ ãģŁ
le ur
å¸¦ çĿĢ
Ġre act
> ();Ċ
Ġexec ution
ĠSp ace
] \
Ġrel iable
uc iones
Ġass et
æľī äºĨ
we et
ìĭ ¬
ãĢģ æľ¬
åħį è´¹
ed or
N E
ser ve
Ð¾ Ð½Ð°
Ġst ages
Ġw arrant
e per
Ġcut ting
è³ ŀ
åĿ Ľ
Ġsp oke
Ġconfir med
H elper
ok ed
Ġus ar
ĠCan adian
( h
Ġrem ark
Ġcompet itive
Com o
Ġlaunch ed
çĶ» éĿ¢
ï¼Į èĥ½
ĠU k
Ġs ight
ÙĨ Øª
Ġcon du
O ST
( X
Ġdiv ision
Ġde aling
Ġt ap
å¯¾ çŃĸ
Ġtest im
åľ° åĿĢ
se z
Ġ[ "
. ch
Ġk as
Ġnot iced
Ġab ril
ĠM aterial
em en
ach el
Ġstim ul
éĩįè¦ģ çļĦ
P ay
ë Ķ
Ġaument o
Ġpr ue
om p
ãĤīãĤĮ ãģŁ
Ġd iversity
ĠN ext
In tern
oc up
ĠÑĩ ÑĤÐ¾
Ġmark ed
ï¼Į ä¸¤
. :
Ġrap port
Ġhas h
ict ed
E v
Ġrepl aced
æĿ¥ çľĭ
Ġany where
Ġupd ates
è¡¨ è¾¾
on te
Ġj ourn
Ġmodel o
ut ch
b m
al ui
ci er
| }Ċ
ci Ã³
ir k
Ġrum ah
ï¼Į æĢ»
èģĶ åĲĪ
Ġsubsequ ent
S pec
C ON
ap y
éĥ ĳ
r ane
ĠG N
æľ Ĺ
Ġreserv ed
íģ ¬
Ðº Ð¾Ð²
Ġfour th
Ġa vez
_ a
z i
Ġw indows
re ams
ĠL im
ent i
Ġis land
Ch apter
Ġbeaut y
Ġpandem ia
Ġper ÃŃ
ìŀ Ħ
ym ph
Conn ection
å±ķ ç¤º
Ġapply ing
ĠB ad
Ġincl u
os ed
Ġf ot
Ġen orm
èµĦ æľ¬
ĠC ette
ist ed
ç»ı åİĨ
ìłģ ìĿ¸
ĠM iddle
Ġcont ents
ï¼Į è¢«
Ġb id
f ast
åĪ Ĭ
Ġg ate
éģĵ è·¯
Ġgrant ed
Ġb omb
Ġliv re
in ated
ï¼Į ä¼ļ
å®ī å¿ĥ
Ġkam u
âĢ ĭ
Ġinter vention
Ġpar ams
Ġcur so
Mod ule
éĩį æĸ°
Ġcons cious
æ¥Ń åĭĻ
Ġst ability
Ġsus pend
Ġsurround ing
ĠR ight
Ġgr ass
åıª è¦ģ
çĮ ª
Ġmath emat
éĥ İ
Ġpr Ã¡ct
uer to
ĠSpan ish
íĥ Ģ
Ġimm une
ĠL ove
Ġ ul
Ġfut uro
Ġin teger
ãĥĬ ãĥ¼
ĠEuro pa
å®ī è£ħ
ãģĭ ãĤĤãģĹãĤĮ
Ġd ol
æļ Ĥ
è§£ éĩĬ
çŃĶæ¡Ī æĺ¯
ëĵ¤ ìĿ´
ig ation
M apping
Ġfac ing
Ġexam ination
Ġmend apat
ĠC ond
AC E
Ġacc um
Ġdraw ing
ç»Ŀ å¯¹
Ġexpl ains
ast ers
Ġqu em
æ¸© åº¦
Ġdatas et
Ġabs ence
ĠS pring
Ġse ja
ï¼Į çĶ±
ĠG a
å¥½ ãģį
Ġaren 't
ãģ§ãģį ãģªãģĦ
ï¼Ĳ ï¼Ĳ
Ġpar se
ĠP T
f loat
ĠÙĪ Ø¨
Ġsuffer ing
de z
ĠU m
Ġs essions
æĻº èĥ½
Ġopt ical
K e
Ġav ons
Ġimportant es
ãĢį ãģ¯
ob by
å°± åı¯ä»¥
Ġse hingga
Ġcoron avirus
ĠÐ´ Ðµ
Ġevent o
Ġvari os
er k
æľī ä»Ģä¹Ī
Ġpro bl
/ n
Ġconcern ing
å¦ Ļ
Ð½Ð¸ Ðµ
Ġag greg
ĠJos eph
å¤ļãģı ãģ®
ob il
ĠFin ally
é«ĺ çļĦ
ë° ĺ
Ġb Ã©n
Âł ĊĊ
æ¬ ł
Ġinvol ving
ĠEX P
cl am
é«ĺ æł¡
M ult
iÃ¨re ment
æĹ¶ æľŁ
et as
= (
ä¸ ¡
Ġsem pre
åĨ Ĵ
Ġg ent
ĠMond ay
ĠgÃ©nÃ©r al
iqu ement
Ġext reme
ĠprÃ©s ident
G en
es h
Ġstand s
Ġth er
Ġde ve
æĦŁ æĥħ
ape ut
å¾ ©
ãģĹãģ¦ ãģĦãģŁ
Ġstat istics
) )ĊĊ
ï¿ ½
R ule
Ġm ari
A pr
] :
ĠH D
it ivity
ĠD u
äºĮ åįģ
Ġd un
Ġê° ķ
åĽº å®ļ
Ġvo ir
ul os
em ma
æĬ ŀ
ak in
çľ ł
åģ ¿
ep at
cul o
ä¸ĭ åİ»
Ġmax im
ap se
æķ° éĩı
Id ent
en Ã§a
ĠF estival
éĹ ²
ĠLe ague
or ne
Ġpart ial
mer ican
ãĥ¡ ãĥ¼ãĥ«
ge bra
) =\
cript or
Ġperform ing
ix ed
Ġmov es
B B
ari ant
ier to
ï¼Į ä¾¿
Ġyou nger
as tern
Ġnue vos
ĠSer ies
-b e
è¯ ĳ
sh ow
requ ire
à¥ ĭ
Ġtrans mit
ĠUnivers idad
ãĤĴ éģ¸
eg o
Ġadopt ed
åĩ Ń
it age
Ġcharg ed
ĠÙĩ ÙĪ
Ġde ix
ãģ§ãģĹãĤĩãģĨ ãģĭ
æģ ¢
Ġdec ade
ï¼Įä¹Ł æĺ¯
å¯ ¸
qu Ã©
ĠS C
iv amente
Requ ired
ĠE R
On ly
ä¸ĸ çºª
ĠdÃ©velop p
ãģĦãģŁ ãģĹãģ¾ãģĻ
'' ,
èĲ½ å®ŀ
Ø« ÙĦ
Ġt ort
Ġfight ing
__ (
ĠAustral ian
Ġrec uper
W idth
é¼ »
Ġpost ed
ĠL i
( const
Ġprepar ation
ãģĭ ãģ«
Ġintegr al
on as
P tr
G T
ĠÃ ¤
pro ject
ĠC ross
Ġmort gage
Ġreci pe
- j
Ġbe i
pro t
ĠUp date
Ġb ou
æ¥ µ
ĠD ire
ä¹ĭ ä¸Ń
a ient
Ġb ug
Ġcos as
æī ¶
Ġpe ak
Ġr ib
Ġsub mitted
Ġneg oti
âĦ ¢
u ite
ä»ĸ ãģ®
Ġprom ise
ual mente
( g
Ġdonn Ã©es
M M
point s
Ġdist int
ec er
ãĢĤ ãĢĮ
ï¼Į ä¸Ĭ
Ġquien es
ĠØ¨ Ø´
èĤ¡ ä»½
ĠÃ© lect
IV E
Ġo ch
åĽ¾ çīĩ
Ġí ģ
in stance
OR E
Ġat mos
æĬ ľ
æ¯ı å¤©
Ġpodr ÃŃa
æ¡ Į
Ġwarn ing
Ġprov ision
egi atan
Ġmeasure ments
Ùģ Ø©
Ġro of
Ġê ·
ĠSci ences
Ġconvers ion
(f alse
åķı ãģĦ
ĠB and
Ñİ ÑĤ
ĠJew ish
Ġdis orders
Ø¬ Ùħ
Â ©
w itter
Ġdis k
Ġbras ile
U U
Ġ[âĢ¦ ]Ċ
ãģĭ ãĤĭ
op ic
E poch
l ers
Ġstrong ly
11 7
ĠA u
ign ment
Å Ł
Ġstrugg le
B R
ues day
Ġmet tre
_s h
irc raft
mult i
Ġstrateg ic
æĦ¿ æĦı
Ġlib ro
Ġall oc
è´¹ çĶ¨
ĠC ase
ou vern
Ġexp enses
Â» .
Ġas c
Ġspect rum
. api
ãģ² ãģ¨
å¯¾ è±¡
Ġb atch
è ļ
{ "
ĠChrist mas
ĠH on
ä¹ł æĥ¯
Ġim pl
ĠArm y
Ġneighbor hood
Ġn ine
Ġco ord
ê¹Į ì§Ģ
Øª Ùģ
'' Ċ
ĠC lick
h ou
Ġpr endre
Ġrec ording
åĵĪ åĵĪ
ĠKe ep
çİ° å®ŀ
form a
r Ã¨s
æ° §
ì² Ń
Ġes cal
Ġinflam m
= False
ĠD om
ane ous
v c
Ġdes env
Ġaqu ÃŃ
ed nes
è®° å½ķ
Ġinst ances
ĠP enn
Ġh yd
y es
ãĤģ ãģŁ
Ġjav ax
Ġf ert
æĸ¹ ãģ¯
Ġpow der
Ġorder ed
ber n
ink ing
Ġpop ulations
ĠÃ§ a
\ item
Ġmechanism s
h y
V ol
Ġc ere
y cle
ut en
Ġrad ical
}$ ĊĊ
à¥įà¤ ¯
æ¨ ©
ĠSp irit
ĠUn it
ĠW ay
Ġoc up
A K
Sty le
ĠJ u
Ġqu and
> ,
! --
ï¼Į æ²¡
Ð¶ Ðµ
ĠĠĠĠĠĠĠĠĠĠĠĠĠĠĠĠ ĠĠĠĠĠĠ
Ġsong s
Ġbe at
åı¥ è¯Ŀ
å°± ä¸į
ĠCh ange
Ġ# [
Ġatt ributes
ê± ´
Ġcorrect ly
èĤ Ŀ
ĠRoy al
éļ Ĩ
ãģ¾ ãģł
ant ly
Ġter k
Ġorigin ally
ãĥ³ãĥ Ģ
l ie
Ġautor idades
Ġdra wn
ĠØ§ÙĦ Ùĩ
ÙĪ Ø±ÙĬ
ial s
ãģ« ãģ¨
åº Ł
amp a
g les
Ġeven ing
Ġnut ri
Ġpap el
Ġíĺ Ħ
éĺħ è¯»
al g
b orn
l ate
io v
å¡ «
Î ½
Ġent itled
ĠCon ference
o j
ar lo
ç» ķ
Ġtelev ision
ê° ģ
Ġart s
Pro gram
ÐµÑĤ ÑģÑı
Ġflex ible
Ġn u
{ c
_m ap
åľ¨ ä¸Ģèµ·
Ġpriv ile
Est a
éĩĩ åıĸ
å®Ł æĸ½
ik ip
Ġ} ;ĊĊ
f ica
print f
( id
Ġver b
D elete
ov ed
r ont
| R
Det ails
çĶ· æĢ§
1 19
æ£Ģ æµĭ
in cluding
åĭ ī
ĠN Y
Ã® tre
Ġal can
ad ers
ãĥ³ãĥ Ĳ
ĠP ap
Ġexperien cia
Ġfl ight
æĪ ´
12 4
Cont act
Ġunc ertain
Un a
Ġd ice
ĠHen ry
ond a
æŀ ļ
. new
Ġr ating
_l og
. co
Ġs ost
Ø ¡
ĠEx ception
Ġdet ected
Ġlands cape
Ġten emos
ur u
Ġcomm er
or ter
Ġtrans actions
Ġdim in
ĠIn tegr
å¿ĥ çļĦ
ĠStand ard
- end
èĹ ¤
C ache
_ ID
ĠIn dex
b n
Ġs pl
ĠW orks
Ġmonth ly
ĉ var
L ook
ãĢģ ä¸Ń
Ġdr ag
Ġeng aged
ĠdÃ³l ares
{ a
æİ ²
LE CT
Ġcandid ates
Ġt rem
D ocument
iqu Ã©
Ġc Ã´t
Ġpet it
ĠFin ancial
p ie
Ġmanag ing
ãĤĪ ãģŃ
Ġaccom mod
ĠØ¨ Ø¯
ĠmÃºs ica
å¯ ¿
Ġse is
Ġsant Ã©
ãĤĤ ãģ¡
ãĤ² ãĥ¼ãĥł
> {{
Ġalgun as
end ers
ĠY et
ĠTra ining
Ġre verse
Ġab und
ä»ĬåĽŀ ãģ¯
Ġpl ain
çģ °
Ġd ates
Ġan c
ç»Ļ æĪĳ
Ġth reshold
ĠÂł ĠÂł
ot ing
ul u
éģ¿ åħį
i enda
| J
Ġdepend ent
ĠK en
17 7
ĠÙħ Ø´
Ġgr Ã¢ce
Ġperiod s
Ġal umn
F I
2 30
ĠMin ist
ĠØ£ Ùħ
G C
Ġfind s
D to
ãģ«ãģĬ ãģĦãģ¦
Ġacqu is
Ġ )ĊĊ
Ġsi Ã¨
av ed
ON E
ĠÐ¼ Ðµ
ĠR un
ĠPr im
æīĢ è°ĵ
Ġ à®
Ġsur prise
ĠB ox
ãģ« ãģ¦
' ).
è¾ ħ
ä¿ Ħ
Ġen fr
uck et
Ġb its
Ġmanag ers
Ġcol our
des cription
± ä¹Ĳ
er 's
Ġg ol
éĻ ·
Ġhous es
ä½ĵ èĤ²
Ġworld wide
æĪĲ æŀľ
åıĤ æķ°
by te
Ġpou voir
ĠO x
ä¸Ģ å¹´
çĶŁ çļĦ
ä¼ į
ĠC urrent
Ø± Ø¶
ï¼ ŀ
åľ ³
å¢ ¨
éļ İ
ĠëĶ °
l ad
b ot
Ġb om
ãĤĴ ãģĻãĤĭ
c imento
Ġj an
Ġm aps
Ġf lood
Ġreg ulation
ìĪ ł
/ B
Ġleg s
çī¹ ãģ«
on z
åĪ¶ å®ļ
20 4
Ġp itch
ä¹ĭéĹ´ çļĦ
ãĢģ æĹ¥æľ¬
Ġin cent
D ir
Ġcalcul ate
ĠStud ents
åĲ ¹
ĠF ar
æĸ¹ ä¾¿
ì ħ
è·Ŀ ç¦»
Ã¡ r
æĬĢ èĥ½
Ġacord o
Se cond
Ġyou 've
Ġâ ĸ
. K
ins on
Ġ( -
Ġtarget s
Ġless ons
pl us
Ġl ies
ĠGu ard
âĢĻ ag
ĠVirgin ia
ä¸º ä¸»
è¾ ŀ
Ġregard less
ĠArt icle
Ġl agi
j ourd
è¸ ı
m al
book s
Ġcon clus
Ġed ition
ĠPol it
å¹´ ä»£
à¤ Ĥ
Ġt ough
ê ¶Į
ç´ ļ
ins ert
ĠL td
ĠInst agram
ãĢĤ ä»İ
ä»ĺ ãģĳ
R un
ber to
å·¥ä½ľ çļĦ
Ġcamp us
ĠD ar
Ġpued es
ĠÐ¿ Ð¾Ð´
Ġy ellow
], [
12 6
]] ,
Pro perties
æĬķ è³ĩ
reat ment
Ġmat Ã©ri
Ġcommunic ate
Ġa ce
åĺ ī
c p
Ġsome what
æ·± åľ³
Ġcon cl
Ġche ap
ç½ ļ
Ø° ÙĦÙĥ
Ġsurv ival
{ D
ĠAm b
N C
c z
Or ig
math frak
cul es
æĬķ åħ¥
Ġindust ries
Ġpr oud
Ġinnov ative
Pl ayer
èº« è¾¹
c all
æĤ ²
T emplate
urs day
ãĥ¼ãĥ ©
Ġcom er
ĠSup reme
ch ant
è´ «
Ġtr ouver
.âĢĿ ĊĊ
ãģł ãģ¨
ub ern
éķ¿ çļĦ
t uk
Ġcommit tee
em an
æĳ ¸
ĠT al
æľ ĥ
Ġinter ven
) /
Ġf ly
Ġcre am
Ġjur isd
Ġbu ilder
Ġ çŃĶæ¡Īæĺ¯
wh ite
Ġrequest ed
Ġbenef ici
3 20
Ġexpect ations
( st
åİ» å¹´
Ġproduct o
d ot
ric es
Ġsyst Ã¨me
Ġem br
ra id
n umber
ãĢį ãģĮ
Ġun ion
å®ŀ åĬĽ
Ġt ir
it als
- part
Im pl
- Un
ÙĬ Ø²
ÙĪ Ùī
åĲĮ æł·
Ġlist ening
ang ers
P G
ial izer
Ġay uda
V A
ï¼Įè¿Ļ æł·
Ã± as
æĽ¾ ç»ı
çĪ¶ äº²
Ġmayor ÃŃa
Ġpel ÃŃcul
Ġactiv idad
Ġok ay
}ĊĊ /
Ġat as
çŃī çŃī
éĿ¢ åīį
ï¼Įè¿Ļ äºĽ
Ġch rom
ĠR h
Ġg ig
B L
Ġtent ang
Ð¶ Ð°
] $
Ġpr is
Ġperson ally
Ġcr ash
end if
Ġs ampl
\ [
Ġign ore
as ional
Ġf old
è± Ĭ
i ams
åĬĽ ãĤĴ
åħ ½
H ash
ä¿ Ĺ
ä¹ Į
i y
ic ide
_d ir
Ġca f
ãģĹãģ¦ ãģıãģłãģķãģĦ
- off
Ġmeng atakan
ĠF ollow
ä»Ĭ æĹ¥
Ġst ead
Ġcount y
ĠUn a
ä¸» åĬ¨
V ector
S ur
æŃ ´
Ġwhere in
Ġpl anned
L ear
am ientos
ifest yle
åıĺ å¾Ĺ
( true
ç¼ĸ è¾ĳ
13 2
Ġâ Ķ
7 50
åĽ° éļ¾
Ġd ot
Ĩ ł
æ·± åħ¥
ednes day
Ġ Ñĸ
ãĢĤ æľ¬
æĸĩ æĺİ
Ġìŀ ¥
åĵ ¦
ie z
Ġk ick
s cript
ĠÐ¾ Ð´
Ġcap abilities
è¾ Ī
åħ¥ ãĤĮ
ç»Ħ æĪĲ
ĠC rist
æ´» çĶ¨
Ġad mit
Ġsubstant ial
T ree
Ġact ing
Ġlist s
Ġepis ode
ĠD ocument
å°± åľ¨
ĠF ull
Ġat enciÃ³n
ur ut
ĠìĽ Ĳ
Ġm aka
V ar
Ġsi endo
Ã¡g ina
Ġp ues
Ġag osto
ar te
Ġap pl
Ġwas h
ĺ Ĳ
Ġrev olution
å¤ī æĽ´
Ġle an
æģ¢ å¤į
Ġen abled
ĠAdminist r
ĠMark eting
íı ¬
Ġpres ents
åĩ Į
ĠH aw
13 1
ĠCh apter
ç² Ĵ
åĮĸ åŃ¦
el ih
Ġte a
end ment
}^{ -
U ST
raz il
ĠH ay
åģ ·
ist ing
Ġas ide
Wh o
æĻĤ ä»£
åĪĽ å»º
Ġbr ill
Ġcl ock
. read
Des c
Ġfair ly
Ġl uz
Ġmer ely
ìĹĲ ê²Į
Ġfir ms
âĢĻ int
h l
ĠForm ulations
Ġk iss
( y
ãģŁ ãģı
Ġess e
éģĩ åĪ°
è´ ¯
Ã¨ te
Ġt ert
web kit
Ġl ol
ãĥ¼ ãĤ¶
En c
Ġfav our
Ġsk y
ax is
Ġp int
ĠO P
Ġenfer med
Ġver ify
on ce
Ġte ch
ĠlÃŃ der
. print
Ġs ama
åĲį ç§°
b ing
Ġfra ud
ãģ¨ãģª ãĤĬãģ¾ãģĻ
Ã¢n cia
åĵ Ń
Ġactiv idades
Ð ĵ
u ant
Ġs pons
ra q
Ġrecom end
é¡ Ķ
Ġdisplay ed
å®ĥ ä»¬
Ġ ãĢĲ
åī µ
ap or
åĮ» çĻĤ
ÑĨ Ñĸ
In st
æī İ
ãģ© ãĤĤ
et r
ãģ ¼
ãĤ¿ ãĥ¼ãĥ
Ġex haust
et ary
âĢľ æĪĳ
ad ie
é ³
ĠCh ief
± ħ
íĸ Ī
Ġâ ĨĴ
Ġa uc
ë² Ī
ĠV ill
ìł Ĳ
Ġen se
è®Ń ç»ĥ
Ġel la
Ġp ont
or io
æĶ¾ åľ¨
åºĶ å½ĵ
Ġwould n
ĠQu ick
es ch
Ġp untos
Ġdim ensions
Ġcar r
ä¹Ł ä¼ļ
èª¿ æŁ»
oud hia
åį° è±¡
ĠLin ux
åľ° äº§
åħĥ ç´ł
Ġ åĴĮ
ankaj oudhia
ul in
ir se
ĠDiv ision
ÙĪ ÙĬØ©
è®© äºº
èº« ä»½
Ġcould n
çľ ī
kt op
ĠS ie
Ġpow ers
Ġp y
Ġref ers
Ġident ification
Ġtrans par
ä¹ Ļ
Ġrecon oc
M atch
Ñ Ķ
f alse
Ø§ÙĦ ÙĬØ©
ĠF unction
Ġt ank
ĠëĲ ĺ
Ġrapid ly
Ġad vent
Ġrecher che
Ġce ux
ĠT em
arn ya
Ø· Ø±
è Ŀ
Ġleg it
Ġcirc le
Ø¦ Ø©
èħ ¾
ä½ĵ é¨ĵ
éĩį å¤§
Ġpas o
Ġesp acio
ĠH ard
à¤ ķ
Ġdr ivers
Ġlas er
çļĦ å¿ĥ
n ote
s ource
åģļ åĪ°
Ġcomput ing
** *
Ġprincip ales
ab out
.t est
ĠR p
ï¼Į æĥ³
æĥ ľ
E ven
Q uest
Ġexam ine
Ġjam ais
Ġmole cular
åĲ ¨
èĥĮ æĻ¯
Ġwer den
Ġmeet ings
ï¼Į åĪĻ
ĠD id
z one
us te
ĠJ ane
Ġto xic
Ġacon te
Ġinstit ution
Ġins ight
Ġimm un
ãĥ»ãĥ» ãĥ»
p in
Ġcomp ound
çĶŁ æĢģ
r g
13 3
Ġo xygen
et ies
Ġ$ {\
Ġfing ers
Ġm igration
ĠĠ ĊĊ
re ll
Ġcel ui
Ġst orm
L ayout
ec ute
æĭħ å½ĵ
Ġw aktu
og ether
ĠT ri
en is
Ġha z
ĠØ§ÙĦØ º
16 5
ĠVal ley
Ġr am
ãģķãĤĮ ãģ¾ãģĻ
_ error
Ġwalk ed
( @
çī¹ å¾´
Ġdr iven
Ġencuent ra
S ession
ĠH im
å¤§ãģį ãģª
æīĵ å¼Ģ
Ġbr idge
er ed
ĠØª ÙĨ
h yd
. Data
) {
str ong
ĠDef ault
Ġemph as
Ġh emos
ÑĤ Ñĭ
å¤§ åĪĩ
å² ¡
ãĢĤ åĽłæŃ¤
Ġd ici
rit ten
Ġprodu cing
Ġno vo
åī ©
ìłģ ìľ¼ë¡ľ
ĠÙĤ Ø¯
Ġcaus a
ĠA ud
on c
Ġneut ral
æ¤į çī©
G ood
ç§» åĬ¨
ver e
ãģĬ ãĤĬãģ¾ãģĻ
15 5
Ġgl ob
äºº åı£
ung kin
Ġrespect o
medi ate
ĠCh arl
at iques
over line
Ġappro val
up t
us ers
Ġac ab
Ġdis miss
ĠN E
èħ Ĳ
I RE
Ġb orrow
ÑĨÐ¸ Ð¸
Ġann Ã©e
Ġtard e
æĭ Ĵ
ĠSh ould
èµ ı
uest os
èĲ ¨
Ġcontribut ions
m g
æĻ ¨
ĠCarol ina
set counter
Ġvir al
Ġtor ch
Ġadd s
ä½ĵ éªĮ
.s ub
Ġh ole
Ġlleg ar
ĠØ§ÙĦÙħ Ø³Øª
Ġì¶ Ķ
V M
on ces
åĸ¶ æ¥Ń
ÃŃst ica
Ġestab a
åŁº åľ°
èĭ± åĽ½
ay ing
ÑĢ Ð¾Ð²
à¥ Ģ
å¹¿ å·ŀ
Ġs z
Ġarr ived
ast s
\ %
ĠN ever
ä» ģ
Ġfl our
æº ¶
Ġpros pect
ese h
Ġpl ural
ãĥĵ ãĤ¸
ãģ¨ ãģĹãģŁ
Ùģ Ø¶
ĠP arl
ãĢĤ ä½ł
Ġf ur
åķ ¦
Ġh ors
åĨį æ¬¡
Ġorgan ized
st one
Ġresol ve
ãģı ãĤĮãĤĭ
ï¼Į éĢļè¿ĩ
à¦ ¾
/ re
æĢĿ èĢĥ
Ass ert
ce p
ĠÐ £
\ "
Ġv ier
ĠH IV
Ã¨ mes
ĠL y
.j son
æĥ ĳ
Ġtum or
at tr
ir th
Ġs y
.S et
Ġm ice
Ġs endo
Î ¹
ÑĤ Ð¾ÑĢ
Ġconc ert
Ġsudden ly
Ġsub stance
è¦ Ĩ
Ġth orough
Ġscen ario
Ã©r er
j ango
ĠFor ce
m ic
å½± éŁ¿
ĠS ir
Ġrespect ive
ĉ assert
ĠdÃ©c ouv
Ġnew sp
Ġl anz
Ġb out
Ġcomplic ated
N ous
ĠF arm
ĠK et
Ġgest ion
T ok
Ġshould er
ĠJ ones
çļĦ æĸ°
z ar
ĠìľĦ íķ´
ë¥ ¸
ĠëĮĢ íķľ
/ P
Ġpre ocup
R ange
Gr aph
æĬ¥ éģĵ
è¿Ľè¡Į äºĨ
L abel
Ġpal ab
r ent
ino is
n ed
ir al
ol y
Ġ ä¸Ń
åħĪ è¿Ľ
he w
éħį åĲĪ
ĠT ry
ĠKore a
Ġc oup
Ġserv es
æĦŁ åĪ°
ĠL ow
Ġopt ional
Ġro se
èĭ± è¯Ń
fo o
Ġas ist
- cl
s uch
è¿ħ éĢŁ
Ġdrop ped
iet nam
Ġappreci ate
Ġstruct ural
ãĢģ ãĢĬ
ĠÙħ Ø³Øª
æľĢ ç»Ī
plic ations
ÙĦ Ø¨
p op
() );ĊĊ
iz ations
Ġag reg
ĠÙĪ Ø¬
Ġk ec
omet ric
oun try
ential s
.c n
Ġpen al
AA AA
Ġtreat ments
Ġprodu cciÃ³n
uc ks
======== ====
He ight
Ġpres ente
Ġf inger
çļĦ éĤ£
. on
æİ¨ åĬ¨
us i
Ġex ig
AR D
æĴ ®
ĠEst a
C ap
Val ues
Ġph osph
åĢ¼ å¾Ĺ
ĠL iter
åŃ ķ
ĠHe ad
It ems
Con f
ãĢĤ ãģĵãĤĮ
Ġëį Ķ
Ġprot agon
ack ed
Ġform e
ikip edia
çļĦ ä¸Ģä¸ª
Ġt act
Ġpoint ed
R ow
ĠB on
ric ulum
Ġpart ido
íĶ Ħ
Ġrob ust
Ġvers us
N O
Ġcor ps
Ġequ ations
ï¼Į ä¸ĭ
Ġì Ĥ
_ com
t ml
Ġestim ates
é© ¶
å¼ Ħ
ĠR a
Ġess entially
m ac
ãĥĭ ãĥ¥
ç½ĳ ä¸Ĭ
or er
ï¼Į æĪĸ
b efore
ĠK r
Ġany way
Ġp ep
Ġme io
Ġk g
Ġex it
k ap
åıĮ æĸ¹
ãĥ³ãĥ ĳ
Ġadv antages
ĠÂ ¡
é¡ĺ ãģĦ
Ġh ell
ĠC ir
ãĤı ãģĳ
ï¼Į ä¸Ń
Ġlos ing
ĠP A
ãĤ¿ ãĥ«
æĺ¯ ä¸įæĺ¯
St orage
å¹ »
Ġp ue
Ġsu cc
Un der
ãģĦ ãĤį
ĠK el
Ġsc al
Øª Ùī
Ġtri als
ç¾ Ĭ
Ġbelie f
Ġen ables
Ġexc ited
" )ĊĊ
ĠA st
Ġs ending
ĠÃ¼ ber
Ġint ers
ĠØŃ ÙĬØ«
ĠAng eles
16 3
ĠS at
æīĢ åľ¨
ĠpÃºblic a
M O
çľŁ å®ŀ
Ġpas ar
B ig
Ġby tes
p th
qu el
ch ed
ĠIt aly
il ation
C ard
Ġembod iments
ĠrÃ©s ult
Ġcare ful
Ġpob laciÃ³n
Ġexplan ation
arch ive
ê¸ ī
ĠĠĠĠĠĠĠĠĠĠĠĠĠĠĠĠ ĠĠĠĠĠĠĠĠ
al id
æ¦Ĥ å¿µ
Ġbus y
Ġaut onom
Ġcu id
Ġris ing
åĨħ çļĦ
it ting
ç¢ İ
ic ar
ĠCons ider
à¥įà¤ °
ĠIn it
ä¿¡ åı·
Ġrepro du
ĠÙĬ Ø¹
æ¬¢ è¿İ
æĭ ĵ
ĠS QL
Ġmil hÃµes
æĺ¯ä¸Ģ ç§į
ãĥĽ ãĥ¼ãĥł
æ¯į äº²
ĠÙĬ Øª
ĠsÃ©cur itÃ©
æ¨¡ åŀĭ
æī «
us aha
ne x
Ġobvious ly
ï¼Ł æĪĳ
âĢĿ ãĢģâĢľ
Ġm useum
F D
Ġess a
Ġp iÃ¨
ain ts
ĩ ãĤ£
è©ķ ä¾¡
ÑĦ Ð¸
ï¼Į æīį
Ġpol ar
Ġmed ication
ĠK ota
- weight
Ġgu itar
L ike
d on
ic ional
app y
it en
Ġquant ity
Ġappar atus
ä¸į ä½ı
ĠAdminist ration
åĶ¯ ä¸Ģ
Ġconfig ur
Ġrec ycl
ab eth
Ġnue vas
ç¨® é¡ŀ
ĠTh ank
ĠY oung
ç« ¹
åī Ĭ
Ġtrans lation
ar ang
Ġg ouvern
Ġkeep s
åĦ¿ åŃĲ
Ġad s
ĠÐ¿ ÐµÑĢÐµ
Ġ æĪĳ
æ³ ¥
il ly
à¤ ®
IT E
Ġê ¹
W ill
æĹħ è¡Į
Ġdif ÃŃ
ĠB oston
Ġrest e
Ġsub str
ro gen
åķıãģĦ åĲĪãĤıãģĽ
eseh atan
éī ´
n Ã©
æ§ĺ ãĢħãģª
åĲ¬ åĪ°
ãĢģ ãĤ¢
Ġdig est
Ġhand ling
ĠÐ´ Ð°
Ġt Ã©
_ url
ï¼Į å¤ļ
ä¸¥ æł¼
ãĤ¹ ãĥļ
ĠG ra
ãģ¾ ãĤĮ
Ġpropos al
AS A
è®¾ æĸ½
comm on
Ġz e
âĢĻ Ãł
il ities
Ø¹ Ø¨
Ð Ľ
w orth
Ġany more
éĺ² æŃ¢
æ± Ĺ
uv re
Ġwhe el
èĪ Ī
ent iel
å§ ĳ
Ġweap ons
æĢĿ ãģĦ
Ġlist a
ÙĨ ÙĬØ©
Ġsou vent
13 6
ĠTr ust
åħ¬åı¸ çļĦ
ĠWh ether
æĥħåł± ãĤĴ
atas et
Ġestud io
ĠS ource
ãĢĤ æŃ¤
ìļ ¸
i ate
ç¡® ä¿Ŀ
Ġminist ro
å¼Ģ æĶ¾
ĠMar ia
Ã© gr
Ġfra ction
B ecause
AT H
_ config
çĸ ¼
ãĥ³ ãĤĴ
Ġam or
ĠF our
å½ĵ åīį
Ġrestaur ant
æİĮ æı¡
em ed
Ġmus cles
Ġexpl os
ãĤŃ ãĥ³ãĤ°
play er
Ġte en
. New
éĬ Ģ
iz z
an ci
Ġesc ape
N I
Ġwrit ers
ĠCath olic
ĠG reek
ite z
ä¸ĭ ãģķãģĦ
f ind
ag ment
Ġmel alui
çľŁ æĺ¯
Ġlib er
P arser
Ġm ieux
Ġdo ctors
Ġint ention
Ġo vers
Ġgen u
( string
Ġk al
Ġown ed
Ġwur de
ass oci
Ġmedi ante
ĠAdd itionally
èĭ Ĺ
Ã ĵ
Ġ Ø§
Ġradi ation
ĠCol omb
Ġme al
Ġdeterm ining
å®ļ ä¹ī
ĠN atural
ĠD am
() ).
ĠdÃ© part
èĥ ¶
ita ire
{en umi
ĠC ustom
ä¸ĭ éĻį
ï¼Į åĪ°
eg as
ĠR ay
ĠK am
ut an
et ics
Ġcomp act
Ġs ought
Ġcab o
Ġtrack ing
å®ĥ çļĦ
Ġdesign s
ĠB or
ath an
å¤į æĿĤ
sh ot
h abil
or ient
Ġusu arios
is Ã©e
ION S
Ġne ur
ĠSecret ary
ë¶Ģ íĦ°
Ġap a
p ire
ãģ«ãģª ãĤĬ
V C
ug a
ĠL uis
ç»ı çĲĨ
i pt
ãĤµ ãĥĿãĥ¼ãĥĪ
/ T
çĮ Ľ
15 2
åĢ ¾
n p
Ġqual ified
ÑĢÐ° Ð²
ãĥĪ ãĥ©
Ġass embly
ĠR ub
æ¼ ı
Arg ument
èİ ±
ç į
p are
Ġm ouse
Â» .Ċ
ĠJe ff
Ġobserv ations
çĽ ¾
Ġins ights
Ġmais on
ãģĹ ãģ£ãģĭãĤĬ
= {{
Ġ' /
Ġlimit ations
Ġap plies
ĠLe vel
ĠF eder
Ġìŀ ¬
Ġdis ability
è· ¨
Ġregul atory
Ġcan cel
Ġintrodu ce
< int
è¯Ħ è®º
. O
n ent
ãĥ¯ ãĥ¼ãĤ¯
ĠP eng
ï¼Įåıª è¦ģ
Ġclass ic
åŃ¦ ä¼ļ
EC K
Ġact u
ĠR Ã©
å®ŀ åľ¨
H ave
Ġr ou
ëł Ī
ĠìĤ¬ ìļ©
Ġf ruits
Ġbi ological
Ġacknow led
_ user
ĠMunicip al
- res
Ġvari ation
æĿ ľ
D ur
atur day
ĠlÃŃ nea
ĠC ost
\ label
Ġquant um
Pro t
Ġnatur ally
ac ciÃ³n
åĵª äºĽ
us al
.j ava
éĥ½ åľ¨
l on
app a
ãĤĴ ãģ¤
ĠInstit uto
ow a
Ġin com
ìķ ½
Ġunivers al
re land
OC K
åħ Ĳ
and ing
_ un
Ùģ Ø±
Ġcompens ation
ãģ® ãģ¿
Sh ort
çĻº è¡¨
Ġcour ts
Ġsu is
- left
de ed
Ġdrink ing
- right
éĿĴ å¹´
èī ¾
h id
Ġfol der
äºĭ å®ŀ
Ġpat ent
Ġs izes
Ġelectric ity
è®¨ è®º
- y
Ġint ensity
gr eso
ĠØ¨ Ùħ
ï¼Įåıª æĺ¯
clud es
Ġdis appe
ì ¤Ģ
Ġfor ec
Oper ation
M r
( N
ãģĻ ãģĲ
Ġport e
Ġshop ping
do or
ĠìĦ ¤
ĠS M
ç¬¬ä¸Ģ æ¬¡
O U
å¤ī ãĤı
const ruct
- ci
Ġh ence
Ġrem ind
Ġprov isions
Ġsome where
AN G
ĠDes cription
íķĺ ê²Į
ëł ¨
ĠW in
Ġl on
Ġbound ary
äºº çī©
ĠRe quest
Ġlain nya
ãģ¹ ãģį
Ġdispon ible
è¿Ķ åĽŀ
im en
Ġas pir
th rop
ĠE in
Ġal Ã©m
}} ,
Ġbacter ia
Ġl Ãł
( err
20 5
Ġv ibr
éģķ ãģĦ
Ġh izo
Ġregist ration
Ġb low
ĠÑģ Ð¸
Ġfact ory
Ġ{ }
ĠCap ital
l oc
Ġover l
Ġr g
éĻ ª
ĠrÃ© se
bo ot
Ġstrong er
em ia
æī £
Ġst yles
ãģ§ãģ¯ ãģªãģı
Ġn ations
Ġwr ap
Ġgrad uate
om o
Ġunder t
Ġprem ium
- ĊĊ
ĠCol umb
pe cial
Ġby te
Ġ à°
Ġthous and
íķĺ ê¸°
ĠM ess
j ets
pro of
ãĢĤ å¥¹
çĸ¾ çĹħ
Ġpers pect
cont act
Ġla v
Ġdifficult y
Ġbl ind
ç¶ļ ãģį
Ġhor se
Ġvit amin
ĠEx ample
ãĥ¡ ãĥ¼ãĤ¸
P RO
Ġê³ Ħ
her es
å¸ ¯
Ġc ob
cont in
ä¿Ŀ åŃĺ
ãĥĻ ãĥ«
ä¹ ı
ĠL ev
å¢ŀ å¼º
17 2
Ġnos otros
Ð½ Ð¾Ð¼
ãĤį ãĤĵ
Ġbon ne
Ġ rows
eph one
Ġinit ially
Ġinj uries
Ġemploy er
Ġart ificial
ĠB io
Ġd ance
Ġd ust
Ġpar agraph
ĠD ise
" ;ĊĊ
çİ Ħ
ï¼Į ç»Ļ
Ġa h
Ġex emple
Ġmar zo
ĠB oy
ãģĬ ãģĻãģĻãĤģ
_l ength
Ġt iny
ĠØ¨ ÙĦ
as ks
Ġenviron ments
Ġserious ly
æĸ½ è¨Ń
è¡¨ éĿ¢
ateg oria
ãģĦãģŁ ãģłãģĳ
Ġ ãĢģ
å°ĳ å¹´
í ĽĦ
Ġwatch ed
ĠP ython
ĠØ§ÙĦÙħ ÙĪ
ä¸ª æľĪ
ä¸ ¦
") );Ċ
Ġwhen ever
å¡ ĳ
' ai
Ġemot ions
ne z
Ġe cos
) ]
Ġlab els
å§ Ĩ
Ð¶ Ð¸
E uro
Ġdeterm ination
ä¹¦ è®°
reg ist
çħ ¤
æĻļ ä¸Ĭ
éĶ ĭ
ac ent
Ġmarch Ã©
IG N
âĢ ī
Ġev il
Ġcontempor ary
ro at
_ ,
L L
Ġg onna
Ġë Ħ
ä½ľ æ¥Ń
å¹´ ãģ«
15 1
íĺ ķ
ĠÙĪ Ø²
ãģĪ ãģ¾ãģĻ
Ã¼ n
Ġre ly
Ġveloc ity
ĠK im
ìŀħ ëĭĪëĭ¤
iat ric
Ġel a
ah l
éĸ¢ éĢ£
íĹ ĺ
ff ff
Ġmin i
Ġdro it
t ra
ĠBl ock
Ġ ).
ãģį ãģŁãģĦ
Ġcook ing
ip her
S QL
. Error
ack er
anÃ§ as
Ġmod ify
l angle
ap on
Ġinterpret ation
Ġre vers
-- -Ċ
T wo
çĶ» åĥı
Ġj ury
Ġmem per
ï¼Į åĴĮ
í ĭ
Ġsim ulation
Ġren ov
Ġre ply
ĠIs s
ãĤª ãĥª
Ġprob able
Ġperfect ly
ĠAg ain
ĠÙĬÙħ ÙĥÙĨ
ë³ ¸
it ary
ìĹĲ ëĬĶ
ÙĪ Ùĥ
12 9
çī¹ èī²
cy cl
Ġstudy ing
ãĤı ãĤĮãĤĭ
ãĥ ¨
íķĺ ìĹ¬
Ġdur ch
r ical
Ġcuer po
Ġst om
Ġe iner
ï¼Įä»¥ åıĬ
Ġ{ "
33 3
Ġfac ulty
ap ol
Ġje u
?âĢĿ ĊĊ
es ome
Ġê± °
Ġalleg ed
è§Ĵ åº¦
\ <
å¹¶ æ²¡æľī
l ights
est h
å® ı
Ġrefer ences
(' /
_ y
Ġfem in
ERR OR
17 6
ĠK om
um as
T P
Ġmaintain ing
ĠI raq
Ġcertific ate
D uring
ĠCh ild
åĵª éĩĮ
Ġguarante e
wh el
ĠSt ock
è¯´ è¯Ŀ
Ġinsp ired
èµ ¢
Ġrepresent ing
âĳ ł
i ado
Ġassum ed
ĠOr ig
ank an
ìĦ ¤
ush ed
om atic
13 7
ëį ĺ
/m ain
ĠT ambiÃ©n
$ (
ä»£ çłģ
Ġint Ã©r
-s pecific
Ġab ort
ro it
ang el
Ġm ond
å° ĸ
Ġal ive
çļĦ å½±åĵį
' ),
Us ing
Ġprime iro
åĬ ²
ï ¸
ĠJ on
Ġth ir
Ġso le
èĩ³ äºİ
Ġ ),
ane ously
Ġfu era
ìĹ Ī
åľ° ä½į
Ex pression
Ġe f
ĠPar am
Ch ild
Ġgovern ments
Ġaim s
çĲĨ æĥ³
Ġpar c
Ġmod ules
ãĥĻ ãĥ³ãĥĪ
âĢľ We
Ġfamil le
Ġcorre lation
u ous
å¤§ éĩı
æĳ ĺ
ĠØ§ÙĦÙħ Ø³
ÙĪÙĤ Ø¹
ĠWh ich
ãĤĤãģ¡ ãĤįãĤĵ
æ¶Īè´¹ èĢħ
è¡Į çļĦ
ãĤ¹ ãĤŃ
ì² ľ
Ġc av
ov es
ann Ã©e
ãģĦ ãģĨ
KE Y
Ġenter prise
æ® ĸ
Ġres c
.p ath
Ġneigh b
Ġmin ister
Ġp ier
ï½ ľ
. put
æĭ ľ
) +
ers ey
ĠCont ent
Ġpet ition
æĸ ¼
Ġhard er
ĠBrit ain
Ø±ÙĬ ÙĤ
ĠI C
æ± ¤
ĠØ¨ Ø±
è©³ ç´°
Ex ample
ĠS H
ĠPerson al
Ġcont a
d ers
.g ov
aj ar
Ġter b
ĠGr an
å° Ŀ
ç² ®
Ġinf ant
Ġinvestig aciÃ³n
ĠperÃŃ odo
em o
Ġs os
Ġê² °
ĠE D
th eless
Ġsil ver
ec a
ÃŃ fic
è ķ
Ġdisco very
Â° C
ih ak
Ġmej ores
ĠT own
.m ap
Ġdeb ido
åī ¤
Ġap pend
Ġrepe at
Ġpolit ique
Ġf est
IZ E
Ġapoy o
ĠÃºn ico
Ġmechan ical
Ġboy s
çĵ ¶
ĉ int
çī© è´¨
çļĦ éĩįè¦ģ
le ar
åĲ¸ å¼ķ
Ġbus ca
. res
ĉĉ Ċ
( F
ãĥ¼ãĥ Ĩ
ãģ§ãģ¯ ãģªãģĦ
T otal
å¹´ ãģ®
Ġfac es
åŃ ¤
æ¬ £
åĿ ¦
é¢ Ĺ
ell ant
ĠPl ace
ĠB all
ĠØ§ÙĦØ³ ÙĬ
ï¼Į åĲĦ
ay lor
åĭķ çĶ»
? .
Ġr ational
ĠRe qu
elih ood
è¼ ĥ
ãĥ¢ ãĥĩ
ãģª ãģĳãĤĮãģ°
id ores
Ġde port
Ġord inary
åħ´ è¶£
åĲį åŃĹ
R NA
ĠM P
Ġen forcement
Ġrob ot
ï¼Įå¯¹ äºİ
Ġm ÃŃn
Ġrel aciÃ³n
\ |
å®¶ éĩĮ
Ġsoci Ã©tÃ©
çĤ ¸
Re ader
ĠìŀĪ ìĬµëĭĪëĭ¤
Ġd ys
AL SE
.Ċ //
co le
ĠExecut ive
Pol icy
13 4
Ġt one
Ġaug ment
Ġsh arp
åĽŀ æĿ¥
Ġde po
Ġdu a
éĵ º
Ġst abil
Ġcad re
Ġz ur
P ad
å± ¥
Ġpro xim
éª ĳ
åĩ ī
cess o
å¾ ĵ
ë©´ ìĦľ
"> <
. .Ċ
ãĤĤ ãģĤãĤĬãģ¾ãģĻ
Ġcloth es
Ġthe oret
Trans action
âĢĻ .
are mos
à¥ ¤
åħ ģ
at kan
T ra
å« Į
Ġbes oin
ĠKab upaten
Ġsav ings
è¤ ĩ
ï¼Į åıį
Ġmen or
() :Ċ
Ù Ĳ
ë§ ¤
Ġanalys es
Ġbu ena
Dev ice
Ġrepresent ative
l ag
ãģ¾ ãģ¾
15 6
um ps
_d ate
æ¼ Ĥ
Ġ ici
æĭ ¼
Ġcr usher
ĠB ru
å¹´ åīį
èĩ³ å°ĳ
Ī ¬
Ġau jourd
ãģĭ ãģĳ
Ġclass room
ĠS EO
ĠTr ad
Ġaf raid
èĳ£ äºĭ
ä½ĵ çļĦ
ert as
ĠN ord
Ġun as
Ġarm y
Ġtransport ation
Ġdevelop ers
pl an
ëŀ Į
éĹ ¹
Ġgr acias
ĠBar cel
å¤ļ äºĨ
ìľ ¡
Ġaddress es
åľ §
Ġbe b
ĠF uture
åĳ µ
Ø¬ ÙĦ
Ġcon front
å¿ ł
ĠcrÃ© dit
Ġsign ature
åķ ¥
Ġm ars
Ġmag ic
Ġseb el
ĠT urn
Ġgen re
å¿« ä¹Ĳ
ï¼į ï¼į
èĩ £
Ġ- Ċ
ĠJ oe
Ġaddress ed
æħ §
ĠSt an
- O
å°± ä¸ļ
Ġë§ İ
ob ox
æľĢ åĪĿ
å° ĺ
ç¬¬ åĽĽ
E ffect
Ġiniti ative
Ġpre cio
Ġexec ute
t ons
åĮ» çĶŁ
Ġexc el
è¿Ļ æ¬¡
em es
< <
Ġa ircraft
å¸¦ æĿ¥
fil ter
Ġtemper atures
( result
Ġp Ã©ri
Ð½Ð° Ñı
14 1
ĠÙĪ ÙĬ
h ist
Ġ$ (\
æ¯Ķ ä¾ĭ
ĠB at
^ *
Ġil legal
ä¸į çŁ¥
-- Ċ
çĶ ľ
å®¶ éķ¿
il de
ir s
Ø§ÙĦ Øª
ãĥĥ ãĤ·ãĥ¥
Ġstud io
Ġpregn ancy
ĠKing dom
ãģĻ ãĤĮãģ°
ĠdÃ© clar
Ġ æĺ¯
- tr
ãĤ¤ ãĥĻãĥ³ãĥĪ
Ġg au
Ġem issions
è¿ŀ æİ¥
ĠCh ile
ri k
ens i
ãĥĸ ãĥŃãĤ°
Ġsurpr ised
Ġout er
_ class
å¾Ģ å¾Ģ
Ġpro sec
Ð ĳ
ÙĪÙħ Ø©
ĠAnton io
Ġed ges
h s
Ġemb ed
éħĴ åºĹ
ĠÃ© conom
ĠIt alian
ĠÐ´ Ð»Ñı
ãĥ¬ ãĥĵ
Ġl in
{ k
. ap
Qu Ã©
ãĥ ´
ãģ¨ ãģĭ
ish ment
Ġcarry ing
Ġmov ements
ĠIm p
Ġmatch es
Î µ
Ġunivers e
rop ol
cc ion
Ġ[ @
ĠL eb
Ġprov oc
met ros
çļĦ ä¸»
Ġcogn itive
bl ing
( in
æł· åŃĲ
ì ´
ĠN S
ĠTh ree
ï ¾
Ġh osp
Ġcontro vers
I AL
Ġë ©
Ġremov al
Ġc idade
æľ¬ èº«
had ap
P o
ĠØ§ÙĦÙħ Ø±
âĶĢâĶĢ âĶĢâĶĢ
Ġp Ã¡gina
åĲ Ĳ
M ain
é© ±
çĵ ¦
id al
ĠA w
ĠS ul
Ġp ec
Ġh ook
G ame
- x
Ġco inc
Ġimpact s
Def inition
Ġsav ing
Ġconsum o
ĠL ED
Ġap Ã³s
Ġobject ives
å¨ ľ
ell i
ì ¢ħ
\ {
od ule
ho ver
ãģĶãģĸ ãģĦãģ¾ãģĻ
ubl isher
Ġinvol ve
Ġf iber
ìĹ Īëĭ¤
16 1
Ġr ide
Ġdemand e
è¡£ æľį
Ġhaven 't
gress ive
ãģ® ãģ«
g unt
iss ent
è®© æĪĳ
å°ı åŃ¦
ĠEXP ECT
16 2
èģĶ ç½ĳ
Ġm akan
Ð¾ÑĤ Ð¾ÑĢ
Ġì ¦
Ġpare ce
ag ers
- cent
al and
13 8
Ġwith draw
r us
Ġen emy
Ùģ Ø³
ĠHol y
olog ists
Ġcent ers
Ġl ens
Ġpac ientes
Ġsem i
Ġequ ally
æĪ ¸
Ġless on
00 4
ãģĻ ãģ¹ãģ¦
Ġche cks
ï¼Į èĩªå·±
Ġwe aring
com fort
Ġfriend ly
m ake
Ġamb iente
Ġactiv ation
å° º
am ps
st ar
Ġproport ion
id or
Ġst em
è² ¡
Ġcond iciones
requ ired
Ġc odes
st en
ÑĢÐ° Ð½
å¸Ĥ åł´
ĠId ent
ĠIn teger
Ġim aging
Ġm undial
ĠØ§ÙĦØ ²
ĠBook s
Ġtransl ate
ĠN ature
Ġcab e
Ġcho ix
ĠL ess
{ }
ĠRes ources
i Ã§Ãµes
Ġmaintain ed
Ġvalid ation
Ġtr ace
.t xt
å¦Ĥ ä¸ĭ
Ġclean ing
å¾Į ãģ«
Ġsamp ai
Ġinvest ments
Ġin te
Ã¢ te
ĠLat in
Ġresult ed
as o
ing k
ĠP od
éĺ ª
ĠAs ian
iqu er
æĹ ĭ
èĥ Ĩ
H igh
Ġ .ĊĊ
k el
Ġtr ick
Ġlay out
Ġprocess ed
i ology
ãĥĲ ãĥ¼
ro oms
Ġinv alid
ĠÐ ¤
Ġdiv or
ĠMr s
Ġs le
am l
Ġarbit r
Ã³ v
iz ados
ä» ²
Ġlow est
_ for
Ġcant idad
ÙĬÙĨ Ø©
ĠÂ ©
ĠØ¨ ØŃ
æľº æ¢°
l ab
Ġtem pat
ĠS ometimes
Ġb anc
os h
Ġst rip
M en
-st yle
IL L
aw an
Ġd ental
ĠF un
or ic
çĸ ²
ican o
ä¹ ĥ
Ġche f
Ġj a
ĠÃ ®
S ection
Ġà¤ ķ
Ġp ied
ĠI reland
å¥³ åĦ¿
Pe ople
ç£ ģ
Ġden ied
S I
bl og
ä»£ çĲĨ
Ġ\ (
ĠO lymp
En tre
Ġg ross
çļĦ ä¸į
Ġch ances
Ùĥ Ùħ
Ġpain ting
Ġl iver
ĠL anguage
æŃ£ æĺ¯
åįı è®®
arg in
Ð ¤
çļĦ ä¸ľè¥¿
ä¸Ģ å¤©
ĠPac ific
s wer
reg ular
ploy ee
Ġse eds
ãģı ãĤīãģĦ
ãĢģ ä¸į
Ġtrans m
ĠA qu
Ġport folio
ĠS O
ãģĽ ãĤĭ
Ġinstr uments
Ġben ch
ual s
ãĤĪãĤĬ ãĤĤ
ç«Ł çĦ¶
Ġìł ģ
ud ian
W indows
Ġtempor ary
æĤ ©
ag ens
Ġhere in
ĠAr g
Ġacqu ired
åĪĽ ä¸ļ
. php
åĩº ä¸Ģ
Ġmen c
ãĢģ ãģĶ
ven ue
Ġset iap
ess a
iss ant
è§Ĥ å¯Ł
ĠWe ek
Ġt ube
ãĥª ãĥ³ãĤ°
Ġopin ions
ĠOpt ional
S M
og ene
èª ī
Ġag es
ĠC ancer
. out
ç´ł æĿĲ
_l oss
Ġë¶ Ī
Ġl ifestyle
ãĤ¯ ãĥŃ
ĠÐ¾ Ñģ
par ation
Ġcom port
16 4
ak it
Ġser ial
clip se
M enu
vent ions
app oint
ê »
Ġprocess or
åħ¬ å¼Ģ
èĢģ äºº
P assword
Ġbers ama
è¿½ æ±Ĥ
ï¼Į æĪĸèĢħ
ĠÙĪØ§ÙĦ Øª
æľĢ å¤§çļĦ
ĠB ah
ãģ¨ãģĦ ãģ£ãģŁ
ĠSen ate
pro p
)) )Ċ
Ġf ourn
ĠUS B
åİŁ æĿ¥
Ġí ĽĦ
That 's
Ġcontinu ing
Ġë§ ¤
Ġdem ands
ĠCom ments
Ġegg s
Ġë° ĺ
N um
Ġmy th
ĠS av
æŁ ±
ĠT uesday
Ġtr Ãªs
ul it
ãĤ¢ãĤ¯ ãĤ»
Ġdin ner
Ġorgan isation
ĠCont act
* }{
Ġ$ $
âĳ ¡
Ġb att
us a
Ġfrequ ent
on to
Ġnombre ux
Ġe ast
Ġc able
{ e
uk up
col es
: \
Ġpick ed
Ġsur faces
ĠSe a
éĢ Ļ
ãĥ¼ãĤ« ãĥ¼
âĢĻaut res
Ġgreat ly
ed en
14 2
ac on
çĤ¹ åĩ»
Ġclass ification
Ġ-- -
çªģ çł´
èĩª æĪĳ
ä¾ĭ å¦Ĥ
Ġf erm
13 9
Ġdynam ics
Off set
Ġmetab ol
Ch anged
ĠD un
ĠLear n
Ġdef e
ĠI L
ÑģÐºÐ¸ Ð¹
( L
å¿ĥ ä¸Ń
ĠV enez
ãģ£ãģŁ ãĤĬ
ĠB razil
Ġfound ed
âĢĻh ui
âĢĻ acc
ÑģÐº Ð¾Ð¹
ÑģÑĤ Ð²Ð°
Ġattempt s
Ġp ill
Ġas es
ĠP el
17 1
ĉ ĠĠĠ
ast ing
all oc
Ġco ach
v m
æµ ħ
ĠPr iv
ĠÐº Ð¾
-f or
c id
Ġrespons able
Ġmy st
è¿ĺ è¦ģ
ĠØ§ÙĦÙĬ ÙĪÙħ
ur uh
Ġper lu
ĠK al
Ġequ ity
Ġ( âĢľ
æĮĩ åĩº
ĠC it
åıĳ è¡¨
Ġatmos phere
ĠØ§ÙĦÙħ Ø¹
Ad emÃ¡s
C N
Ġl alu
Ġë° Ľ
ìĦ Ŀ
Ġpo inter
F ull
ĠcompaÃ± ÃŃa
Ġphilosoph y
Ġdecl ine
Ġc urrency
Ġcert ains
S elect
Ġsend iri
ĠCom o
ill et
ant u
íĻ ĺ
Ġlight s
ĠÙħ ÙĪ
ven es
è¯¦ ç»Ĩ
Ġk it
H ome
Ġconfig ured
Ġl ips
_ DE
equ als
æģ Ĵ
íĺ Ħ
Ġg am
Ġevery day
å§Ķåĳĺ ä¼ļ
èı ²
ep ing
ĠØ§ÙĦ Ø§ÙĨ
Ġsh ell
S in
âĢĻ ap
ĠWill iams
è¿ ģ
f g
ait u
Ġmag azine
æķ° åŃ¦
Ġth y
Ġdiscuss ions
ĠSaf ety
ĠC at
ĠStud ent
æ´ ª
ç»´ æĬ¤
Ð± Ð¸
ear ing
se g
W indow
{ G
\ ]
IN D
< br
Ġsur ge
28 0
éĶ ħ
ãģĮ ãģªãģĦ
Ġde eper
ĠG R
out es
Ġcomp ounds
éĢĲ æ¸Ĳ
åĺ Ľ
^{ (
sel ect
æĸĩ åŃ¦
Ġmod al
V I
ott ed
æŃ» äº¡
Ġc elle
ador as
oc y
è² Į
ĠP D
S L
D eb
Ġj uego
à¤ ¸
Ġmedic ines
Ã³ w
ĠHT ML
po on
Ġfall ing
Ġdisc ount
Ġbir ds
Ġcomplex ity
å¾Ī å¥½
Ġbur den
Ã©t ica
ãģ¾ãģ§ ãģ®
Ġmay o
ibil ities
ĠF A
ç¢ °
Ġm apping
ç»Ļ ä½ł
ä¾Ŀ çĦ¶
Ġaqu ell
16 6
;ĊĊ /
ict ions
æİ¥ è§¦
Ġassign ment
- box
æī ±
Re ce
ra ined
ĠReg ional
Ġcheck ed
Ġim pression
èĢĮ è¨Ģ
Ġp iel
Ġser ont
Ġalgorith ms
s w
Ġ ia
åİ ī
15 9
Ġcorre l
.S tring
Ġb erm
ĠÐ» Ð¸
Ġdo ct
ãĤ¿ãĤ¤ ãĥĹ
éĩį è§Ĩ
Ġthere by
Ġpro min
. To
bs erv
ou st
å£ ®
ĠM icro
. web
ãĤĤ ãģĨ
Ġv or
Ġbenef icial
15 3
Ġfocus es
Ġrepl acement
ä¸Ĭ ä¸Ģ
Ex p
ĠÙħ ÙĤ
Ġinter v
Sch ema
Ġevalu ated
Ġp atch
G ET
. text
Ġcomb in
) ^
Ġ æľ¬
æŁ ³
other apy
ĠC re
åı° æ¹¾
Ġchocol ate
Ã¢ t
Ġover whel
Ġv amos
ut ton
. Y
uc ed
ĠIl s
ĠÂ» .
å¤Ħ äºİ
ĠC rit
Ġun w
ä¾Ľ åºĶ
Ġcho osing
_ with
Ġa pl
Ġp airs
éĿ© åĳ½
èµ° äºĨ
us se
ãģ£ãģ¦ ãģĦãģŁ
ard i
Ġpar l
ĠV A
Ġacc eso
Ġr ice
éŀ ĭ
æĽ ¼
ĠC y
W orld
Ġ= >Ċ
Ġent onces
Ġfarm ers
Ġw ie
Ġvictim s
Ã ģ
g io
ãģł ãģĭãĤī
_ per
Ġman o
r un
Ġcopy right
ĠBit coin
and ed
low er
ê² ©
èµ ļ
Ġcover ing
å°ı çļĦ
ash ed
_C ON
Ġindust ri
Ġconserv ation
çĽ¸ æ¯Ķ
ãĤ¢ ãĥī
Ġe k
ç· ´
Ġarg ue
å¤ º
_m odel
ï¼ī ãĢĤĊ
Ġk in
P K
ust ration
Ġrestrict ions
Ġhead s
å½ĵ åľ°
Ġinvestig ate
çľĭ äºĨ
Ġries go
ï¼Į é«ĺ
ĠCons ult
Ġnew ly
ĠI R
ĠS ym
ãĤĴ ä½¿çĶ¨
Ġv est
Ġregist r
ĠS ite
éĩĳ å±ŀ
ver ty
ax y
as m
ĠSc ot
Ġberb agai
éª Ĺ
ĠT ab
arl a
= None
. be
Ã© ra
Ġsup plies
ĠØ§ÙĦÙħ Ø¬
Ġhe aling
ĠV ietnam
Ġir re
Ġterj adi
ex ample
ĠSt ore
æ¸ ¬
ul ator
é½ ¢
UN D
å°½ ç®¡
ĠRes ource
ãģķãģĽ ãĤĭ
36 5
å¥³ åŃ©
og er
ĠH o
Ġdeb en
Le ft
ol ved
éĸĭ å§ĭ
ÙĬ Ø§ÙĨ
ĠdÃ©velopp ement
Ġo dd
ch ool
Ġdis h
å±ħ æ°ĳ
Ġag enda
Ġst roke
on i
par a
Ġmo ist
Ġh ang
ãĢģ äºº
ãģ¾ãģŁ ãģ¯
Ġher o
åĪļ åĪļ
Ġav ailability
{ K
è´¢ æĶ¿
ind re
ĉ p
ĠS elect
in ction
Ġëħ ¸
ĠIm m
an el
éł Ĩ
Ġk ed
Ġtalk ed
ÃŃl ia
èµ ĸ
iss er
ãĤ» ãĥĥãĥĪ
im s
æķ´ çĲĨ
ĠR ab
ĠSal ud
. config
Ġd ad
Ã³ venes
æħ¢ æħ¢
{ t
å¹³ æĸ¹
Ġ=== Ċ
D atabase
ãģĹãģŁ ãĤĬ
Ġar te
Ġcan al
ec ution
ä¹ ¾
ĠAp pro
Ġê° Ĳ
ĠJ SON
multi row
R est
Ġtom ar
y ers
Ġexc iting
Ġlog o
Ġv idÃ©
Ġgl uc
Ġdis fr
Ġa le
Ġobserv ation
Ġn em
è´· æ¬¾
Ġp ig
ï¼Į çĽ®åīį
w all
Ġbeh alf
" The
Ġf estival
æ³ ª
ĠPr inci
u ve
_ th
æĶ¯ ä»ĺ
ĠBuild ing
Ġpropor cion
ĠH as
çļĦ å¥½
Ġcamp o
Ġpil ot
Ġc tx
Ġfew er
Ġb Ã¡s
on de
æĢģ åº¦
åĭ Ĵ
Ġtherm al
Ġreg ime
è®¡ç®Ĺ æľº
27 0
au f
Ø§Ø¨ Ø©
_ ptr
Ġstatist ical
èĦ ı
Ġdiagn ostic
çĻ Į
å¥³ åŃĲ
çĽ £
åħ¬ éĸĭ
d ouble
ĠSte ve
Ġcon vey
Ġdeath s
Ġd ados
ĠHer bal
ac les
ĠØª ÙĤ
Ġcomplet ion
Ġcult ures
çŃ ¹
æīĭ æľ¯
äºĪ å®ļ
Ġro oms
Ġexecut ed
Ġpr Ã¨s
Ġ ä¸Ģ
åĽ¢ éĺŁ
å¥ Ķ
ĠÃ Ģ
ĠH R
Ġam en
ĠC atal
Ġgrup os
Ġde cent
key s
ãĥ¼ãĥ Ĳ
Pro f
Ġwork er
ester day
Ġestud i
ĠPal est
ì¦ Ŀ
Sh ow
ç² Ĺ
op es
Ġlaw yer
Ġconstruct ed
è¿ŀ ç»Ń
ĠN ut
Ġmov ies
ĠV ideo
ĠSm art
ĠT otal
S k
iv ent
ĠN ode
Ġgl ad
Ġ$ $\
Ġbr ands
Ġgovern o
ĠTh ursday
èĥ İ
_N AME
ĠC ell
Ġbre aking
Ġl uch
ific ate
ru le
Ġap i
Ġsp an
âĹ Ĩ
è¯ģ åĪ¸
M s
Ġbelie ves
ber ry
ĠÙĤ Ø¨ÙĦ
let ter
çļ® èĤ¤
å½¢ è±¡
ĠJ akarta
ĠÙĦÙĦ Ùħ
Ġrot ation
Ã ¸
% .Ċ
æİ¡ çĶ¨
ç¨ į
â Ĩ
l ass
Ġt ens
ĠCom ment
p ot
I ES
ĠíĨµ íķ´
Ġmatch ing
ï¼Į æ¯Ķå¦Ĥ
at z
ĠDon ald
Ġout ras
--- ĊĊ
ä» Ķ
ik o
ä¸ ²
Ġp ud
Ġun us
Ã¡ri as
ĠN ations
- en
ĠSou thern
ĠInt el
ad el
Ġath let
Ã© al
ĠMe an
ĠConn ect
ãģĹãģ¦ãģĬ ãĤĬãģ¾ãģĻ
l ength
èĢħ ãģĮ
ĠMod ern
Ġexam ined
Ġcolle agues
Ġret irement
ãĤĴè¡Į ãģĨ
Ġens uring
í Ĥ
æ·» åĬł
Ġpos terior
00 5
Ġìŀ ĳ
Ġaliment os
qu oi
= center
æĪĲ åĳĺ
åĬ¨ åĬĽ
Ċ //
Ġenjoy ed
Ġperson ne
Ġreci p
Ġter hadap
æķĪ çİĩ
è¨ ±
Ġmount ain
Ġacomp aÃ±
; ;
åĲĳ ãģĳ
Ġentre v
Ġret ir
Ġtarget ed
èį Ĵ
| G
b ul
Â ª
Ġprime ira
up id
ĠW ednesday
ãģł ãĤįãģĨ
æĹ¥ æľŁ
ĠÙĩ ÙĬ
Ġfocus ing
Ġchild hood
Ġneces ario
Ġsurpr ising
ç´ Ļ
H ello
Ġ ion
ĠAnd rew
} );Ċ
Hand le
Ġ ãĢĤ
Ġcomm ands
14 3
Ġfem mes
ĠC T
W idget
ur so
ä¸į çĶ¨
Ġvis ited
ĉ c
ç«Ļ åľ¨
çµ ¡
Ġsl ot
Ġsa Ãºde
Ch annel
Ġcons olid
n ia
i per
Ġe ar
æĬ ¬
Ġc ord
ä¹Ł æ²¡æľī
æĸ¹éĿ¢ çļĦ
Ġa ur
Ġprov ed
Ġìķ Į
Act ivity
Ġman iÃ¨re
Ġd ating
Ġla id
ĠProt ection
iffer ent
Ġs op
ãĢĤ åĽłä¸º
S O
ä¸ĭ ä¸Ģ
ĠR adio
as uk
Ġj aw
Ã³ mo
Ġconj unto
Ġpes o
Ġtempor ada
Ġanalyz ed
cept ions
æĥħ ç»ª
å® ¾
Ġcall back
ä¼ ı
` ĊĊ
H is
Ġmar ks
ĠD ownload
æĻ ´
^{ *
æ³ķ äºº
uest as
Ġoct ubre
ĠW is
Ġim plements
âĹ ĭ
Ġvulner able
ä»į çĦ¶
èµ· äºĨ
Ġcon fer
Ġto k
æĹ¥ ãģ«
Ġanaly ze
Ġen qu
è¨Ģ èĳī
åĩ ¯
5 12
ä¾¿ åĪ©
Ġdere chos
ãģ® ãģĶ
he alth
èĭ± èªŀ
Ġcont empl
ãĢĤ ãģĿãĤĮ
ĠÙĥ ÙħØ§
w args
et al
Ġvacc ine
æĺ Į
ĠB ob
ãĥ¼ ãĤ¿ãĥ¼
æĦŁ åıĹ
Ġhe ures
Ġhoriz ontal
åĦ¿ ç«¥
Ġutil izar
ĠS A
ãģ® ãĤĪãģĨãģª
Ġgra ve
Ø® Ø¯
Ġreach ing
ÑĢ Ñĭ
anc el
ix o
ĠØ¨ Øª
az ione
ä¸ĭ äºĨ
æĿ¥ åĪ°
Ġcapac idad
riend ly
S H
}$ .ĊĊ
V AL
met ric
Ġg ly
ert os
ef e
æĶ» åĩ»
ĠvÃŃ de
" ]Ċ
Ġh am
Ġar rive
Ġdin ero
not ation
j ava
ãĥ¼ãĥ ĭ
E rr
. user
.d art
Ġl y
ãĤ³ ãĥŃ
Ġsal v
Ġreal idad
Ġt ourn
æ³ķ éĻ¢
ÙĬ ÙĪ
} čĊ
ĠW ild
éĻĲ åĪ¶
Ġpre val
17 4
Ġsa uce
æľī ä¸Ģä¸ª
Ġconsider able
Ġel Ã©
Ġli ability
ÑĤÐ¸ Ð²
ãģ§ ãģĤãĤĬ
åı¯èĥ½ ãģ§ãģĻ
id ation
an ca
Pr im
æ°¸ è¿ľ
Å Ħ
Ġy aitu
åĭ ¢
åĪ© æ¶¦
ĠI M
çĲĨ å¿µ
15 4
Ġf ich
ç¾İ å®¹
ĠFil m
Ġop posed
Ġdeep ly
ust ers
å¡ Ĺ
Ðº Ðµ
Ġim plant
15 8
Ġconf ident
.st atus
ä¹ĭ å¤ĸ
ĠE L
Ġtet ap
Ġoper ators
ãĥ¼ãĥ ª
Ġlik ed
âĢĻe au
ĠðŁ ĺ
Ġ ãĢĮ
Ġman e
ar ry
çĽ Ĳ
æ¯Ķ è¼ĥ
ĠH ong
å® ®
2 60
ç· Ĵ
Ġqual quer
Ġv ag
Ġdo ors
Ġje unes
Ġb ent
ad en
on th
Ġespecial mente
Ġch icken
æĪĺ äºī
æĹ¶ çļĦ
åĲĪ æł¼
Ġm erg
Ġob serve
ì ¸
Ġm aj
ä¸Ģå®ļ è¦ģ
çī¹ å¾ģ
Ġb ang
ĠC C
Ġrep et
j an
åĵ ²
æĽ ľ
ui Ã§Ã£o
Ġjun io
åĪº æ¿Ģ
çĸ« æĥħ
èĥ ĥ
âĢĻ ad
ĠRod r
çĽ¸ äºĴ
ĠA G
line ar
Ġjud icial
Ġo der
åĲ¯ åĬ¨
Ġla p
ult ure
Ġk egiatan
r age
Ġar ter
Ġenfr ent
er i
Ġspec ify
g as
J ob
d ocs
Ġor th
ÃŃ veis
Ø§Ø¹ Ø©
om me
u Ã©
in ating
ĠAgr icult
ãĥķ ãĥ¬
Ùĥ ÙĬ
Ġthere of
æĢ» æĺ¯
Ġweek end
Ġh ide
æĪĲ éķ¿
Ġpurch ased
È Ļ
S ION
Ġen ero
Ġsuper fic
ogr am
ï¼Į èĩª
ĠPr ime
ĠGr aph
n ah
Ġbow l
Ġv ista
ĠV ector
Ġaplic aciÃ³n
ãģ© ãĤĵãģª
Ġc urr
Ġeffect iveness
ĠR ome
Ġadministr ative
Ġro ots
b ur
Ġ} }Ċ
åįģ äºĮ
Ġcomun idad
Ġloss es
Ġdepo is
ĠC el
Ġë° °
+ Ċ
åĬ¨ ä½ľ
Ġprodu ces
Ġindic ating
ĠB ang
Ġcomb ine
Ġstom ach
ab stract
Ġt ension
Ġst ir
Ġaffect s
âĢ¦âĢ¦ âĢ¦âĢ¦
Ġb rit
cre ated
ĠV en
Ġmet ros
Ġap parent
ĠF ather
åĩ ¤
åº «
Ġíķ ¨
ĠprÃ³ pri
ace ut
é«ĺ éĢŁ
ÑģÐº Ð¾Ð³Ð¾
ĠBer lin
Ġ ÑĪ
è¿ Ł
ĠI F
Ġse es
Ġpartic le
Ġflow ers
æ» ´
È Ľ
ribut ed
{ X
ãģª ãĤĬ
ang i
Ġgouvern ement
ĠR ule
< string
ãĥį ãĤ¹
é«ĺ åº¦
Ġtra va
rol og
ĠPortug al
R o
åĬ¨ çī©
Ġprofes ional
\ ,
ĠB uy
Ġal c
çĽ¸ åĲĮ
å®ļ æľŁ
Ġin ches
Ġwer en
all es
Ġm ood
Ġg amb
{ r
Ġê²½ ìļ°
Ġfac ed
ĠI de
èµ· ãģĵ
ãģ«ãģ¤ãģĦãģ¦ ãģ¯
Ġ å¤§
æĭ Ķ
ens o
ç¶ Ļ
Ġcal m
å· ¡
ĠF inal
que ue
Ġsel ama
ĠS ep
ä» ĵ
el i
t arget
æĸĻ çĲĨ
ĠPro te
Ġfrag ment
Ġw aves
Ġpo verty
. List
ĠÃ©qu ip
æ¡ ĥ
å·¥ èµĦ
Ġsignific ance
16 9
ield s
Ġemerg ing
Ġfin ite
D D
è° ĭ
Ġsk ip
Ġbus c
ãģı ãĤĮ
æµ Ļ
Ġat rav
ĠN orm
ç»ĵ å©ļ
ĠC BD
Pro file
á º
ĠC redit
Ġpe er
eg en
ĠCont in
åł Ĩ
Ġê° Ļ
Ø¬ Ø©
F ind
æİ² è¼ī
Ġsur t
Dis play
å¥½ åĥı
Ġst rain
if ique
ĠØª Ø±
´ ĳ
ĠØ£ÙĨ Ùĩ
Ġn ome
Ġcult iv
ãĤ± ãĤ¢
Ġsequ ences
çĨ Ĭ
Ġse cre
ĠE du
ä¸Ń åįİ
ĠíĬ ¹
Ġl ux
æ¡Ī ä»¶
Ġend ing
åºĶ çļĦ
Ġpas se
ĠAg ency
L Y
ĠS pr
-b y
åıį æĺł
ĠMinister io
åĲĳ ä¸Ĭ
] .Ċ
Ġc err
et ween
Ġbi om
ĠE T
Ġforg ot
Ġact or
Ñĥ Ð´
Ð° Ð»
ĠK enn
Ġre pository
20 6
Ġeuro pe
ef ully
Ġspat ial
ĠOh io
ĠPr int
14 7
add ress
Param eters
ĠT ok
Ùĥ Øª
if ting
å¹¿ ä¸ľ
Ġt all
. se
æīĢæľī çļĦ
Ġad el
ci pe
ê° Ĳ
in ate
ĠF ab
ec u
est re
Ġle af
Ġfor ever
éŃħ åĬĽ
ĠÐ Ĺ
çĬ¶ åĨµ
åŁº äºİ
Ġst uck
Ġmar c
ĠE mer
Ġrel ating
. un
am ar
p ower
Ġan Ã¡l
- (
ĠW rite
. (
Ġt ags
åĩºæĿ¥ çļĦ
ever al
# [
( user
h ire
Pr int
å¸Ĥ æ°ĳ
Ġwin ning
view s
Ġconsegu ir
st at
Ġstr ange
.in fo
Ġaccount ing
Ġelig ible
Ġf ais
ãģĻãĤĭãģĵãģ¨ ãģ§
ic ana
Ġm sg
Ġam er
in ite
Ġp m
16 7
ĠW alk
ent ation
ram ient
ent ication
æľī æīĢ
Ġmiss ed
æĮĩ æłĩ
15 7
ĠAll ah
Ġpro long
Ġhy brid
çĶ³ ãģĹ
Ġcontract s
} .Ċ
. con
Ġst ations
é£Ł çī©
ãģŀ ãĤĮ
Ġing in
ĠB ased
Ġdis ag
N G
äºº éĥ½
Ġpersonal ity
åıĬ åħ¶
Ġter rible
ĠrÃ©g ion
ãģıãģª ãĤĭ
ĠØ§ÙĦ Ùī
ĠÅ ĵ
Ġprevent ion
ãģĭãĤĤãģĹãĤĮ ãģ¾ãģĽãĤĵ
sc ale
C OM
ĠÐº Ð¾Ð¼
au v
ul ating
Ġemot ion
Ġpro l
ãģ« ãģĭ
Ġsh r
P erm
Ġclar o
Ġdici embre
Ġcollect ive
Ġidentify ing
ij n
ãģĵãģ¨ ãģ§ãģĻ
åį Ĵ
cre dit
Ø® ÙĦ
p atch
ĠReg ister
Result s
ĠØ£ Ø³
Ġket ika
ib a
d n
Ġref uge
ĠK h
èĲ¥ éĶĢ
Call back
ĠIS BN
Ġtal ks
umn ya
ĠCh air
.w rite
ĠR ey
Ġsatisf action
æĻĤ ãģ®
Ġwe ird
cd ots
14 9
d as
# if
ãĤ»ãĥ³ ãĤ¿ãĥ¼
ä½ĵ åĪ¶
Ġdecre ased
å°± è¦ģ
Ġsett lement
w ill
Ġdecl ared
I ter
Ġcre ar
ĠP ri
C ond
Ġb gcolor
ï¼ Ŀ
Ġfuck ing
ĠS her
ä¸Ģ çķª
Ġsus pect
æĺł çĶ»
çº ¹
Ġen l
Ġsoci edad
ï¼Į æŃ¤
ĠN ue
iz abeth
Ġn ac
Ġut ility
Ġvari as
ĠPro perty
éļ¾ ä»¥
Ġesper a
era Ã§Ã£o
Ġiniti atives
è¨ ª
ĠK n
Ġprojet o
Ġamb ient
te ch
- class
iment al
He alth
Ġconv in
Ġmejor ar
çĻº çĶŁ
æĭ ³
ãĤ± ãĥĥãĥĪ
hav ior
Ġw ird
ĠM ars
ãĢĤ ãĢĤ
et ah
RE E
ie ve
ĠV ersion
2 25
ĠK ep
Ø³ Ø©
L D
Ġher ramient
- an
ĠL ive
Ġfunction ality
Ġa str
ì§ ģ
Ġapp el
æĢİ æł·
. edu
åıĹ ãģĳ
Ã´ m
iss on
æī¿ æĭħ
èĪ Ĺ
ver ter
22 2
Ġsc an
ãģ« åĩº
ï¼Įåħ¶ å®ŀ
Ġg ear
çģ ½
bu ah
Ġeuro pÃ©
Ġj Ã³venes
Ġr ien
ï¼Į èĢģ
ĠAl tern
ĠP y
Ġcontr at
ĠH elp
ä¼ļ è®¡
ĠJack son
èµĦ æł¼
Ġfall s
g ua
Ġs Ã¡b
R ole
Ġprocess o
Ø§Ø °
Ġb ab
L P
Ġ ãģ®
Ġ}^{ [
Ġan ci
ĠĠĠĠĠĠĠĠĠĠĠĠĠĠĠĠĠĠĠĠĠĠĠĠĠĠĠĠĠĠĠĠ ĠĠĠĠĠĠĠ
Ġdire ctions
ä½į äºİ
ĠL ew
s ection
# endif
Ġdo i
Ñĥ ÑĢ
ĠM undial
Ġbe am
ãĤĴ çĽ®
Ġsearch ing
Ð¸ Ð·
Ġcomput ers
. ),
Ġdun ia
ĠCi udad
Ġpsych ological
ï¼ Ĩ
Ġres on
Ġdiam eter
èªŃ ãģ¿
ĠIn nov
ï¼Įä»İ èĢĮ
Ġcheck ing
Ġo cean
Ġpath s
Ġtr uck
ĠBarcel ona
Ġc res
" You
è¾ ²
op l
ĠCol lection
yl van
Ġho je
ĠA uth
å¤© ä¸ĭ
äº« åıĹ
Ã ¦
çĪ± æĥħ
Ch rist
ï¼Įåı¯ æĺ¯
ãģĿãģĨ ãģ§ãģĻ
' );ĊĊ
ĠW atch
Ġbo at
Ġcont amin
Ġex terior
Ġa port
util s
che z
ĠC up
IM E
ĠH ash
ĠÐº Ð¾Ð½
æĴ ĳ
æ¤ľ ç´¢
ab ling
) <
iz able
ãĥ¬ ãĥ³
Ð² ÐµÑĢ
Ã©ri ence
è§Ĥ çĤ¹
Ġëĭ ¨
éĥ Ń
ien es
O F
ĠdÃ© l
Ġeng aging
Ġover come
ĠS aturday
Ġatt itude
ov o
Eng ine
14 6
Ġal arm
Ġìŀ ħ
ĠRe act
Ġos c
ĠcÃ´t Ã©
Ġprint ed
ĠB es
import ant
ious ly
', '
ï¼Įè¿Ļ ç§į
Ã® t
-d imensional
s rc
Ġsynd rome
Ġin aug
æµ ´
Ġorganis ations
ä¸ ¸
Ġsu jet
Ġcomb ust
_f rom
inter face
bu ilder
é¦ ¬
ãģĹãģ¾ ãģĹãĤĩãģĨ
Ġemploy ers
ĠÃ© s
ato es
ê° ķ
un akan
Re port
ail ure
Ðµ Ð»
äºº å£«
Ġstr ings
ĠSte p
ä¾ Ĩ
ĠĠĠĠĠĠĠĠĠĠĠĠĠĠĠĠ ĠĠĠĠĠĠĠĠĠĠĠĠĠ
Ġreg iÃ³n
17 3
Ġnarr ative
int on
çļĦ æĸ¹å¼ı
ãĤĴ éĢļ
F ollow
Ġì° ¨
Ã©ri o
.C reate
Ġfe u
am o
ãĢĭ ãĢģãĢĬ
Ġpush ed
Ġub ic
}{ *}{
Ùģ Ø¹
ãģ¡ ãĤĩ
é¸ Ł
et erm
ÑĪ ÑĤ
Ġter us
åı Ķ
Ø± Ø¯
ĠPed ro
äºĪ ç´Ħ
ĠCh o
ÙħÙĬ Ø¹
ĠF air
ĠÙĦ Ùĩ
ãĥģãĤ§ ãĥĥãĤ¯
âĢľ ä½ł
åı ¹
Ġstre ets
IG HT
Ġdi per
ãĤ¸ ãĥ¥
ĠÙģ Ùī
Ġsept iembre
è¾ ī
Gener al
ĠØ§ÙĦØ¯ ÙĪÙĦ
- per
Ġ( @
ĠH arr
åĸ ·
å¾Ī å¤§
Ġque ue
Ġnut rition
am en
ĠMar ÃŃa
Ġecos ystem
? âĢĿĊ
th ere
Ġbast ante
od a
Ġbel um
åĸ Ĭ
ĠD own
ê» ĺ
è· ĥ
Ar ch
D id
Ġsem anas
Ġc iv
Ġ- >Ċ
ç«ĭ ãģ¡
ãĥ©ãĥ³ ãĤ¹
Ġ ich
Re ferences
ãĥķ ãĥ«
ãĢģ å°ı
ĠSp ain
Act ive
Ġprovin cia
ip o
Ġ" ,
åħ¬ å¼ı
ĠB ell
O DE
ĠAl f
Ġth inks
ent ed
ãĢģ èĩª
' A
gen es
Ġautom atic
Ġwrit es
Ġbroad cast
ãĤĵ ãģ©
/ R
Ġreve al
r ÃŃa
ker ja
ĠWith out
( context
ãĢĤ åĲĮæĹ¶
ek t
ĠGN U
th ur
ĠÑĤÐ° Ðº
Ġl unch
Ġlect ure
ĠHar ry
Ġput s
Ġph rase
lo or
Ġas oci
Ø¨ ÙĨ
ĠA rea
Ġc ient
ĠÃ© n
Ġk emb
ä¸Ģ äºº
Ġsuggest ions
ord an
ci um
å¥ĳ ç´Ħ
æī °
å°± èĥ½
Ġre actions
Ø¨ ØŃ
Ā e
Ġting gi
Ġunivers ities
ĠF el
ial es
) *
_T YPE
c idos
enn is
ta ient
è¶ĭ åĬ¿
Ġsh el
ãĤĦ ãĤĬ
umm y
g han
ort ed
Ġadequ ate
ç´ł è´¨
Ġnear by
Ġmening kat
Ï Ħ
è´ ¡
å¤ĸ åĽ½
ãĤ½ ãĥķãĥĪ
Ġmant ener
Ġre q
Ġacc iones
ë¦ °
. next
ĠN i
u ai
ç¥ Ń
- pl
Ġsatisf ied
Ġí İ
æ® ¿
-r adius
Ġrel i
Ġpar f
Ġp ihak
ãģ¾ ãĤĭ
Ġtext ure
éĥ½ æ²¡æľī
if iers
è¿ĩ çļĦ
Ġres et
le ments
flag icon
ĠM agn
Ġproduct ivity
Ġmor ph
u ang
K ind
Ġint ense
Ġd ign
ãĥĭ ãĥĥãĤ¯
Ġident ical
çĻ ¼
Ġtit re
ĠK ong
w rap
çĬ ¹
Ġinf ections
Ġmeng h
op her
ÙĦ Ø§Ùħ
Ġhe 'd
åĲį çļĦ
Ġinf ra
Ġse buah
èĤ ¿
F i
Ġwest ern
Ġf ails
2 12
çŀ¬ éĹ´
ĠM id
Pr ice
Ġfe cha
å¿ §
ä¸į æĥ³
ress e
Ø±Ø¨ ÙĬØ©
Ġfr ustr
ĠespaÃ± ol
ĠM ig
ĠL E
ĠA ge
ĠTrans port
ĠM ike
å¦ ĸ
Ġem pez
Ġrec all
ãĢĤ æľī
çī¹åĪ« æĺ¯
Ġconst raints
Ġent end
Ġent ities
Ġanswer ed
ĠIntern acional
ï¼Į å¤§å®¶
Ġche ese
Ġsens itivity
ĠO ption
åħ¬ éĩĮ
Not es
Ġclass ical
Ġcop ies
ĠB O
ill ion
en cer
ĠM arg
val uation
ÑģÑĤÐ² ÐµÐ½
ÙĦÙĬ Ùħ
Ġlabor atory
çŁ Ľ
Ġappar ently
O ct
W rite
çĦ ¼
Ġ ÃŃn
Map per
ÐµÐ½ ÑĤ
il ty
Ġbas es
Seg Ãºn
Ġaim ed
çī¹ å®ļ
ĠRet rieved
f i
ãĤī ãģļ
ãĢĤ è¦ģ
cul os
Ġcr imes
Ġconven ient
ĠH ence
Ġk ur
Ġter l
ĠE C
ãĤĪ ãģ³
åħĦ å¼Ł
P H
Ġk ernel
æĦı å¤ĸ
ĠÐºÐ° Ðº
Ġexerc ises
ãĤĴ ãĤĤ
ĠSci ent
æĴ ŀ
Ġmanufact urer
ãĤ¤ ãĥĪ
ï¼Į éļı
ch ester
ĠBar b
ï¼Į æĸ°
Ġload ed
is Ã©s
# define
ĠG ames
14 8
Ġpel os
Ġcr ÃŃt
ì² ĺ
ä¹Ł æ²¡
as ant
D TO
Ġscre ening
Ġfl ux
ä½ĵ çİ°
he ets
Ġd ial
ual es
Ð £
% ),
AR Y
ĠIn put
Ġpl ugin
ĠÐ¿ Ð¾Ñģ
Ġinput s
ĠF er
Ġtem as
ĠØ§ÙĦØ¹ ÙħÙĦ
Ġweek ly
Ġmas a
Ġn orte
st ack
Ġsurv ive
Ġbo ot
Ġed ad
C ette
ix a
çĬ¯ ç½ª
J SON
Ġdere cho
ĠPro p
form e
ib ration
and id
Ġt udo
åĳ½ ä»¤
Ġreput ation
Ġsmart phone
ag ner
ãĥ¢ãĥĩ ãĥ«
Ġlo ading
A u
; #
çµĮ åĸ¶
ĠM es
çī §
ft en
Ġ[ ]Ċ
d at
Ġ$ -
ĠÃºn ica
ĠrÃ© fÃ©r
ist oire
Ġsepar ated
ĠØ§ÙĦÙħ Ø¯
ĠS W
Ġor e
à§ ĩ
Ð¿ Ðµ
ĠfaÃ§ on
Ġtut orial
åĽŀ åĪ°
Ġfit ness
Ġb ukan
ĠØ§ÙĦØ ¢
H ost
LO G
/ F
Ġmin er
æĵ ¦
ĠM ember
Ġcompr ises
Ġas ks
éł ĥ
Ġdispon ibles
Ġd ic
ç½ĳ åıĭ
éĻ ¶
ĠdifÃŃ cil
è§Ħ åĪĻ
Ġar qu
/ k
å±ŀ æĢ§
ĠZe aland
ĠEnvironment al
In valid
ĠO K
n av
ĠB C
ĠDon 't
Ġr ay
u Ã§Ã£o
| US
ĠSm all
Ġoptim ization
Ġsan it
ä¹Ł åı¯ä»¥
Ġsat ell
s f
U K
Ġverd ad
ĠH ab
Ġrealiz ado
Ġisol ated
Ġown ership
Ġt ack
è¾ĵ åħ¥
Ġaqu i
f riend
z ero
ãģĬ å®¢æ§ĺ
Ġlog in
ĠX X
ans as
Ġa ver
Ġmist ake
Ġex empl
Ġseule ment
ĠM and
- con
ĠR O
abil itÃ©
ĠS ov
Ġda erah
-d ate
Ġpredict ed
Ġto oth
Ġinform ations
Ġdu as
Ġcomp ra
Ġsold iers
Ġpo is
èª °
Ġsc atter
ol ah
æĭħ å¿ĥ
èĤ º
Ġnov iembre
Ġse cur
foot not
{ %
Ġfr anc
Ġcu ent
n aire
Ġveget ables
åŃĲ ãģ©ãĤĤ
Ã¡ fico
ess ment
Ġsil ence
Ġheav ily
Ġit al
id el
() :
ç§ģ ãģ¯
ð Ŀ
ĠB ow
Ġple asure
Ġfol ks
( ()
Ġcre cimiento
Ġter d
plic ate
ä¸Ģ ä½į
ĠV ari
å» ī
ĠC es
ele ase
b ound
Ab stract
Ġc ukup
ÑĢ Ñı
y y
R T
Ġej erc
Ph i
Ġk Ã¶
ï¼Įåıª æľī
w t
ĠEconom ic
Ġres ume
Ġpl ac
æĥ³ æ³ķ
è¿ĩ äºĨ
ĠEx pert
ãĤīãĤĮ ãģ¾ãģĻ
Ġ iz
Ð°Ð½ Ð¾Ð²
(n ull
æĤ Ł
Ġcu est
N ames
Ġdig it
Ġind irect
åŃĲ ä¾Ľ
ĠM ol
ê² °
éĤ£ éĩĮ
ge x
Ġch ip
Ġpod cast
ung k
Ġdes per
ĠA th
." "
Ġinf l
è¡¨ æĺİ
-s cale
_ se
C ustom
èĥ½ æºĲ
( u
ÑĢÐ¸ Ñı
ï¼ ľ
ìķ ĺ
Ad apter
ä¼ģä¸ļ çļĦ
Ġdialog ue
/ N
æ¶ Ĥ
åľ¨ çº¿
ãģ«å¯¾ ãģĹãģ¦
Ġl oud
ëĶ Ķ
ĠP ad
Â ²
ograf ÃŃa
åķĨ åĬ¡
æį ·
Ġy o
ãģ¡ãĤĥ ãĤĵ
Ġmemb rane
Ð½Ð¾ Ðµ
uck y
Ġgent le
Ġl ung
Des de
Ø§Ùħ ÙĦ
2 11
r Ã©e
I con
è¿ĺ åľ¨
Ø® Øª
Ġapro xim
Ġinter active
Ġillustr ated
Ġg ained
on ne
Ġjul io
lik ely
ĠØ§ÙĦÙĦ Ùĩ
Ġproyect os
å°¤åħ¶ æĺ¯
Ġclos ing
Ġc od
Ðļ Ð°
ĠMich igan
il st
ĠD ios
æĢ» ç»ĵ
ãĥ¦ ãĥ¼ãĤ¶
çº ł
Ġde als
ìł Ģ
Ġnurs ing
Ġcompos ed
_E Q
arn os
Ð¼ Ñĥ
Ġtecn ologÃŃa
ĠW IT
Ġmanufact urers
re en
x sl
éĥ½ å¸Ĥ
Ġab ord
Com mon
å¤ļ ä¸ª
Ġì° ¸
ãĥĬ ãĥ«
Ġbro ke
ĠProfess ional
Ġext ens
ãģĺ ãĤģ
pe cially
Ġc ath
à¦¾ à¦
Ġsit io
ÃŃ da
st ore
Ġev ident
ãĥŃ ãĥ¼ãĥī
Ġì ¢
çµ ¶
umb ers
íĥ ľ
ĠNor thern
ä¿® æĶ¹
ĠR T
Ġj ard
ĠÐĿ Ð°
_n ode
es p
ä¸» é¢ĺ
el come
at ile
Ġarr est
Ġoper ational
ĠComput er
ë ¸
ill ance
Ġent ries
tern oon
et ric
åĮ» åŃ¦
ÙĨ Ø³
æ°ĳ ä¸»
Ġsurt out
Ø« ÙĬØ±
è®° å¾Ĺ
Ġmult ip
um at
ä½ Ĳ
av id
ĠAut o
ĠØ§ÙĦ Ø§Ø³Øª
ÙĤ Ø·
: `
ĠM ari
Ġpem erintah
Ġinf lation
" ))
ĠdiffÃ©r ents
Ġmul ai
æľī çĿĢ
ĠAd am
By tes
ouv elles
ĠBl og
Ġrest o
ator io
ĠResult s
âĶ ģ
Ġnot ion
* /
ĠF IG
è´¸ æĺĵ
ï¼Į æīĵ
n os
Ġd ado
ĠGr up
ly wood
Ġh aya
Ġexpand ed
3 30
Ġpack ages
Ġam Ã©ric
Ġad vers
Ġcert ification
Ġt amp
Ġcompl aint
ãĢĤ ä¸į
Ġenh anced
çĭ ł
own ed
Ðµ Ð·
ìĺ Ģ
Pl us
Ġal umin
éĢ ¼
ãĥ¼ ãģĮ
n as
ĠØº ÙĬØ±
Ġop position
Us ers
Ġmant en
ãģĨ ãģ¡
, y
Ġfacilit ate
Ã¡t icas
Ġtex to
Ġac us
n ie
v id
arch y
Ġc Ã©l
Ġapro ve
Ġoc as
Ġofre ce
ĠT a
Ġmet adata
apeut ic
O H
ag an
ot te
3 10
Ġa rom
h ort
Ġt ong
Ġevery where
Ì ģ
ail ing
åįı ä¼ļ
for ward
ç®Ĺ æĺ¯
arl os
Ġcur riculum
ãģ«ãģ¨ ãģ£ãģ¦
ĠC V
ĠF ed
ãģ¾ãģ¨ ãĤģ
ĠB ull
æ¸ ł
Ġcontr ad
ĠÃ¡ reas
ĠEn s
onym ous
| l
Ġd ass
æĸĻ éĩĳ
ific ado
Ġâ Ĩ
Ã©l ior
Ġinterview s
og o
ĠÙĥ Ø¨
ĠM B
Ġbelie fs
ĠdÃ© p
* /Ċ
ï¸ ı
ne cess
ãģľ ãģ²
Ġimplic ations
èİ· åıĸ
Ġrare ly
ÙĪ Ø©
om eter
Ġl uc
Ġm ener
Ġpre cios
ï¼Į åĲİ
Ġn ave
Ġcomp ute
Ġpres erv
Ġdisclos ure
ĠD ub
we ek
_ ref
Ġhab il
Ġpart en
Ġpes os
Ġbu en
Ġim plies
Ġdom ingo
Ġu pload
ĠGeorg ia
ĠColomb ia
Ġlog ger
ĠLe ad
åħļ åĳĺ
Or gan
Ġhom bre
Ġë ĺĲ
em ph
Ġmet rics
ĠF ord
Ġencour aged
ä¼ĺ åĮĸ
ãĤĵ ãģ§ãģĻ
Ġst ocks
çļĦ æĸ¹æ³ķ
Ġn esta
row th
Ġíķ Ļ
å¿ħè¦ģ ãģª
Ġentr ada
( z
contain s
æĶ¶ çĽĬ
ang a
Ġcra zy
ĠP il
äºĭ åĭĻ
an ia
å¹¿ å¤§
y ch
Ġtrat amiento
ĠSt atus
å®Ł çı¾
ogen ic
èį ¡
Gl obal
Ġ$ [
ĠCh ris
ÑĢÐ° Ð·
æĲ į
avig ation
ĠIns urance
_ back
ç±» ä¼¼
. a
åıĺ æĪĲ
Ġviol ent
å¤© çļĦ
Ġap ar
ĉĉĉĉ ĉĉĉĉ
èµ Ķ
ãĥªãĥ¼ ãĤº
Ġcons id
Ġsigu iente
ĠP P
Ġd ual
ÙĬ ÙĬÙĨ
{ Z
Ġval ores
Ġà¤ ¸
ĠBud d
0 11
Ġd Ã¨s
ing e
Ġfl ags
æĭ ĸ
( re
- height
new s
Ð¸ Ñģ
Ġgr ace
.s vg
Ġz ones
us ia
z os
o or
Ġhe ating
èĤ¡ ç¥¨
d am
ä¸Ī å¤«
ÑĨ Ð°
ro b
Ġpoly mer
ĠL ey
å¾Ī éļ¾
å´ İ
éģ µ
le an
ĠÐº Ð¾ÑĤÐ¾ÑĢ
ĠS N
ĠØª Øª
Ġíı ¬
ãĤ ©
C ell
ãĥ³ãĥ Ħ
out ube
F ree
ter iores
_ arg
Ġtrans parent
ãĥ¼ãĥ ģ
ast y
éģ Ĭ
Ġw aters
w i
ãĢĤ ä¸įè¿ĩ
ol t
Ġalg una
Tod ay
ãĤ¤ ãĥ¡ãĥ¼ãĤ¸
åį± éĻ©
Ġn ose
éĺŁ ä¼į
ĠL ittle
}} </
F il
Ġmeaning ful
ĠJ r
ell en
Ġsou thern
Ġhistor ic
äºº æķ°
Ġappoint ment
Ġneg ara
n ik
\ frac
Ġearn ed
å¤© çĦ¶
Ġim g
ann y
ĠÙĪ Ø³
Ġpes ar
Ġir rit
Ġk illing
ĠB Y
Ġreview ed
Ġ æľĪ
à¯į à®
ĠH op
ãĥª ãĥ³ãĤ¯
Ġf iction
H er
/ ?
{ b
Ġsepar ation
æĬĬ æı¡
") )Ċ
Ġcharacter istic
P al
aÃ± ana
ãĥ¡ãĥª ãĥĥãĥĪ
çĽ® ãģ®
Ġhydro gen
Ġaward ed
_ e
ĠIm port
' Ãł
m issions
Ġorient ation
ĠPhil ip
ãĥ¼ãĥ Ĭ
Ġwork place
ter min
æµ ©
Ġwor ship
ç¸ ¾
a an
Ġl ad
Ð½Ð¾ ÑģÑĤÐ¸
Ġent hus
Ġsome how
Ġd f
é£İ æł¼
Ġ ä¸į
åĪĨ ç±»
è¯´ äºĨ
ĠL or
åĲĮ æĦı
ĠN ob
= -
ĠAut om
Ġmed ios
Ùģ Øª
B as
conn ection
Ġvari ations
et ts
Ø§Ø¹ Ø¯
Ġcult ura
Ã Ģ
R ender
çĵ ľ
ier en
ĠØ§ÙĦØ£ Ø³
ĠW as
ak et
= $
Ġcual es
'] ,Ċ
ãĤ¹ ãĥ¡
ãĤŃ ãĥ¥
w ick
it ate
åľ° ä¸Ĭ
åı¬ å¼Ģ
èģĮ å·¥
Ġconf ort
.f rom
K S
Ġattract ive
Ġapr end
ãĤ³ ãĥ¼ãĤ¹
äºĨä¸Ģ ä¸ĭ
Ġauthent ic
Ġw ake
40 4
iv idad
Ġkn ock
æ» ļ
çŃī ãģ®
ĠM oh
Ġhar vest
Ġb oss
ĠtÃ© rm
ĠIn depend
ĠTh ough
Ġpromot ing
w art
em n
aw at
Ġdoll ar
çĽ Ī
Ġo v
Ġbound aries
ä½ı äºĨ
Ġì§Ģ ëĤľ
æĽ´å¤ļ çļĦ
æł Ħ
åĽ½ æ°ĳ
Ġlang sung
Ġdise Ã±o
å±± ä¸ľ
çĩ ¥
ãģĺ ãĤĥ
æĭ ¡
ir an
ĠSing ap
op ed
ãģ¨ ãģĻãĤĭ
ç© ´
ĠT re
Ġtestim ony
Ġcent r
ĠDes pite
Ġflex ibility
Ġaccompl ish
Ġd ific
struct or
) ï¼Į
Ġcalcul ation
ÑģÐº Ð¾
( G
em ps
ix els
ç¹ Ķ
-d r
Ġadmin ister
è¾ĵ åĩº
unic ÃŃp
Ġcon cluded
ÂłÂł Âł
ĠComm and
Ġc yl
Ġsig ue
æĢİä¹Ī åĬŀ
Ġtu vo
éĤ Ģ
ond s
Ġacquis ition
Ġal pha
ĠmÃ©d ico
ĠN ig
Ġent ering
Ġgener ating
Ġp ace
ĠG iven
é£ Ľ
ðŁ ĺ
Ġover view
Ġpromot ion
ag ent
ĠT ree
ĠMin istry
Ġl eng
. update
Su ccess
Gr id
å¤§ åŀĭ
è®º åĿĽ
Ġre de
ä¸Ń ãģ®
Ġafford able
åĭī å¼·
ri um
ãģ¨æĢĿ ãģĨ
Ġf ract
Ġplata forma
ĠO il
ãģĳ ãģ©
Ġv ivo
è½ ¨
Ã¼ ck
am ination
ï¼Į çĶ±äºİ
Ġmet ric
Ã¡m ara
erg ie
åħħ æ»¡
åĬŀ çĲĨ
åįĬ å¹´
åĳ¼ åĲ¸
pre c
Ġc if
çļĦ åŁºç¡Ģ
Ġí ļĮ
Ġmod es
è¿Ĳ èĲ¥
ï¼ī ãĤĴ
çľĭ æĿ¥
èĤ ł
ra Ã§Ã£o
è£ħ ç½®
Ġst er
Ġim pr
å¹´ é¾Ħ
ë¡ ł
( get
Ġp uesto
ä»¤ äºº
< p
ylvan ia
åī ĩ
Ø² Ø©
Ġem it
h igh
Ã©t ique
ĠíĶ Ħ
' on
Â ¡
Ġaud it
Ġel ected
Ġgener ic
Ã¢ m
d l
å¤ª éĺ³
ĠÃ© x
' )ĊĊ
å·¥ èīº
æĭ Ĩ
ĠM obile
ÃŃ do
Ġ ä¸º
ç© ·
Ġsw im
v ard
En um
ĠS us
æ¶ī åıĬ
s ome
ï¼ģ ï¼ģ
Ġg i
Ġtheoret ical
qu et
æĸ° ãģĹãģĦ
Ġinform aÃ§Ãµes
Ġcu anto
( key
ĠmÃ¡xim o
ãĤ¤ ãĥī
åľ¨ è¿Ļ
ĠStr uct
âĢĶ and
Ġf en
æĹ¢ çĦ¶
× Ļ
Ġserv ers
Ã¨ tres
ç¯ ®
Ġ Ä
av ier
ubs cribe
ĠEx change
Ġmendapat kan
è¡¨ æĥħ
å¾Ī å¿«
ĠØ¹ ÙħÙĦ
Ġm l
ë ĳĲ
Ã§ u
Ġê± ´
å¦Ĥ ä»Ĭ
äºĴ èģĶç½ĳ
åĮ ¹
è´¢ åĬ¡
leg es
all as
Ġad mitted
ess ages
cle ar
) [
V ariable
Ġp ipe
uel lement
Ġb ird
Ġc rop
ãĥŀ ãĥ³
æį ķ
Ġelement os
Ø§ ÙĬØ©
or ry
Ġsim ples
. $
. __
Ġla pt
x is
ST R
æ¡ Ĩ
ĠOx ford
æīį æĺ¯
Ã¡n dez
om ent
ãģ§ ãģĬ
æĹł è®º
ĠAz ure
Ġd io
Ġcan nab
åĪĨ å¸ĥ
æ¶Ī è²»
Ġalg uns
5 50
. string
Ġout l
Ġz um
ph ones
Ġmin eral
âĢ ²
Ð½Ð¸ Ð¹
ĠíĻ ľ
ëĵ ł
yt ics
p as
æĺ¯ åĽłä¸º
Re al
ãģ¯ ãģĵãģ¡ãĤī
çļĦ æīĭ
Ġju in
çĭ ¼
b led
Ġtrabaj adores
ĠC PU
eq ref
ä¸ ¢
æŀ Ŀ
ĠØ§ÙĦØ¹ Ø§ÙĦÙħ
Ġmole cules
ang ka
Ġsel uruh
ul an
Ġbl anc
ãĤĴåıĹ ãģĳ
Ġinvest ing
IC Ag
å®ŀ è¡Į
Ġwire less
_ int
r ad
ĠPart icip
b ell
i ors
Ã³ ria
amp u
Ġex ch
Ġsc ul
çº µ
Ġwe igh
Ġord in
{{ \
Ġ' ./
Ġì¶ ľ
ch as
' :Ċ
{ f
ë³ µ
Ġep idem
ãĤĪ ãģĦ
Ġaccom pan
Ġnuest ras
qu ot
ĠRem ove
ê· ¼
Ġnames pace
H C
æķĻ å®¤
ais se
Ġminist re
éł ĺ
Ġrout es
Ġpar king
ãģĺ ãģ¦
ĠÃ©p oca
Ġbas ket
Ġsuper vis
ĠLe on
çľĭ è§ģ
Ġcoordin ates
Ġur g
Ġredu ces
D ownload
En abled
rec ord
Ġr app
Ġmembers hip
Ġh erm
Ġintellect ual
æİ¥ çĿĢ
Ġent ertain
ï¼Į åĮħæĭ¬
gl obal
= [
Ġoff re
Ġcon ect
ĠP aper
åŃ¦ ç§ĳ
ne o
åĪĨ ä¸º
ust ain
Ġb ars
çĽ Ĺ
è²· ãģĦ
ement ara
æ»¡ æĦı
å¹¿ æ³Ľ
æľĪ ä»½
âĢĻ am
ëĭ¤ ëĬĶ
Ġc arg
( function
Ġf etch
T erm
æĪ¿ åŃĲ
éĤ ¦
Ġsumm ar
P ool
Ġoblig ations
ä¸į å®ī
ä¸¤ äºº
Ã©r Ã©
éª Ĥ
Ġsm oke
U CT
Ġest ilo
ĠEn c
Ġim pres
ul is
red ict
éĽ ĳ
ä¸Ģ æĿ¡
Ġinici ativa
Ġprop io
Ġentre ga
D ist
}} {\
çļĦ ä¸»è¦ģ
Ġ èĢĮ
Ġvari ed
ãĤĴ ãģĹãģ¦
ps on
Ġgot ten
bl ue
å¼º è°ĥ
ĠRep Ãºblica
ãģĦãģ¦ ãģĦãĤĭ
ãģª ãģĹ
B P
Ġcompat ible
ĠE q
çĽ´ åĪ°
Ġsu fic
Ġpoll ution
ãģ«ãģĬ ãģĳãĤĭ
ens emble
è½ ´
Ġvier nes
Ġcamp aÃ±a
åĿĲ åľ¨
Ġha ut
ãĤī ãģ®
iv re
ĠÐ³ Ð¾Ð´Ð¸
ĠØª Ø¬
Ġcontribut ed
åĪĨ äº«
æĪĲ éķ·
en za
ĠTrib unal
M ake
Ð¸ Ð½
Ġcharacter ized
Ġtra il
ĠM i
Ġimag en
Ġanc est
Ġst upid
è¿Ĳ çĶ¨
Ġview ed
Ġplas ma
ä¸Ĭ åİ»
Ġb ord
æĪ¿ åľ°äº§
Ġc ig
ĠP AR
S a
form ed
Ġr ab
Ġt ired
ĠP erm
ien nent
ìĸ µ
Ġleg end
Ġ% }Ċ
================ ============
Ð½Ð¸ ÑĪÑĤ
ĠIn deed
ĠT aylor
Ġdesenv olv
us ername
Ġwor ried
ç§° ä¸º
' ]Ċ
Ġaccept able
ãĥį ãĥ«
âĢĻ util
å®Į äºĨ
Ġk ali
ãĢĤ å¯¹
Ġpar ce
* ,
Ġphys ician
Ġmu estra
ĠÐ¿ÑĢÐµ Ð´
Ġvisit ing
ĠSt ill
ãĥķãĤ© ãĥ¼ãĥł
ãĤĴ åĪ©çĶ¨
Ġanal yst
Ġprepar ing
çħ§ çīĩ
r ons
Ġnerv ous
ay ed
Ġactiv ely
Ġhol iday
éĢĤ åºĶ
ĠB ra
elf are
Ġmeas uring
ĠT itle
; &
quir y
/w iki
ĠHe art
çŁ¥ èŃĺ
ĠÙĬ ÙĪÙħ
Opt ional
ĠG il
Ġnor thern
pro v
F E
Ġhab its
it aciÃ³n
Ġw ider
ĠMan uel
ut ar
Ġel es
Ġarg ent
ëĭ ¬
C ert
ĠH an
Ġpregn ant
âĢĻ entre
ĠseÃ±al Ã³
Ġden omin
åĪĨ éħį
Ġw arga
ĠrÃ© du
ĠMach ine
ĠN C
Ġcur ios
çĤ¹ å¤´
ĠØ¹ÙĨ Ø¯
L oc
Ã³n ica
ĠRe ading
Ð¾Ð´ Ñĥ
åģļ çļĦ
éĶ ¦
st ru
ï¼Į ä¸»è¦ģ
ass ion
Ġper ception
ãģĵ ãĤĵãģª
Ġprec ision
ä¸Ģ å®¶
èİ ī
ĠØ§ÙĦÙħ Ø´
èī¯ å¥½çļĦ
Ġqu atre
Ġprint ing
ãĢģ æ°´
å¤ī åĮĸ
ãģª ãģĬ
' ],
Ä Ł
Ġtrack s
Ġfl avor
Ġes f
Ġcap s
set t
Ġshe 's
Ġo ught
ê² ł
ĠI O
æĸ ¤
h ang
h ot
çĪ± çļĦ
Ġheav en
Ġc ock
is ode
ĠC ro
í Ĩł
ë¦ ½
" `Ċ
Ġn el
ĠD rug
ĠEx p
Ġworks hop
ï¼Į æľĢåĲİ
ĠCo oper
or ous
Ġstri ke
æĺ¯ æĪĳ
ä¸ĭ éĿ¢
Ġdestroy ed
Ñħ Ð°
æ²Ł éĢļ
å¹¼ åĦ¿
ver b
Ã į
Ġê³ ¼
Ġem pr
ĠTr ade
AR E
Ġp Ã©r
Ġno va
Kategor ie
Ġg ay
Ġ{ '
åĿ ¡
ry ption
Ġnavig ation
ĠRe present
åįĩ çº§
Ġten ÃŃa
c ence
Ġhas il
ĠCru z
_s ub
FA ULT
Ġmar que
Ġinf ect
çĹħ æ¯Ĵ
æĪĺ æĸĹ
ĠVenez uela
ib e
ox y
åħ¨ ãģ¦
pr ice
Ġimm igr
Ġref lex
æ¬§ æ´²
Û Į
Ġmater ia
åĴ ±
Net work
æĶ¯ æīķ
est roy
éĤ ª
Ġtransfer red
ä½ľ ãĤĬ
èĲ §
Ø¸ Ø§Ùħ
åĪĩ ãĤĬ
æıı è¿°
ic ias
åŁ ĭ
ĠInd igenous
Ġanim ation
Ġat end
Ð¼ Ð¾
ere z
çļĦ çĶŁæ´»
ç³ Ĭ
AN CE
Ġset elah
b ow
Ġth esis
Ġnature l
Ġan ger
" }
Ġt we
åį µ
ÑģÑĤ Ð²Ð¾
æĲľ ç´¢
æĸ° åŀĭ
Ġreturn ing
ï¼Į ä¸ī
éī Ħ
ĠÐ¸ Ð½
å¥ ī
D ie
æ°Ĺ æĮģãģ¡
ĠMar c
æĽ ¹
åħ± æľī
_ init
çķ ħ
ãĤĤãģ® ãģ§ãģĻ
man ager
. parse
Ġíķ Ħ
em atic
í ļ
çĲ ´
ĠJ ersey
ĠDie go
ĠK er
Ġëĭ ¹
S R
ian za
is ons
ä¸į åľ¨
ĠGrand e
ĠK on
Im port
Ġc erc
ĠPro du
ut er
åĽŀ å®¶
Ġcooper ation
Ġn ouvelles
u ccess
_t able
ĠQue en
åħ¬ å®ī
up a
is ir
Ġsuffer ed
ĠØª Ø´
ĠØŃ ØªÙī
cont roller
ĠĠĠĠĠĠĠĠĠĠĠĠĠĠĠĠ ĠĠĠĠĠĠĠĠĠĠ
Ġac ute
ØŃ ÙĬ
ØŃ ÙĪ
L ambda
ëĵ¤ ìĿĺ
Ġdis abled
Ġb unch
Ġet ern
Ġsched uled
g ado
ãĥ ¶
ç©º æ°Ķ
ãĤ« ãĥ«
ĠAm ong
aceut ical
Ġimp uls
qu i
Ġcar act
Cl oud
Ġrais ing
Ġp enting
Ġconcentr ations
íķ© ëĭĪëĭ¤
- lo
Ġíķ ł
eb ook
00 6
ãĥ¬ ãĥ³ãĤ¸
ay ment
æ¾ ³
å¸ °
ĠG L
Ġelse where
Ġthreat s
Ġel les
P op
åĲĦ åľ°
ug as
ãĤĤ ãģĤãĤĭ
ãĢĭ çļĦ
Ġsignific a
ik es
Ġcont est
ĠIt em
Ġje une
Ġgrat uit
he ast
Ġad ecu
å¨ ±ä¹Ĳ
Ġre fr
ens ing
ĠM essage
Ġth Ã©
Ġqu ote
æĬķ ç¨¿
åĪĨ åŃĲ
Ġemp ower
. end
Ġenerg ÃŃa
ä¿¡ çĶ¨
h ome
æī© å¤§
è² ¬
Ġ ip
Ġmem or
å± ¤
_ result
ĠInt roduction
ĠC art
Ġrem pl
ĠH P
é» Ĵ
æĦ Ī
Ġun expected
ĠC P
J ava
éĢļ ãĤĬ
Ġsch ema
æĶ¾ å¼ĥ
x ml
éģ¸ æīĭ
ot or
Ġres ident
ä½ľ æĪĲ
Ġ" Ċ
Ġphys ics
ir ma
æģ ¨
has il
Ġllev ar
Gener ic
Åĵ ur
åĽ½ çļĦ
Res earch
Ġë Ĭ
om ial
conn ected
vious ly
ĠÙħ Ø¤
èĸ ª
_st art
. <
ëŁ ī
Ġel las
Ġof ere
Ġpue blo
Ġcol lections
Ð± Ð¾
/l ib
ãģ« ãģĶ
m atch
6 50
è¿½ åĬł
ĠC asa
æįŁ å¤±
Ġpip eline
ä¸į èµ·
ato ire
Ġcre w
âĢĿ )
ÙĬ Ø´
u um
Ġradi us
ĠÃ© ch
br ero
ant ed
çĶŁ æĪĲ
æıĲ ç¤º
Ġhop ing
40 1
Øµ ÙĪÙĦ
Ġmu erte
ĠH TTP
An al
Ð° Ðº
Ġtrabaj ar
Ġgu est
.p df
Ġcrow d
Ð» Ñİ
Ġg all
_ CH
Ġsom mes
è° ±
ĠÙĪ Ùģ
ãĥĨãĤ£ ãĥ³ãĤ°
Ġinclus ive
Ñĥ ÑĤ
åĬŀåħ¬ å®¤
âĻ ª
çĴ ĥ
ĠSh ort
çĽ¸ æīĭ
Ġkemb ali
à¤ µ
ĠØ± Ø¦ÙĬØ³
Ġperform ances
æİ Ľ
Ð½Ð¸ÑĪÑĤ Ð²Ð¾
Ġp eg
ĠF all
_ u
V E
FF FF
} );ĊĊ
cl ick
Ġm aÃ±ana
Ġpert ama
ãģ« ãģı
Ġjan vier
Ġreject ed
ÑģÑĤÐ° Ð²
æ®µ æĹ¶éĹ´
ĠĠĠĠĠĠĠĠĠĠĠĠĠĠĠĠ ĠĠĠĠĠĠĠĠĠĠĠĠ
æĪ Ĵ
ï¼Įä¸į è¦ģ
Ġthick ness
Ġa kt
å¼ķ å¯¼
ï¼Į éĥ½æĺ¯
ĠSim ple
ĠØ§ÙĦÙħ ÙĤ
) }Ċ
ĠComm un
Ġout standing
èµ ĭ
Ġw al
Ġseg uro
ĠPol ice
Ï ģ
G O
_d ict
B T
ĠpelÃŃcul a
hus us
Ġh eter
Ġlif etime
Ġdivers os
æĮĩ æķ°
Ġp id
ĠU lt
ØŃØ¯ Ø©
èĤ¡ ä¸ľ
Ġb ills
Ġlog ical
if ice
ĠPak istan
s ylvania
Ġdis appoint
æľ¬ æĿ¥
Ġperm itted
Ġmist akes
Ġp ounds
Ġc ow
Ġquot id
æŁ¥ è¯¢
èĩ Ń
æľĢ å¥½
g it
ut t
Ġcompr ising
N N
Ġde jar
Ġalong side
å¹¶ ä¸įæĺ¯
Ġcon tex
éĿŀå¸¸ ãģ«
00 7
ach us
æĹ ¨
Ġmo i
Met adata
Ġpred iction
Ġsect ors
Ġme als
H ub
åĳ¨ åĽ´
Ġhosp itals
r ou
an im
Sh ould
Ġanal og
è½¦ è¾Ĩ
Ġm old
or ical
ĠV iol
ĠsÃ¡b ado
Ġne u
íĮ Į
ĠColor ado
T HE
æĺ¯ æľī
) ãĢģ
Ġv ou
I H
ĠPer haps
Ġprov ince
ãĤ± ãĥ¼ãĤ¹
ash board
Ġin ev
ĠrÃ© pond
Ġmes ure
Ġlik es
Ġcu is
åĪ° çļĦ
as cript
Ġnos so
çŁĽ çĽ¾
Ġal k
ĠEd ition
ĠB ot
ĠO cc
ãĢĤ (
ç«ĭ åį³
ĠØ§ÙĦÙħ Øµ
Ġtel ephone
Ġdig unakan
ce u
Ġmay ores
çĩ ķ
D O
0 12
Ġbox es
Ġgest iÃ³n
Ġt ÃŃtulo
Ġa up
Ġdut ies
Ñĸ Ñı
ĠOffic er
st an
Ġac ids
Ð¾Ð» Ð¸
éĢ£ çµ¡
Ġimplement ing
Ġoff ices
%%%% %%%%
Euro pe
Ġsimult aneously
ĠØ¨ Ùĩ
. Ex
Ø§Øµ Ø©
Ġpeng g
åŀ Ĥ
ç¢ į
f ill
ir able
ĠS ist
us ement
ĠG ro
By te
Ġpep per
ĠG onz
ç¾İ çļĦ
Ġvalid ate
Ġsel e
ï¼Į å¤©
Ġdam ages
å¥³ çĶŁ
Ġprec ise
om bre
Ġloc ales
ãĢĤ ãģĹãģĭãģĹ
. fr
çĤ Ĵ
Ġcl othing
end ent
ĠM s
ãĥ¼ãĥ Ģ
Ã© fic
Ġsyn chron
Ġmedic ations
Ġwh is
uk u
æ±¡ æŁĵ
ä¸¤ ç§į
ĠChamp ions
ĠØ¨ Ø¹Ø¶
Ġatt ended
Ġl unes
Ġj et
D own
Ġte as
Ġlight ing
en al
Ġs oph
20 8
Ġsem aine
al so
ãĢģ å½ĵ
ĠV it
ç» ĺ
n ÃŃ
Ġpued a
ĠE astern
íķ ¨
Ġent ra
ester ol
Ġeth nic
D ay
Ġqu eda
roll ers
ä¸Ģ èĩ´
t own
æĲ ¬
Ġpon er
Ġemph asis
Ġcut s
\ rangle
åĪ ł
è²» çĶ¨
Ġpr ayer
Ġk esehatan
ĠØ£Ùĥ Ø«Ø±
Ġcham ber
ãĢĤ å¤§
ãĤ°ãĥ« ãĥ¼ãĥĹ
Ġdiscrim ination
eng ine
ac cept
.t ype
Ġship ping
Ġab ilities
Ġde put
Ø§Ø¦ ÙĬ
amil ton
}$ -
ĠCult ure
Ð½Ñĭ Ð¼
Ġbo is
Ġwe ights
ĠV o
ÙĬ Ø¬
ur re
ow ed
ãģ¨ ãģĨ
Ġr Ã¨
Ġmir ror
æĮ ¡
- known
æ° Ľ
Ø¹ ÙĪØ¯
ĠEst o
Ġexplic a
Ġat te
ĠM u
S ummary
Ġprincipal mente
Ġb ibli
m n
Ġform ing
el en
Ġmotiv ation
Ġrough ly
- I
çĤ Ń
Ġìł Ģ
âĶģ âĶģ
Ġpet ite
ett i
Ġapro b
Ġmind s
ogr ap
Ġf ake
çĹħ éĻ¢
Ġaf ternoon
Ñģ Ñģ
v et
ãĤĪãģĨ ãģ§ãģĻ
ãĢģ ãģĤ
å° į
æĶ¹ éĢł
ĠN Ã£o
B E
ĠÃ Ĺ
Ġens emble
} :
Ġgener ations
ĠO t
ol er
Ġpart es
Ġweap on
c ule
æ¥Ń èĢħ
åºĹ èĪĹ
Ġn y
Ġdifferent ly
rie ve
Ġsm oking
Ġdeb ug
Ġch lor
Ġint im
Ġtet api
Ġj adi
ĠAm Ã©rica
ellig ence
å®Ŀ å®Ŀ
us iÃ³n
Ġcome Ã§
oth ers
è®º æĸĩ
Ã©ri que
ov ers
åľ° çĲĥ
ãģĵãģ¨ ãģ«
è¢ Ń
vert ure
ĠA h
ãĢĤ æį®
Ġbreath ing
Ġno che
åıĬ ãģ³
éĥ½ è¦ģ
Ġem pre
éŁ³ æ¥½
Ã¨ ve
B it
ç¶ Ń
åįļ å£«
ĠP ast
Ġpre gunt
è³ª åķı
Øª Ø¬
ï¼Į æıĲé«ĺ
é¼ ł
ĠIm pro
Ġbreak s
ĠH ub
Ġassoci ations
Ad min
ĠH ind
Ġning Ãºn
åĨħ ãģ®
â ī
åı¯èĥ½ ä¼ļ
èĢ Ģ
åĮħ åĲ«
Ġaut our
Ġarg ued
aim ana
ë³ Ħ
Ġdesc ub
ä¸Ĭ è¿°
Ġd reams
Ġpract ition
ãĥĹãĥŃ ãĤ°ãĥ©
ĠJew s
ĠL LC
çī© çĲĨ
âĢĻ Ãªtre
Ġd orm
ä»¶ äºĭ
{ I
C r
ut y
Ø¯ÙĬØ¯ Ø©
ri ends
Ġamb os
æİ¨ å¹¿
env iron
Ġinvent ory
Ð° Ð»ÑĮ
Ġpass er
ĠStud io
ĠCamb ridge
Ġbranch es
.print ln
Ġdevelop ments
ĠArch itect
Ã© is
Ġsept embre
ĠAp pe
ess es
om orph
ä¿ Ĭ
Ġcapt ured
ë£ ¨
prim ary
ĠColumb ia
ĠPer formance
ä¿Ŀ èŃ·
r ange
ç¨ Ģ
èħ Ķ
Ġso y
in th
Ġeng ines
ĠTr ab
d os
ĠØª Ø³
_ res
Ġstrugg ling
Ġmed ian
Ġappoint ed
ĠSt ory
ach ine
Ġd rain
Ġexclus ive
ï¼Į çŃī
H i
Ġm ild
- Ãªtre
Ġsup plied
Ġb ene
çł Ĥ
Ġposs ÃŃvel
en ario
is cher
Ġdec isiÃ³n
ĠA us
çĪ ½
. of
Ġqu it
Ġc ic
Ġinvol vement
ed ule
Ġsubstant ially
apt ers
Ġprim ero
© ëĭĪëĭ¤
] ;
Ġing l
/ {
ĠSal v
Ġb ay
imest amp
0 20
æľº åĻ¨
Ġperson n
Ġprim eros
Ġbet a
Ġsek itar
Ġmo on
S erv
çīĪ æľ¬
Ġindu ced
D oc
d c
å¹´ éĸĵ
G G
Ġuncertain ty
âĢĻ ils
Ġinvestig ated
;" |
con tre
æ¯ ģ
ĠR eb
Hist ory
ãģ« åĲĳ
qu ant
$ .Ċ
Ñ ļ
ĠG as
ãĢģ æľī
å¸ ħ
éģĵ å¾·
c ida
olog ique
In v
Ġalg Ãºn
less ly
Pl ay
de g
Que ue
ĠFin ance
Ġjurisd iction
abil idade
Ġadopt ion
ãĥĪ ãĥ«
Ġinher it
ĠH un
Ġremov ing
Ġprodu k
Ġcirc ular
w ich
grad uate
ile y
Ġcaf Ã©
æ¢ ¯
Ġagricult ural
èĭ± éĽĦ
Ġwis dom
ãĥ¼ãĥĨ ãĤ£
Ġsh oes
ĠSte el
ba ik
in ner
} ),
Ġscul pt
ãģ«ãģª ãĤĬãģ¾ãģĹãģŁ
S igma
ĠAp ply
ĠIll inois
ĠN os
Ġrais on
Ġb ub
ï¼ļ ĊĊ
b c
Ġh ire
und i
Ġap artment
ĠH aving
ĠWil son
Ø£ Ø³
Ġg iant
Ġgu ilty
å°İ åħ¥
ĠH um
ĠÃ¡ gua
æļ ®
el n
Ġhab l
å¼º çļĦ
ĠEl izabeth
.... ..
a ver
Ġv isto
ĠRepublic an
ĠIn cre
aw ay
ãĥ¬ ãĥĥ
Ġbare ly
çĻº å£²
S pace
ä¸Ģ å£°
Ġcar te
| H
bl ack
opt ional
Ġconvers ations
ĠRec ord
Ġp aling
éĹ®é¢ĺ çļĦ
Ð Ĺ
Ķ ëĭ¤
Ġcam ino
Ġsn ap
ĠÑģÑĤ Ð°
ĠN at
orig inal
ãĤ¹ãĤ¿ ãĥĥ
( ex
B er
In formation
èĢĮ å·²
Art icle
ĠB an
Ġan gg
Ġshoot ing
æŁ Ħ
ĠS ales
ĠEs c
im ismo
ĠW i
Ġdifficult ies
ĠS ize
Ġvis its
Ġv ue
ap ing
Ġìļ ´
ĠD or
ĠQ uality
Ġar c
) ?
ok s
ĠAs h
Ġarrang ement
è¨Ń è¨Ī
éĥ ģ
S yn
Fin ally
M ac
Ġunus ual
ÙĬ Ø¨
èĪª ç©º
ãĢĭ Ċ
ard ing
å¤ļ ç§į
Ġt ons
Ġb erg
èĽĭ çĻ½
ĠB R
Ġult imate
Ġconvert ed
çĶ· åŃĲ
Ġassum ption
ä¸į åĨį
ä¼¤ å®³
æĿĥ åĪ©
pe at
æĦı èŃĺ
è¾ °
ĠAf ghan
Ġsup pose
è¾ º
Ġb ind
.l ang
Ġen em
åį³ åı¯
ĠGr ad
= >
Ġsubstr ate
Ø§Ø¦ ÙĬØ©
Ġthe ories
Ġwhat 's
ï¼Į åģļ
éģĭ åĸ¶
è¯´ æĺ¯
æħ ķ
Ġf ase
Ġplural ity
Ġmem ories
æ» ĭ
itar ia
Ġ âĢĻ
Ġimpact o
Ġphys ically
v s
op ol
p ool
ick ing
Ġbag ian
ow e
Ġl ets
. client
Ġcert ified
æĪĲ çĨŁ
ĠK at
N T
æĻ ĭ
Ġab er
M ember
Ġel der
Ġb old
ams ung
/ a
Ġbel le
âĢĻ y
ĉ else
âĸĪâĸĪ âĸĪâĸĪ
_ en
Ġnov embre
ĠT ar
è®© ä½ł
Ġfil ing
Ġdom ic
Y S
4 80
Ġse ul
ãģĦ ãģĭ
R oot
Ġh og
Ġintegr ity
Ġaff irm
P ref
åº¦ çļĦ
ĠJ ob
ä¹ Ķ
Ġh ung
Ð· Ñĭ
pr ises
Ġpharm ac
it arian
è¿Ĳ è¾ĵ
äºº åľ¨
Be an
Ġfun ny
Ġrev is
ES P
. Test
Ġwant ing
app ly
Ġdis cret
er ie
ĠÙħ Øµ
çĨŁ æĤī
å§ ľ
æĪ¿ éĹ´
ãĥĢ ãĤ¦ãĥ³
h ard
ãģķ ãĤĴ
usaha an
Reg ister
è§£ æ±º
ĠÐ² Ðµ
Ġsh adow
n m
/ test
Ġret our
Ġenrich ed
Ġg rip
Ġh es
ĠFor est
Ġmen cion
ĠR NA
ĠM ort
Ġrequ iring
.L og
ĠBel g
Ġconstru cciÃ³n
Ġtra uma
Ġpar ad
Ø ¢
Ġag ora
ro v
d rop
Ġexpl or
ul d
Ġequ ilib
è§£ èª¬
ĠR ad
è° Ĳ
Ġso b
Ġnos sa
Ġ ÙĬÙĨ
Ġe ux
le arn
Ġmanus cript
Ġinv ited
. Un
Ġguer ra
ĠO ri
à ¹
C reat
åįı è°ĥ
ĠA SS
{eq n
/ )
Ġl emb
.j unit
âĢĻ elle
ĠSh are
ãĥĵãĤ¸ ãĥįãĤ¹
- al
' int
Ġ/ **
Ġtransport e
ãģĬ ãĤĪãģ³
ãĤī ãģĭ
âĺ Ĩ
Ġtim ing
] }$
ĠF L
åįĹ äº¬
Ġy esterday
åĩº ãģĻ
ĠA CT
ut ers
ç¤¾ ãģ®
iel le
. X
Ġgener ator
Ġ} ^{\
ãģĹ ãģªãģĮãĤī
t emplate
Ġop ens
( res
en ar
on ed
çº ¤
M ov
br as
Ġfamil ias
éĢ »
Ġun em
Ġexp ed
` .
æľįåĬ¡ åĻ¨
Ġconnect ing
Ġcor n
AS H
Ġcoupl ed
ĠCl ient
achus etts
åĩĨ ç¡®
Ġdivers as
Ġviol ation
ĠCo ast
Ġcl iente
Ð½Ð¸ Ðº
å±ħ çĦ¶
Ġan ch
av al
ĠLa ur
çī© æµģ
æĹ¥ åŃĲ
Ġcr ist
Ġs enc
å¤§ å°ı
éģ ł
Ġant ara
èĬ ¯
å° ¸
Ġre cre
b ury
Ġbond s
Ġdes k
= left
{ |
ff f
Ðµ Ð²
Ġdon ner
ac cur
M er
ãĢģ æľĢ
çļĦ åİŁåĽł
Ġcl imb
ãĤªãĥ³ ãĥ©ãĤ¤ãĥ³
Ġform aciÃ³n
Ã³n ico
( I
éľ ¸
åıĳ åĬ¨
Ġ\ ,
rupt ed
ĠY ang
Ø§Ø¦ ÙĦ
Ġch ol
Ġtom orrow
u ction
Ġsens ors
Ġes os
Ð± Ð°
çĽĳ ç®¡
Ġh u
Ġlo i
J an
åĩ¦ çĲĨ
Ġmud ah
Str uct
Ġcons omm
Ġhac en
çĻ» è®°
eg u
Ø¶ Ø¹
.g ithub
O wn
Ġrecept or
ev in
ĠSh op
Edit or
Ġin con
æ² ¢
Bl ack
å¤§ äºº
umin ate
Ġfr anch
åŃ¦ ç¿Ĵ
are m
on ing
Ġpurs ue
ĠR ol
w d
ĠD omin
_ and
Ġbott le
Ġentreprene urs
Ġein em
Ġo ven
Ġobt ener
èħ º
Ġsampl ing
Ġident ifier
r Ã©s
Ã¡t icos
æŃ¦ åĻ¨
å± Ī
rim on
ĉ const
(t ype
fer red
W riter
Ġdest ruction
ÙĪ Ø§ÙĨ
Ġincred ibly
-b lock
Ġpart ition
Ġf mt
put e
Ñĺ Ð°
ãĤ¹ ãĥĶ
AM P
EL L
Ġv as
uss ian
èĢĥ ãģĪãĤĭ
we i
Ġpar s
åħ· å¤ĩ
Ġconsult ation
Ġess ays
ĠCon c
ãĤĦ ãģ£ãģ¦
_ out
åĲ¦ åĪĻ
ri os
Ġp iano
Ġentrepr ises
ĠOrgan ization
Ġspe aker
Ġb arr
Ġvari ant
éĵ ľ
osp el
ĠN az
Ġ å¯¹
Ð½Ð¾ ÑģÑĤÑĮ
Ġb ass
Ġpres encia
at io
æĢĿ ç»´
pe ed
att ribute
S U
ĠÐ ķ
é© »
| E
Ġcos m
Ġl anÃ§
Ġp ago
Ġout ro
Ġ å¹¶
äº ı
Ġbr ut
Ġvol umes
ãģªãģı ãģª
ĠPub lish
st ep
Ġelimin ate
Ã£ os
ãĥģ ãĥ¼ãĥł
Ġal red
Ġrest ore
Ġgr ounds
( input
Ġspecial ist
Ġein en
Ġburn ing
ãĤ³ ãĥ³ãĥ
Ġrece ives
ÃŃ amos
AR S
è¯Ħ ä¼°
ï¼Į å·²ç»ı
UN T
wh o
A h
P od
adi um
Ġsu e
Ġterrit ory
Ġmet er
am ina
ä¸į å¤ļ
å¯ ©
ĠÃ¤ r
éģ¸ æĬŀ
ä¸Ĭ ä¸ĭ
Ġlet ting
æł ı
çŃĸ çķ¥
Ġcy t
ĠE lement
Ġne ural
éĻĦ è¿ĳ
Ġdern iÃ¨re
æµĻ æ±Ł
Ġconsist ently
Ġej ecut
-c alled
Ġass ault
ain an
Ġatrav Ã©s
Ġcorre ction
Ġl ider
ath ers
ĠD I
ĠBe ing
Ġpass es
Ġthem es
Do es
Ġa ura
app end
ãĥ¼ ãģ¯
ĠC osta
) ),
ÑĤÑĮ ÑģÑı
Ġed iting
rit is
. load
30 1
Ø± Ø§Ø±
Ġ æĹ¥
{fig ure
Ġal gebra
ĠA bs
Ġrestaur ants
Ġall erg
æ¦ ľ
ĠPl aintiff
ĠØ¨Ø´ ÙĥÙĦ
lo om
ĠÙħ ÙĦÙĬ
S al
Ġre gression
ãģ« ãģĻãĤĭ
Ġam ino
Ġtr imest
. Id
Ġsl ip
Ã¡ veis
Ġdev ant
ÃŃ fico
Ġbehavi ors
ab lo
Ġsolic it
" We
ers istence
ĠE arly
ust ral
I LE
ier te
çµĮ æ¸Ī
Ġpack et
åį ĵ
ĠM uch
ãģ® ãĤĪãģĨãģ«
ç¿ ¼
ound ing
Ġsol ely
pt ions
Ġign ored
Ġdiscipl ine
Ġfeature d
ĠGu id
ĠC ustomer
Ġmem ang
ï¼Į æ¯Ķ
èĢģ æĿ¿
ìĻ ¸
ĠM ajor
æħ İ
åħģ è®¸
Ġt Ãªm
Ġë ¹
è¨ İ
ĠCom pl
ï¼Į å¾Īå¤ļ
ãĢĤ éĤ£
ĠCl ark
oun id
Øµ Ùģ
/ H
ĠIr ish
æĢ ĸ
U ID
éļ¾ éģĵ
Ġes pect
ä¸ĩ äºº
ish op
i ago
Ġcap ability
Ġvoy age
b d
C Ã³mo
Ġtrans f
/st ep
ĠrÃ© v
Ġwonder ing
ãĥ¼ãĥ ķ
åħ¶ å®ĥ
ate way
å®ŀéĻħ ä¸Ĭ
M ais
ÃŃ cia
am atan
_ params
Ġweak ness
ãģĻ ãģİ
Ġt Ãªte
å¼ Ĭ
Ø§Ø¶ ÙĬ
ä» °
ys ical
è´Łè´£ äºº
ë° Ķ
çļĦ åīį
ãĥ¼ãĥ ĳ
åĳ Ĩ
ĠConstit ution
Ġexperien cing
Ġassess ed
/ >
Ġport al
ĠIndust ry
Ð» Ñĸ
ãĤ¹ãĤ¿ãĥĥ ãĥķ
Ġin equ
) ->
åıĸ å¼ķ
\ m
Par ent
è®° å¿Ĩ
èĬ ¸
B ER
. error
ang ular
ä½ľ ä¸ļ
Ñĭ Ðµ
ak y
ĠD ES
Ġutil ize
Ġassist ant
çĶŁ çĶ£
st a
_ on
ĠPract ice
ag ic
èĴ ¸
amp ing
pre fix
P ass
Ø· ÙĤØ©
ab ul
ä¸Ģ ç·Ĵ
Ġsus cept
ĠD B
the y
Ġ( [
æĢ§ ãĤĴ
Ġgrat u
Ġíķľ êµŃ
ĠdiffÃ©r entes
å²Ĺ ä½į
Ġmemb antu
å¹ ½
Ġvis ite
Ġseg ments
ãĢģ ä½ķ
Ġìĺ ¬
ĠHot el
Ġexp ense
Cl ose
b us
cul ate
Ġread only
Ãº a
Ġgo bern
- Z
åĲĦ é¡¹
ç¤¾ä¼ļ ä¸»ä¹ī
Ġconse cut
ĠNot es
Ġincred ible
AP P
Ġaj ud
st ra
Ġint ake
æĢ§ æł¼
ĠFr ont
Ġprecis ely
ĠIS O
ĠBo olean
ict ure
Ġinspir ation
æĪ »
ãĤ³ãĥŃ ãĥĬ
Ġs ulf
Ġf illing
Ġsh apes
ĠvÃŃ ct
Ġfil ters
em in
_ eq
Ġrel ate
Ġfl av
ĠdÃ©couv rir
Ġtip os
est ruct
Ġm ungkin
Ġw il
Ġcont rolling
Ġag ed
ĠF ROM
ä¹Ł å°±
ĠRel ations
Ġ& =
ãĢģ ãĤ«
Ġal cal
} ]
Ġdemand a
t oken
ach ment
Ġinter Ã©s
ĠCom par
Ġarr anged
Ġlo yal
Ġprofes ionales
çľ¼ åīį
ĠÙĬ ØŃ
_t oken
ĠV in
-f amily
Ġg ains
ï¼Į è¿ŀ
å¼Ģ äºĨ
Â ´
j es
Ġn erve
å¤ ¹
Ġres il
ĠÙĬ Ø¬
ãĥĭ ãĤ¢
ëª ©
Ġcount s
èĩª ä¸»
w ik
ĠNam un
ĠB ureau
Ġcent uries
Ġbul k
ĠíĮ Į
ï¼Į æ¯ķç«Ł
Ġvers iÃ³n
ĠF R
em per
Ġconten ido
ĠPenn sylvania
å¥¹ ä»¬
ĠAs ÃŃ
Ġstake holders
ip eline
ĠAg ent
æĴ ĥ
N os
âĢĻ ent
çªģ åĩº
ëł ¹
è¯ķ éªĮ
éĹ® éģĵ
ĠÑģ Ð²
Ġs our
Ġam igos
Ġexplic Ã³
ut or
Ġandroid x
G ER
Ġpl at
æ³ Ĭ
ï¼Į éľĢè¦ģ
Ġref lection
Ġmac ro
ĠMig uel
âĢĻ A
Ġincor rect
ç½Ĺ æĸ¯
ra is
Ġreal mente
Ġfe brero
æĿ Ń
ç¥ ¥
Ġìļ Ķ
F urther
Ñĭ Ñħ
ĠÐ½ Ð¸
è» į
Ġign or
Ġre const
ĠE M
ãĢį ãģ«
ãĤĴ åıĸãĤĬ
ĠVis ual
ĠDav is
Ġdel ight
Ġfor te
Ġy oga
éģĭ åĭķ
Ġfem me
ë² Ħ
ĠCont inue
Ġin clusion
Ġref used
Ġì ½Ķ
æĦŁ è°¢
ĠP s
Ġcal ories
ãģ© ãģĵ
Ġflow s
23 7
et ter
ãģ¡ãĤĩ ãģ£ãģ¨
Ġa cept
Ġor ch
Ġg rain
Ġe q
Ġav anz
ĠTe ch
Ġdepos it
ĠE j
ay ah
Ġf oster
' ap
åĩºçīĪ ç¤¾
ina ire
ï¼Į åĲĮ
T I
ĠS cript
éģ º
ĠT ai
Ġp df
00 8
Ġprod utos
ĠNe ed
Ġ\ [
ĠD R
st ers
Ġneces idad
ç§ģ ãģŁãģ¡
ĠW at
ĠAdd ress
ch ild
ãĥĸãĥ© ãĥ³ãĥī
æĿ Ĩ
å°± åĥı
Ġme g
ÑĤ Ð¾Ð¼
ĠUk raine
ç³»ç»Ł çļĦ
ĠPh arm
ãģĦ ãģ¾ãģĽãĤĵ
Ġcy ber
Ġc ake
èĲ¥ åħ»
ä¼ł æĴŃ
Ġg em
Ġmoder ate
ĠE V
ï¼Į æĿİ
æģ °
æĬ¥ åĲį
åĦ Ħ
Ġinter ventions
Ġcarr era
ä¸į åı¯èĥ½
Ġv ic
ç¡ ķ
Ø¨ Ø§Ø±
åħ¬ è·¯
è°¢ è°¢
Ġcaracter ÃŃsticas
G F
L R
ĠÃ ¶
O UT
ãĤ¤ãĥ³ ãĤ¿ãĥ¼ãĥ
C opyright
ãģĹãģ¦ãģĦ ãģı
Ø®Ø± Ùī
Ġfor um
è§Ĵ èī²
å®ļ çļĦ
Ġpush ing
ãĤ· ãĥªãĥ¼ãĤº
Ġsubs id
Ġmic rosc
Ġtreat ing
Ġpos ibilidad
> ,Ċ
- trans
iov ascular
æ© ĭ
Ġinflu enced
Ġc Ã¡
ĠBe ach
æŁ¥ çľĭ
ĠH E
íĥ Ŀ
Ġread s
ãģĹ ãĤĪãģĨ
ĠD aily
Ġ[ -
Ġdon ne
Ã³ pez
ph an
riz ona
ĠB erg
ä¸ĵ éĹ¨
Ġc oding
Ġg ut
Ġart ÃŃculo
ãĥŀ ãĥ¼
á ĥ
âĢľ It
d ist
k appa
Ġinform e
æµ ¦
ĠB ush
- one
ĠReg ist
æĻĤ æľŁ
Ġac res
Ġp ouv
çİ© å®¶
Ġste am
Ġcan cell
ĠOn t
ä»ĺ ãģį
Ġdr ama
åħ¬ å¸ĥ
Ġcap it
ĠØ¯ ÙĪÙĦ
ãģ® åł´åĲĪ
ĠcrÃ© er
Ġl ymph
Ġdise Ã±
olog i
ĠÂ» .Ċ
ĠC ole
ĠìĹ Ń
Ġrev ol
uh kan
çĶŁ ãģį
and roid
j en
Ġc ited
act ual
============================ ==
Ġdel iber
çİ¯ ä¿Ŀ
ĠU I
rip ciÃ³n
ul umi
Ġdich o
Ġh arga
ivid ade
çļĦæĥħåĨµ ä¸ĭ
ĠUn fortunately
ÙĦ ÙĬØ©
M atrix
Ġpublic ations
ĠÑģ Ñĥ
çĪ¸ çĪ¸
å½» åºķ
å ¬
åģľ æŃ¢
æĴ® å½±
Ġrespons ibilities
Ġpossibil ities
Ġhand ler
enn es
å¥½ å¥½
Ġf oss
åĪ« çļĦ
Ġre ar
ĠD og
ãģĵãģ¨ãģĮ ãģ§ãģįãģ¾ãģĻ
] .ĊĊ
ida e
M ich
Ġoportun idad
th rows
ãģłãģĳãģ§ ãģªãģı
ĠN ight
our t
Ġ" $
Ġ ÑĺÐµ
Ġtempor al
ĠÙĪ Ùĥ
ĠÙĪ ØŃ
2 15
Ġb ike
ĠÙĪ Ø¹
Ad v
: hover
Ġinject ion
col lect
çĤ ®
è©¦ é¨ĵ
Ġen de
ill on
Ġpued an
ous se
enn y
ĠRec ords
Ø§ÙĦ Ø¨
æĺ Ń
Ġun likely
Ġdi j
St op
ç»¿ èī²
_ cl
èĤ ª
L INE
âĳ ¢
å¤± è´¥
| p
å¤ ķ
Ġprof iles
ĠØ§ÙĦØ ¶
ï½ ¥
ãĥ¼ãĥĭ ãĥ³ãĤ°
amm ar
æĭĽ èģĺ
Ġdisp atch
ĠÑĩ Ð°
Ġresp uesta
= '''
ä¸ĭ åįĪ
Ġlibr aries
Ġdet er
Ġpromin ent
ï¼Į å¸ĮæľĽ
Ġvac un
Ġpar ser
): ĊĊ
Ġdef ines
Ġadj acent
ãģ¨ãĤĤ ãģ«
Ġfe at
Ġg ym
ak o
Ġelect ions
OD O
Ġhop es
t ant
ãģĹ ãĤĥ
o ins
t w
ä»İ äºĭ
- ,
Ġres idential
ãģŁ ãĤī
å¤§ éĥ¨åĪĨ
Ġprop ia
_ array
ãĥķãĤ¡ ãĤ¤ãĥ«
ĠK ent
Ġb aking
ĠEd ward
Trans form
ãģ¨ãģĹãģ¦ ãģ¯
Ġter rain
-m aking
Ġpe au
ç² ĺ
å§ĭ ç»Ī
p read
ä¸į å¤Ł
Ġp ixel
æ³¨ æĸĩ
ĠSa Ãºde
çµ µ
P OS
Ġsal ary
c up
ag ine
ric ts
Ġch op
an h
{ V
ĠIn form
ĠC I
Ġagre ements
ãģ®ãģ§ãģ¯ ãģªãģĦ
Ġdis aster
Ġem ails
èĬ ³
Ġgr ands
ĠÃ©x ito
id encia
ĠQ ual
ĠpolÃŃt ico
Ġlib eral
å¾ª çİ¯
Ġdes con
a ft
f c
Ø§Ø¯ ÙĬ
Ġrel aÃ§Ã£o
-g ener
ä¾Ŀ æį®
Ġreflect ed
T ab
æľŁ çļĦ
è§£ æŀĲ
Ġmort ality
çłĶ åıĳ
Ġpro ses
èģ ´
P DF
Ġnos s
pl ier
åŃ¦çĶŁ çļĦ
èĦĤ èĤª
]] <
Ġrec ruit
ish es
ä¸Ń åŃ¦
Y ear
Â ½
ï¼Į åīį
Ġdes af
ï¼Ł ä½ł
in an
è®¿ éĹ®
el ve
· ¨
ĠÙĪ Ø¥
ĠChrist ians
Ġac ciÃ³n
ĠF oot
ĠCh all
çĸ ¯
ĠG reg
âĢ ³
Ġ ï¼Į
/ in
Ġan gry
. Context
ĠhistÃ³ ria
å´ ©
requ ency
ĠV ers
ï¼Į åºĶ
ĠIn i
se y
æĽ´ æĺ¯
Ġhapp iness
Ġsk illed
Ġy eah
ĠD Ã©
Ġser Ã¡n
ä¼° è®¡
ãģ» ãģ¨
ri Ã³
Ġdispl ays
æıĲ æ¡Ī
çī ¢
å ļ
Ġc ursor
ĠC os
err ors
çİ°åľ¨ çļĦ
ãĢģ èĩªåĪĨ
Ġex emplo
å¤§ãģį ãģı
Ġnombre uses
ĠBro ad
Ġv om
æĢ§ åĴĮ
ç»Ļ äºĪ
Sup port
Ġexpress ions
Ġes crib
Ġses uai
Ùĩ Ø©
Ġacqu ire
B el
-Un is
Ġutil ized
æıĲ åīį
ç¢ ³
rem os
Ġed iciÃ³n
ä¸Ĭ éĿ¢
av ÃŃa
å®Į æķ´
Ġfurn iture
éĽ» åŃĲ
20 7
Ġsize of
åľ¨ äºİ
ĠAl g
æľ¬ äºº
Ġsou ha
Ġsustain ability
ĠØ£ÙĬ Ø¶
Ġens uite
Ġcar rier
ä¸Ģ åº¦
ç¬¬ ä¸Ģä¸ª
Ġê¹ Ģ
ĠP in
iv ia
âĢĻ ass
Ġbe ach
H L
åģļ äºĨ
ãĤīãĤĮ ãģ¦
Ġtr anqu
z ym
Ġdesign er
ĠClin ical
Ġdesign ated
k ar
duc ation
Ġ}ĊĊ Ċ
Quest ion
Ġesf uer
eb ab
Ġ >Ċ
Ġsp ark
% ãĢĤ
Ġrestrict ed
ou x
ĠM C
æĤ ł
ii i
Pro v
Ġre pos
Ġhac iendo
Ġdist urb
( j
ĠÙĪ ÙħÙĨ
aw ah
id ikan
Ġv iene
i Ãªncia
ĠE E
æµģ ç¨ĭ
ä»¥ä¸Ĭ ãģ®
Ġdest e
}, \
äºĭ ãģĮ
å·ŀ å¸Ĥ
Ġdis so
íĭ °
Ã³ st
Ġper pet
Ġloc ally
s ort
_t rain
Ġret ro
é¸ £
ĠC orn
ÙĦ ÙĤ
Ġprof its
= https
Ġtro ops
ä¼ļ åĵ¡
4 20
ĠG arc
cess ion
Ġcoordin ate
ful ness
Ġact ors
text bf
Ġ uk
èĪ °
æĮĩ å°İ
Ġsurg ical
i ament
Ġpag ar
Ġqui ere
Ġv ont
äºĨ èµ·æĿ¥
Ġpour rait
èĵ Ħ
Ġcl ip
Direct ory
ul te
ç¾İ ä¸½
Sel ector
Ġvez es
D M
ãĢģ åĲĦ
f ire
ĠR ose
de velop
æ©Ł éĸ¢
" ;
Ġposs ession
Ġë³ Ģ
Ġr iv
Ġprogram mes
Ġnewsp aper
ĠreprÃ©s ent
el ing
Ġun idades
RE AD
ãģ¿ ãģŁãģĦ
Ùĥ Ø¯
under line
Ġstead y
åĬ¨ æĢģ
Fe ature
id x
éĩį åºĨ
2 24
Ġcal endar
Ġad verse
Ob j
Ġoblig ation
Ð¾Ð³ Ð¸
Ġincorpor ated
============================== ]
Ġhypoth esis
çĥ Ĥ
Ġ[ ==============================]
Ġcr ise
Ġpl azo
ĠvÃ© rit
ĠT ah
un i
. remove
Ġju ice
çĬ ¬
Ġh int
æİ¢ ç´¢
F inal
Ġagricult ure
V ideo
ãĥª ãĤ¹ãĥĪ
Ġestad ounid
ĠSim on
Ġp oc
v y
Ġà¤ ª
Ã©t ico
f ree
Ġtr ouve
ĠpÃºblic os
ĠìĤ¬ ëŀĮ
Lear n
il idad
ĠM iller
Ġ: )
Ġsci ences
Ġh oles
Ġsab e
è³ĩ æł¼
ĠdÃ© b
ãģ¿ ãģ«
Ġdiagn osed
Ġk or
in ery
åĢ ĳ
Ġf ounder
ĠK ind
( response
Ġco at
m ay
ĈĈĈĈ ĈĈĈĈ
uy e
éħ ·
om al
Ġ ÑĨ
Ġmagn itude
ĠSt one
path y
å¼· ãģĦ
Ġann oy
ï¼Į ä¸Ķ
ãĥī ãĥ©
Ġtrans cript
d elete
ãĤī ãģĹãģĦ
.h as
é©¬ ä¸Ĭ
Ġauthor ized
Ġsatisf y
Ġbank ing
at est
Ġcom ien
ĠÃª tes
é¢ľ èī²
ĠØª Øµ
Ġcompr ar
N OT
ì ½Ķ
ĠQu ant
ë¥ ĺ
ĠT an
Un ivers
Ġco in
ç«ĭ ãģ¦
ãģķãģĽãģ¦ ãģĦãģŁãģł
ĠH ttp
é į
çī µ
ĠB ag
Ġn ic
Ã³ lic
åľ¨ è¿ĻéĩĮ
Ġre plied
ĠbÃ©n Ã©fic
è¡ °
Ġtext s
ãĤī ãģĽ
w itch
ç¥ŀ ç»ı
æħ °
i ological
-qu ality
Ġcour age
Ġdef ect
ibil itÃ©
A E
ãĥĸ ãĥ¬
Ġlog ging
own er
" :Ċ
ä¸Ģå®ļ çļĦ
Ġpres um
ĠL ie
Ġform as
s ign
Ġ! ==
èĬĤ çĽ®
Ġconf used
vel y
ĠJ a
Ġesp ac
Ġwe 'll
D ialog
emb ros
ĠInter est
éĤ£ ç§į
åĩł å¹´
Ġsuggest ing
ĠP i
Ġmod ification
è´¡ çĮ®
ur d
Ø®Ø¯ Ø§Ùħ
ĠAs k
_h and
++ ;Ċ
N ormal
å¼ķ çĶ¨
æĤ Ķ
ĠN orte
ãĢħ ãģ®
he iro
Ġd ens
? I
and ra
Ġesc uch
ç»Ħ åĲĪ
Ġinn oc
è¸ ª
è½» æĿ¾
ap ers
Ġmodel ing
id ity
ar in
P UT
- min
Ġrequ is
uns igned
Ġpl acement
æľĢ ä½³
Ġdis charge
Ġpre fix
ãģ¾ãģļ ãģ¯
çķª åı·
iv ement
Ġa pt
æŁ ľ
_ min
Ġcoun cil
Ġhard ly
uk i
- form
å¾· åĽ½
ĠAlex ander
Ġth roat
Ġprotect ing
ï¼Į åħĪ
ens ure
Ñĩ ÐµÐ½
å¼º åĮĸ
an 's
ë° °
Ġbul an
Ġinflamm ation
Ġdir i
T ambiÃ©n
ì ¼
Ġlic ensed
ĠJud ge
ator ia
Ġres pet
Ġso ir
ç¼ ´
ãģĭãĤī ãģªãģĦ
ï¼Į æĢİä¹Ī
æĮ ĸ
ãģ£ãģ¦ ãģĹãģ¾
ç½ ¢
ĠÙĩ ÙĨØ§
pr iv
ĠÙĪ ÙĨ
ĠsiÃ¨ cle
ĠsÃ© lection
ĠpolÃŃt icas
Ġexcess ive
Ġ ik
Ġì Ī
Ġíķľ ëĭ¤
on der
è¿Ľ æŃ¥
ï¼ī ãģ¯
end ra
Ġì§ ģ
Ġchemical s
é©¾ é©¶
ett ers
ãĥ¡ ãĥ©
Ġse orang
Ġëĵ ¤
åĽ½ å¤ĸ
Ġf im
Ġest ruct
ĠF ox
Ġlug ares
ĠCor p
ãĢĤ ä»ĸä»¬
æĽ °
Ġsing ular
Ġevery body
éŃ ı
ãĤ· ãĤ§
V R
Ġr anging
ĠâĶ Ĥ
ĠF amil
ll a
ur idad
ot imes
éĴ »
æľĢ ä½İ
ĠB E
ĠK ir
ï¼Į æŃ£
Ġfun ciÃ³n
Ġíĸ ī
Ġayud ar
ab i
Ø± Ø§Øª
ĠC M
Ġroad s
param eters
ĠAd vis
th rough
Ġpl ante
ab els
ï¼Įä½ł ä»¬
èĦ¸ ä¸Ĭ
Ġparticip aciÃ³n
let on
ien ces
col l
# Ċ
Ġpr atique
. You
T ake
ĠR oute
us r
Ġ ĉ
ÃŃ os
Ġ_ ,
. }Ċ
è£ ķ
{ v
Ġpul se
5 10
Ġus ername
ĠH old
Ġprefer ably
o ce
- items
èľ ľ
ãĤ¯ ãĥ«
Ġconf usion
æ¶Ī å¤±
est o
Ġestr ateg
Ġgrad ually
ĠF C
ï¼Į ä¸ºäºĨ
Ġmoment um
Ġm eth
Ġc ement
D b
Ġcop per
om ing
ĠAl t
J S
å¦ Ĩ
éĥ½ èĥ½
Ġ$\ $
Ġstream ing
Pl an
Ġdos es
Ġp it
Ġbas eline
æĺ¾ å¾Ĺ
ĠÐ³ Ð¾Ð´Ð°
Ġma upun
j ang
Ġautom ated
unt u
å¸Ĥåľº çļĦ
ĠÃ© taient
Ġl ying
Ġmas uk
Ġcool ing
ĠO cean
ï¼ ĭ
Ġconsist ing
ick er
ĠIndust rial
d ad
Ġlab our
f lex
Ġdiv ert
Ġgr inding
Ġpar al
ÙĤÙĬ ÙĤ
_T R
b ac
Ġmoment os
ĠUS D
Ġcy cles
Ġdec k
éĿ¢ ä¸´
AN S
ĠBas ic
Ġ' ,
æľ µ
å§ »
Ġm os
ĠprÃ© v
Ġimport ancia
è§Ĥ ä¼Ĺ
lich en
ãĤ¤ ãĥ¤
ĠS n
ĠTh om
W ord
ĠSu ccess
å¤§ äºĭ
ĠD M
åĵģ è´¨
Ġm Ã©l
| n
Ġeth ical
æ¶ µ
w ed
ĠSov iet
çĶ¨ æĦı
w al
ãĥ¡ãĥª ãĤ«
el ho
en ue
Ġm ouv
ĠÙĪ ÙĦ
Ġ ãĢĬ
at on
ĠD ouble
' ag
Ġreg iÃ£o
çī¹ åĪ¥
Ġhom bres
ä½ ©
uc ion
Ġindepend ence
ä¸Ń å°ı
ide z
æ£ Ĵ
Ġsp oken
ĠL oss
æ· ĺ
Ġaltern atives
Ġplan es
éĩĳ é¡į
ĠtÃ©cn ica
ĠD as
tab l
T el
ĠS olution
ĠD oc
p el
Ġel if
w id
ĉ break
æ¥Ń çķĮ
Ġor ange
Un ited
ãģĮ è¦ĭ
Ġch ron
Ġinv it
Ø±Ùĥ Ø²
Ø§Ø³ Ø©
ĠØ¹ Ø¯Ø¯
åĪ© äºİ
ĠEx press
Ġsett led
ĠS ports
Ġpres erve
Ġscen es
ff e
Ġrecib ir
h ops
ëĵ¤ ìĿĢ
èĲ½ ãģ¡
Ġa ire
ied er
p assword
Ġj enis
çĽ® åħī
clos ure
ì ±ħ
Ġus ted
sc r
ĠD ere
2 14
. Read
Ġad op
22 1
ĠpÃ©ri ode
ãĤ¹ãĤ¿ ãĤ¤ãĥ«
Ġcon clude
Ġembed ded
ï¼Į åĲĳ
å¹³ è¡¡
M us
ĠFore ign
ĠcrÃ© ation
èĢĥ ãģĪãģ¦
ØªÙħ Ø§Ø¹
çĶ¨ ãģ®
eng ers
ĠDemocr atic
ĠMass achusetts
Ġkne e
Ġcr ack
ond o
Ġprogress ion
ĠSur vey
Ġth rown
anc ell
.ap ache
ç· ł
ĠSte phen
Ġpan els
Rel ated
Â» Ċ
Ġes qu
AR N
ast ed
Ġmut ual
.m ax
ï¼Į åĽł
Ar r
ĠÐ ¥
er ies
cond ition
ĠGr ant
åħļ çļĦ
Ġllev a
Ġdemocr acy
Field s
Ġent ren
æĴ ¤
ĠWork ing
Ġeduc aciÃ³n
æĽ´ å¥½
èĬĤ çĤ¹
æ¸ł éģĵ
ĠPol ic
æĻ® éģį
- Ch
Ġlo ves
.sh ape
Ġnouve aux
i op
ãĥŃ ãĥ³
Ġz onas
cuss ion
Ñĥ Ð½
- ray
Ġthir ty
ä¼ĳ æģ¯
Ġat ual
åĪĿ ãĤģãģ¦
ãģ® ä¸Ĭ
Ġem oc
D an
å¼ ģ
Ġl ien
çļĦ å£°éŁ³
Ġperce ived
å°ı è¯´
ĠD ark
Ġs que
.s ave
ĠAb stract
éĽ ĩ
ĠØ§ÙĦØª Ø¹
bo olean
els on
mer cial
ĠelÃ© ct
ï¼ĳ ï¼Ĳ
ĠØ³ Øª
Ġtit les
Ġap ost
ET H
Ġpro jets
orith m
22 3
Ġenfermed ad
Ġíı ī
Ġint est
ĠÃ¡ r
Ã©r coles
nab la
ĠT ag
23 5
Ġauthent ication
m row
ograph ie
Ġì »
Ġin ch
zy me
çİ »
ï¼ ¡
Ġl ok
åľ° ä¸ĭ
aps ed
Ø Ł
Sc ope
ä¹Ł è®¸
æĭĴ ç»Ŀ
ep endant
Ġme z
Ġsol ving
ãĤ¨ ãĥĥãĥĪ
Ġdifferent ial
. open
Ġaddress ing
IC ATION
Ġch ac
ÙĢ ÙĢ
ĠLink ed
Ġs ul
ĠMon te
ĠM ut
p un
Ġcoe fficient
Ġ! !
åīį ãģ®
Ġm unicÃŃp
Ġcommun e
Ġg ang
Ġcontact s
Ġhuman os
x e
param eter
ex pect
èº į
è¶³ å¤Ł
Ñĥ Ñİ
ĠA B
Ġexplicit ly
Ġchamp ion
7 20
d ots
ç® Ń
pr it
Ġther apeutic
æĢ ¨
P ower
å®ŁéļĽ ãģ«
Ġfant astic
Ġaffect ing
ĠDo ctor
é¢Ħ æµĭ
ĠG h
Ø§ÙĦ Ø§Øª
/ en
Pl ugin
Ġcomplet o
Ø³Ø¨ Ø¨
ĠC er
Ġscen arios
ÑĨÐ¸ Ñı
Ġdes ap
ëĤ ¨
Ġcont ar
O O
_ (
Q Q
Ġgluc ose
Ġde z
ãĤ¨ ãĥ³ãĤ¸
ĠCle an
Ġgather ed
Ġsist emas
Ġ æľī
å¯ Ŀ
é» İ
ãĤ³ ãĥ³ãĥĨ
ĠÃī t
ĠO d
Ġse an
r ut
à§ į
Ġconstruct or
Ġpay load
åĮħ è£ħ
Ġpem ain
t otal
Ġsu fr
çĤ ī
ĠT ro
.T ext
ĠR oss
30 4
Ñī Ð°
ĠS ek
Ġw edding
Ġcur ious
ãģ®ä¸Ń ãģ§
. join
ãģł ãģĮ
ĠCour se
iz ers
act ivity
Ġaw esome
Lo ad
Ġconv oc
Ġbon us
æĤ¨ çļĦ
Ġstay ing
ä¸» å¸Ń
é¼ĵ åĬ±
________________ ________________
å±ķ éĸĭ
Ġtong ue
Ġcompos ite
Com par
Ġbal anced
ta ire
æŁ» å®ļ
En ter
ig m
.b ind
& \
å°ı å§Ĳ
Ġ' \
Ġphenomen on
Ġindepend ently
sc ar
è¿ĺ æ²¡æľī
è¨Ī çĶ»
åľ¨ äºĨ
æ¬ º
Ġintel ig
P rom
ob i
ĠCoun try
S em
ãĤ¯ãĥª ãĥĥãĤ¯
Ġoct obre
ãģļ ãģ«
Ġ ÑĤÐ¾
Ġsymbol s
(p ath
Ġbene ath
Ãī t
Ġdevelop er
pl t
ĠE ric
Ġsh ips
Ġcon qu
Ñĭ Ð¹
ĠBen ef
Ġme ets
ä¸¾ åĬŀ
å½ĵ ãģ«
Ġconsequ ence
Ġn ie
Ġp ne
Ġassoci ate
C he
ĠThe orem
un ta
ĠØ§ÙĦØ± Ø¦ÙĬØ³
c ategory
Ġab road
Ġp Ã¡
åľ° çĤ¹
od ge
çļĦ åĲĮæĹ¶
è®© ä»ĸ
Ġfeed ing
å¤ĸ éĥ¨
Ġup grade
ï¼Į è°ģ
Ġtend rÃ¡
ç´¹ä»ĭ ãģĹãģ¾ãģĻ
a qu
ëıĦ ë¡Ŀ
Ġrank ing
åĩł å¤©
Ġout line
ĠÙĬ ÙĤ
ĠN icol
ãģĮ å¤ļãģĦ
Ġreci pes
ic ated
ĠCh ap
um ing
_ object
Ġbr ush
ãĢĤ çĽ®åīį
ĠAff airs
Ġequip os
d x
æĥħåĨµ ä¸ĭ
ä¸ī åįģ
Ġpl ates
å¼Ĥ å¸¸
ra form
Ã¡nd ose
2 16
æĮĳ æĪĺ
En v
ĠAct ive
necess ary
Ġviol encia
è¨ ³
ĠAdv anced
Ġout door
èĤ ĸ
ab ases
Ġexhib ition
è¦ģ ç´ł
H ey
Ġb other
ĠL Ã³pez
\ multicolumn
Ġun ter
ãĥı ãĤ¤
ĠFranc is
çİ Ľ
ĠTh erap
× ķ
Ġu ang
Ġencuent ran
åŀ ĥ
æ¤ ħ
achel or
ĠS ex
åĲĮ å¿Ĺ
_ tr
ÙĤØ¯ Ùħ
Ġearn ings
Ġsist em
ãģĭãģª ãĤĬ
Ġsome body
è² ¨
ous es
{ -
åĬł ä¸Ĭ
ç¤¾ åĵ¡
é¡º åĪ©
èĩª ä¿¡
Ġmar ine
Ġsig lo
Ġad quir
åĬ £
Ġcomp aring
Ġë¬ ¼
ãĢį ï¼Ī
é£ ĺ
Ġbe aring
èĦ± æ¯Ľ
Ãĵ N
ĠMot or
æĪĳ æĺ¯
Ġsh orter
Ġdipl om
column s
ä»ĭ èŃ·
G M
ãĥĥ ãĤ°
ãĤ¯ ãĥ¬
ĠM ind
Ġorganiz aciÃ³n
äº¤ æıĽ
Ġfra is
Ġneg lig
put er
Ġaccept ance
ĠV e
ĠB iden
ri re
ĠLeg isl
é¹ ¿
b ine
ãĤĵãģ§ ãģĦãĤĭ
ĠdÃ©c embre
ãĥĭ ãĥ¥ãĥ¼
äº ©
åĽŀ åİ»
Ġp uzz
he x
ĠOut put
Ġdivor ce
Ġtit ular
est ar
Ġcampaign s
z es
gr oups
Ġhonest ly
ĠB L
Ġf lying
ä¾Ŀ æ³ķ
' acc
éĽ ¾
66 6
åľ ¾
Re fer
Ġcomp ly
Ġrefr iger
ffic ients
ï¼Įä¸į èĥ½
P ero
i em
ĠSch olar
Ġl u
he im
St and
y x
Dur ante
ä¸į æķ¢
ĠVict oria
Ġprior it
ãĤ± ãĥ¼ãĤ·ãĥ§ãĥ³
Ġdr ives
ĠS pecific
amb le
é»Ħ éĩĳ
_m ax
ä¸Ĭ åįĩ
ãģ« ãģĹãģ¦
æ°Ĺ ãģĮ
ot ypes
å®ļ ä½į
iss ue
Ġsil ent
Ġpat ron
Ġreve als
å¹³ æĹ¶
Ġsed e
Ġcontr ary
Ġwe 've
Ø¹ Øª
Ġfr ames
Ġcal le
Ġjo ining
å·® å¼Ĥ
ĠJ oh
Ġf ed
å¿ħ ãģļ
ĠB ody
Ġjue ves
Ġm im
Ġm Ã³v
Ġop ciÃ³n
Ġexpl oring
Ï Ĥ
ord inary
çĮ ľ
ĠR S
(t est
IS BN
ä¸¾ è¡Į
ĠC E
Ġê°Ģ ëĬ¥
Ġsu icide
it us
Ġlors que
ate ful
ï¼Ĵ ï¼Ĳ
åŀĥ åľ¾
ĠTh ird
ĠìľĦ íķľ
ÑĩÐµ ÑģÐºÐ¸
b its
Ġtechn ological
ĠS port
Ġimp ed
Ġinvers iÃ³n
Ġcell ular
_st atus
æĤ ¦
à± ģ
Ġpost ing
fe ito
ç¾İ åĳ³
âĢĻ app
ĠÎ ¼
Ġpalab ras
Ġbar rier
Ø¶ Ø§Ùģ
å¾Ī æľī
ĠI g
å¤§ å¹ħ
Ø§Ø³ ÙĬØ©
Ġsu ced
AT ED
Ġalred edor
åĲĦ ä¸ª
ĠV ice
erc ise
ĠRem ember
éĬĢ è¡Į
äºº éĸĵ
******************************** ********************************
Ġde com
et c
er ial
ĠS pec
ou red
Ġcar re
Ġmunicip io
Ġtr im
ĠCl aim
ĠAN Y
Ġenc oding
am era
ãĤ» ãĥ«
a wn
ous ing
Ġt ears
åĲ ĵ
ä¸ī å¹´
ĠP Ãºblic
Ġdam aged
æĺ¾ çĦ¶
åĴ ¬
. index
ĠVict or
æ¤ľ æŁ»
Ident ifier
ĠStr ateg
Ø¬ Ùĩ
Ñĸ Ð¹
Ġir regular
Ġman os
âĢĻ an
Ġpro cur
åĤ ·
Ã¶ n
åı¯èĥ½ æĺ¯
r ag
d em
Ġ Ø§Ø³
Ġinform Ã³
Ġcontact o
Ġpl ut
yt ic
w en
Ġìļ° ë¦¬
Ġyour s
ĠU l
ĠG abri
ĠInst all
ĠParl iament
/ index
ot er
Ġbe ings
.s ervice
Ġcas ual
Med ic
Ġanalyt ics
ĠW riting
is as
ç´§ å¼ł
N ET
Ġgold en
t k
å¯» æī¾
âĢĿ âĢľ
ari at
Ġdest a
' util
Ġmar co
ard e
ĠLew is
ĠC uba
.s c
Ġefficient ly
æĥ ¨
Ġpet its
iz Ã³
b est
åĬł å¿«
ĠN othing
ãģĿãģĵ ãģ§
éĩĩ è´Ń
Ġins ect
ä¹ĭ ä¸ĭ
it ura
Ġar ise
çĭ¬ çī¹
ãĥĪ ãĥĥãĥĹ
C V
23 2
Ġb ater
ì¹ ´
es cription
Ġser ÃŃa
Ùĥ Ø©
ï¼Įä¸į æĺ¯
in ely
Ð´ ÐµÐ½
ä¿ ©
ĉĉĉĉ ĉĉĉ
Ġcomunic aciÃ³n
Ġ( _
Ġins u
Ġun like
ĠG ree
ĠV irtual
éĻĲ å®ļ
it at
ale za
Ġconscious ness
il ia
Ġalg u
.d b
ar ial
Ġprogram as
å´ ĩ
ĠSingap ore
Ġju illet
æħ £
ĠDep art
to buf
ãĤ¢ãĤ¯ãĤ» ãĤ¹
Ġpurs uant
ãĤĴçĽ® æĮĩ
äºº ãĤĤ
Ġtri es
ĠP ierre
B est
ç¼º ä¹ı
éģ ¥
clus ter
Ġusu ario
[ j
ors hip
ĠR on
Ġhij os
ĠØ§ÙĦØ¨ ÙĦ
Ġinf ected
Ġprote cciÃ³n
ç·¨ éĽĨ
Ġ* )
Ģ ìĿ´
ãĤ³ ãĥ¼ãĥī
ĠP ow
Ġstat ute
Ġcamb ios
Ġf res
les h
_f e
Ġadjust ed
red i
Ġid i
yth m
å°ĳ å¥³
Wh ich
åºĶè¯¥ æĺ¯
ol as
Ġre habil
-be ing
ä¹Ł è¦ģ
s ervice
Ġex empt
ER V
, j
ä¸Ĭ æ¶¨
Ġw ise
à§į à¦
ĠH ou
Ġregard ed
Ġtiss ues
ĠM uh
ï¼ ½
ograph ical
Ġfif th
Ġdim ens
ĠCult ural
ĠNig eria
Ġob es
ĠD im
Ġqu ad
ev ents
èĢĥ æł¸
ĠIn g
ĠThere 's
Ġs Ã»
ĠT ol
Ġn ar
Ġg ens
3 80
ãĥª ãĥĨãĤ£
od os
Ġnod ded
ater n
3 40
Ġas ym
è¿ĺ æ²¡
ak ah
åı¸ æ³ķ
Ġeconom ÃŃa
Ġ ä½Ĩ
ĠScot land
_ read
New s
æĸ ľ
ĠP rior
Ġan ten
åł± åĳĬ
ãģ£ãģ ±
à¤ ª
Ġfert il
Ġnam un
ï¼ »
2 13
ffect ive
b ec
Ãº t
æĹ¶ å°ļ
ign er
Ġdifer ente
B re
Ġengine ers
Ġt aux
. query
Ùĥ ÙĬØ©
ci endo
ĠK o
åºĥ åĳĬ
Ġinj ured
D im
èī¯ å¥½
Ġdeterm ines
Ġbr on
ĠMich el
ĠIslam ic
Ġin hab
Ġin line
M W
éĤ£ æł·
ĠÑģ Ð¿
Ġneg lect
Ġper ten
Ġr uling
æľĢ å¥½çļĦ
å® Ļ
Ġexpl oration
ĠØ§ÙĦØ¬ Ùħ
ĠG irl
ĠG it
Ġker ja
ilt ers
ĠGarc ÃŃa
}} (
Ġmemb res
u o
Ġh its
æ³ķ è§Ħ
I K
Ġsp ots
Ġrg ba
Ġr ug
Ġequip ped
Ùĥ ÙĪÙħØ©
ç¶ ĵ
Ġvis ita
L ock
Ġvra iment
ĠN ick
Ġr ue
Ġprof und
åĹ ¯
Ġm amm
om i
av am
ìľ¼ ë©°
Ġnot ification
Ġaup rÃ¨s
it Ãł
Ġcup s
k h
ĠU V
Ġclass ified
äºĮ æĺ¯
Ġtick et
Ġvict ory
Ġsa ison
åŁ ĥ
Ġê²ĥ ìľ¼ë¡ľ
U m
out ing
Ġr ival
æĹ ¬
å¼Ģ å¿ĥ
âĢĻ Ã©c
ãĤ·ãĥ§ ãĥĥãĥĹ
Ġbreak fast
ĠL ang
in line
ĠA ch
Ġj oven
em or
æµ ¸
Ġex pend
Ġpe qu
Ġesp a
Ġexhib it
Ġv u
Ġleg acy
Ġt ape
íİ ¸
b one
ĠÙĬ ØªÙħ
al le
åĲĪ ãģĦ
_ ERROR
ĠCreat ive
be it
in ete
ãģŁãģı ãģķãĤĵ
Ġhigh lights
ĠE c
çĿĢ ä¸Ģ
ĠLeg al
åĽ½ éļĽ
åŁº åĽł
Ġhead ers
rop y
ĠH ad
gr Ã©
ĠS K
ĠfranÃ§ais e
Ġcircul ation
Ġ Ø§Øª
ï¼Į éĻ¤äºĨ
æıĲ éĨĴ
èĥ ĸ
OR Y
Ġas sez
æ» ŀ
Ġíķ¨ ê»ĺ
Ġd op
Ġhost ing
Ã« l
åŃĺ åĤ¨
C ategor
Ġcook ie
_ all
_c ast
rim inal
ç§ĳ çłĶ
å· »
Ġ| |Ċ
ĠMethod s
.c urrent
ĠâĢ¦ Ċ
is play
å§ĳ å¨ĺ
ĠD ia
Â §
ĠDe ath
Ġequ ality
Ex ternal
à¥įà¤ ¤
Ġcal or
æİ¥ åı£
å¤§ å¤ļæķ°
Ġs igh
c aption
or de
ĠMar ie
iz za
ack ages
Ġaquell os
Ġnot a
Ġimpress ive
ĠH amilton
( request
Ġsod ium
) }\
B en
ĠIn fo
ĠM os
éĺ³ åħī
æĬ «
uc ional
ina Ã§Ã£o
rict ion
Øª ÙĦ
30 2
äºº ãģ«
ãģ¯ ãģļ
ãĥĥ ãĤ·ãĥ§ãĥ³
Ġreflect s
Ġnam ely
ï¼Į äºİæĺ¯
å¢ ĵ
è·¯ ä¸Ĭ
æĺ Ĩ
Ġcry stal
Ð³ ÑĢÐ°
æĸ¹ çļĦ
ph y
Ġì¦ Ŀ
h h
Ġo pos
é¢ Ī
ī ´
@ Override
. min
Ġtem ple
Ġc ovid
Ġdescrib ing
ar ik
Ġpou co
Ġpart ially
åĩº ãģĹ
Ġcal cium
I 've
Ġinfer ior
bl ank
ert s
Ã©v rier
ĠMult i
cha e
Ġëĭ ¬
ic ons
ï¼Į åĥı
Ġs lic
_p oint
-m Ãªme
Ġdeb ut
-b l
ç°¡åįĺ ãģ«
Ġback up
Ġpro ph
Gener ator
ĠT yp
Ġconstit u
è¿Ľ åı£
ĠÐ² ÑģÐµ
Ġluck y
æīĢ å¾Ĺ
Ġtrav aux
Ġcalcul ations
ĠM aur
mod els
aw ait
'aut res
ri as
ĠSen ior
åĲĪãĤıãģĽ ãģ¦
Ġin icial
Ġbaj a
Ġsaf ely
og gle
B aca
as er
Ġ _{
Ġsm iled
Ġaccomp any
ĠN ative
ãĢĤ åħ¶
Ġa ider
Ġvot ing
ì§ Ī
F low
ĠÃ® n
_ US
Ġhuman ity
F X
Ġk ond
ãĥĨ ãĥ¼ãĥŀ
ĠD ue
Ġlik elihood
Ġint Ã©gr
av ailable
L eg
Ġmigr ations
ĠS ong
Ġachie ving
Ġapr ender
Ġpre cip
é«ĺ ä¸Ń
Ġc arn
âĢĻ Ċ
ĠAuthor ity
Ġk husus
ĠA wards
D ER
Ġp ocket
hand le
- go
U X
Log ger
æ Ĥ¬
Ġrece iver
æīĵ éĢł
ĠDise ase
é« ª
ĠU til
Ðº ÑĤ
åĽĽ å·Ŀ
ab et
Ġde ployment
r in
( pro
èİ ²
Ġp se
Intern ational
Ġa just
ĠD oug
ĠrÃ©se au
az ar
k ind
Ġutil iser
Ġed ific
ä»ħ ä»ħ
Ġb ak
Ġped ido
å¤ļ å¹´
Ġestud ios
ĠÐ¼ Ð¸
: center
Ġinter mediate
è¾¹ çļĦ
Ġrec orr
ĠÙĦ Ø£
IC A
Ġread ily
ä»¥ä¸ĭ ãģ®
' ad
arr ass
ĠPl anning
_in put
Ġcon den
Ġestablish ment
ãģķãĤĵ ãģ¯
ĠInvest ig
Ġres idence
Ġrem ed
Ġnumer ical
Ġinf inite
Ġstat ut
Ġpro pre
Ð¾Ð² Ðµ
Ġsub stances
æĿ±äº¬ éĥ½
-b u
ĠÐ¿ Ð°
ied ad
Ġaf irma
conom ic
Ġcent ros
Ġsel alu
Ġo h
Ġav ent
Ġak hir
adel ph
ĠSum mer
ĠC her
ĠAl i
ï¼Įä¸Ģ èĪ¬
ist en
ĠCom un
fig ure
ĠPhil ipp
Ġdro ps
ĠM it
ãģ¾ ãģ£ãģŁ
ĠT u
fl ix
Ġcl ubs
um ul
èį¯ çī©
å¹³ æĪĲ
Ġdomin ant
Don 't
å¯¹ æīĭ
Ġgr ants
Ġlist ing
åŃ©åŃĲ çļĦ
Ġparticip ating
be an
ãĢĤ çĶ±äºİ
ĠÙħ Ø«ÙĦ
ãģĮ ãģ§ãģįãĤĭ
ivid ual
ĠHar vard
ey ond
ãģ» ãģĭ
Ġche g
j alan
äºº å®¶
Ġval ve
ĠEm pire
ĠAn th
ĠS ac
ud d
Ð¾Ð³ ÑĢÐ°
ĠO wn
Ġentr ance
Ġparticip ar
Ġad mission
Ġsm ell
Ġdocument o
Ġprefer ences
ĠComp an
Ġfuer za
_s v
row ing
ï¼Įä»ĸ çļĦ
ì Ķ
Ġpr ise
ĠPriv acy
; \
Ġs ons
met ry
Ġbelong s
Ġcatal og
m us
åĪļ æīį
ĠA rizona
ĠAn ne
. It
u ais
.st ate
ãģķãĤĵ ãģĮ
ĠFor um
ãĤĤ ãģ®ãģ§
AC H
åĵª ä¸ª
ä¸į ä¸Ĭ
J oin
Ġap o
Ġpo etry
ãĤ¦ ãĤ£
ĠG all
Ġat tr
åĩºæĿ¥ ãĤĭ
ĠEdit or
{d ocument
c b
Ġshould ers
Ġal ias
Ġadapt ed
N D
æ³¨ çĽ®
Ġj uta
åħ¥ åĬĽ
ch ema
ĠEm ail
Ø§Ùģ Ø¸
Ġqual idade
Ġcre f
éĤ »
ãĥĳ ãĥ³
Ġr anges
Ġ-- >Ċ
Ġs v
åıĳ åĩº
el and
ĠÐµ Ð³Ð¾
Ġuns igned
Ġv ient
Ġen abling
Ġj alan
æ²» çĲĨ
S creen
ĠRev olution
ç»Ļ äºĨ
]]'' Ċ
duct or
èĢĥ çĶŁ
ĠëķĮ ë¬¸
_ end
Ġvirt ually
par ser
ç¡® è®¤
ĠW ould
æ¯İ æĹ¥
Ġt ienes
Ġt y
çĽ ¤
Ġlapt op
etah ui
çļĦä¸Ģ ç§į
ĠÙĦ ÙĬ
åĬĽ åº¦
Ġinspect ion
Ġins ulin
ĠíĶ ¼
ĠM osc
Ġbus car
Ñ Ļ
Ġn our
Ġestudi antes
ĠJ ordan
èŃ¦ å¯Ł
è·Ł çĿĢ
è²· åıĸ
: **
'e au
En vironment
ar ant
Ġmus ique
.âĢĿ âĢľ
.pro t
G P
ĠØ¨ Ø£ÙĨ
23 4
ãĥĩãĤ£ ãĤ¢
av ascript
Ġtab let
sequ ently
com ment
. array
amm ad
ÙĨ ÙĬÙĨ
ĠB os
Ġadd iction
ly n
Log in
åı£ æ°Ķ
ĠmÃ© th
ĠP H
ju ana
Ġcamb iar
h ave
Ġproceed ings
Ġinv ite
å² ³
ĠTur key
è¯· æ±Ĥ
ĠTh ink
Ġê¸ Ī
Ġbl ame
ĠÙĪØ§ÙĦ Ø£
Ġcomunic ado
å²ģ çļĦ
æĥ³ è±¡
Ġprodu cer
30 3
Ġpol yn
, t
è£½ éĢł
end or
Ġadvert is
k ip
-f riendly
ãģ§ãģį ãģ¾ãģĽãĤĵ
ĠPr ince
ĠAss embly
í Ŀ
/ W
ĠW ang
Ġf Ã©
Ġpres cription
è¨Ń ç½®
_P RO
ä¸´ åºĬ
Ġmi embros
ĠF low
Ġtub uh
èª¿ æķ´
ĠdÃ© pl
ĠO m
.com mon
ĠëĤ ¨
Ã¡ genes
Øµ Ø©
ĠPr ivate
Ġim plied
ĠWeb site
å°ı ç»Ħ
Ġa pert
_ image
Ġm ampu
Ġmes h
Ġsleep ing
Ġrepresent atives
Ġter re
Ġten ido
æİ ĺ
Ġprevent ing
Ø® Ø¯Ùħ
Ġris que
ĠSt aff
Ġkem udian
Ġë ĨĴ
Ġcrit er
ĠSt op
qu ipe
Ġpl t
éĢ» è¾ĳ
ĠTor onto
Ġcompar able
Ġb ands
M edia
id den
Ġacc used
Ġk o
qu al
Ġpre jud
è¡Į åĭķ
Par se
Ġë° Ŀ
ĠâĪ Ĵ
00 9
ĠRe ference
èĤ ¾
ĠW ars
é«ĺ çº§
íĸ ¥
Ġman a
ĠN A
b order
æ± ģ
ĠThe ory
em ic
.ex ample
ãģĪ ãģªãģĦ
ampa ikan
)) );Ċ
. Name
ä¸ŃåĽ½ çļĦ
ĠN ASA
ä¸Ģ ä½ĵ
æļ ĳ
lic he
èĥ½ éĩı
Ġme x
çİ¯ èĬĤ
> )
_S IZE
Ġì¢ ĭ
ific a
Ġfulf ill
åĽ¾ ä¹¦
Ġestablish ing
ãĤĴä½¿ ãģ£ãģ¦
ãĤĴ å¾Ĺ
Fl ag
ĠÂ ±
* )
Ġhum or
ul i
G od
åľ° çļĦ
in z
ĠØ¨Ø§ÙĦ Ùħ
ãĤ¸ãĤ§ ãĤ¯ãĥĪ
burg h
iam i
Ġgu ests
test ing
ĠM ock
Ġb ones
æĺ¨ å¤©
è¬Ľ åº§
æī Ń
æľĪ ãģ«
Ġbar riers
ĠAr thur
Ġperspect ives
Ġin icio
Ġm ah
ãģªãģ© ãģ§
Ã ¬
ama Ã±o
å®¶ äºº
Ġ} \
æ§ ½
Ġfund ed
- item
Ġprec isa
çŁ ©
Ø· ÙĬÙĨ
Ġpath way
Ġbuy ers
pre h
éĥ¨ ç½²
Ġremark able
ĠÃ© d
had ow
-d ess
ĠTh ings
ç¬¬ åįģ
ct u
Rev iew
Ġsynth esis
Ġinv as
rupt cy
Ġë Ī
Ġconse cu
éŁ© åĽ½
ucle ar
h ic
ill os
Ġvo z
ĠElect ric
Ġmart es
Ġj umlah
st op
çīĪ æĿĥ
ĠEx amples
çĽ Ĵ
Ġoper ated
ãĤ» ãĥŁ
Ġk ons
ĠD VD
Ġphotograph s
Ġay ant
Ġbur st
oc on
.W rite
Ġf ishing
ãĢģ å¸Ĥ
iox id
íķ Ń
Ġtra ct
Ġat om
äººæ°ĳ å¸ģ
é¢Ħ è®¡
Ġdefinit ions
æľī æ²¡æľī
ĠA ires
Ġ ä»¥
Ġsubsequ ently
ãĤ ¾
chn ology
Ġno body
ĠT arget
Ġtrou bles
Ġdel eted
p ython
ot ive
âĢľ A
orig ine
ÃŃst ico
Ġfin ancing
Ġvary ing
çļĦ ä½ľçĶ¨
Ġsubs cription
ĠvidÃ© o
Ġmel ihat
D em
Ġp ankajoudhia
ãĢĤ å¦Ĥ
ãģĵ ãģĿ
Ġvolunte ers
M icrosoft
Ġser Ã£o
çĻ¾ å§ĵ
Ġqu anto
ĠSt ation
Ġquel que
or re
Ġw age
æº ª
Ġr ip
Ġgovern ance
ä»¿ ä½Ľ
æİ¨ åĩº
ĠS ave
ind e
ID S
Ġbo ards
ĠVol ume
gre en
| url
c it
May be
Ġexpand ing
it zer
Ġp ist
åł ª
ãģ«å¯¾ ãģĻãĤĭ
Ġv enta
++ )Ċ
ãĤ¯ ãĤ¿ãĥ¼
Ġtrabal h
Ġamong st
str ap
ion i
Ġdo ivent
ock ey
Ġband a
Ġass ure
g ence
æıĲä¾Ľ äºĨ
ĠØ¯ Ø±
< div
åŁº å±Ĥ
ĠÙĪÙĩ ÙĪ
Ġdur able
ë¦ Ħ
Ġcomplic ations
az Ã³n
Ø§Ø± Ø¬
Ġge ometry
ĠìĹ ´
ĠL iving
Ġlock ed
Ġser ait
Ġpre lim
ĠR ic
Ġshe ets
. view
th a
ãĥĪ ãĥª
Ġf atal
Ġimag in
éĢĲ æŃ¥
( __
Ġdiv ide
ĠCirc uit
å°Ĩ æĿ¥
cl oud
ãģ¦ ãģıãģłãģķãģĦ
kt ur
Ġh iring
Î »
ĠG uer
æ³ķ çļĦ
ĠT reatment
Ġpurch asing
Ġdepart ments
ÐļÐ° ÑĤÐµ
Ġcompl eta
W R
Ġroll ing
Ġfin es
ãĤ³ãĥŁ ãĥ¥
valid ation
Ġscre ens
Ġgenu ine
.Col lections
As soci
ĠH eb
å±Ĥ æ¬¡
Ġblock chain
Ġvess el
Ø³Ø¨ Ø©
Ġvol ver
æŀĦ æĪĲ
çļĦ æĦŁè§ī
D raw
Ġhad n't
RE F
ãģĤãĤĬ ãģĮ
æµ ľ
Ã¡ logo
Ġpad re
Ġproduct ive
d ie
Ġper der
Ø§Ùħ Ø¬
N ov
| t
çĸ ı
Ġ} )
èĩª æ²»
ĠeconÃ³m ica
- o
å¿ħ çĦ¶
Ġsegur anÃ§a
duct ive
. ).
ãĥķ ãĥ©
åİŁ æľ¬
usal em
íĤ ¤
ä¸Ģ éĥ¨
ï¼Į å¿ĥ
Ġoutput s
Ġt mp
ÑĪ Ð°
Ġm Ãªs
ro c
Ġvot es
E p
ĠÑģ Ð²Ð¾
ĠDis ney
Ġagr ad
ul ent
Ġde grad
ides pread
Ġmot ivo
20 9
le o
Ġcannab is
Ġlev ant
Ġcol leges
P ORT
ul se
Ġmarch a
éĽĨ ä½ĵ
Ġp ais
Ġt api
å¸¸ è§ģ
æľº çļĦ
ĠL ady
ãģ¨ãģĹãģ¦ ãĤĤ
Ġlet 's
or b
ãĤĴ æĦŁãģĺ
ut i
HT ML
è¯» ä¹¦
ï ¬
à¤ ¦
ub le
ĠMath emat
åģļ åĩº
Ġav ril
Ġdes em
Ġper ipher
ÑĢÐµ Ð´
d im
/* Ċ
¤ Ħ
Ġpres up
ĠLib ert
Ø§Ø¨ Ø§Øª
- ph
ç±» çļĦ
{eqn array
Ġc s
F unc
ĠvÃŃde o
Ġpl ast
F ORM
% çļĦ
ç¯ Ħ
Ġe ars
ãĤ¤ ãĤ¹
æ¤ľ è¨İ
ëĵ ±
Ġofre cer
åĲĪ éĢĤ
å« ģ
.st art
_ not
Col l
é£Ł äºĭ
_ is
Ġd ud
æ²³ åįĹ
aj as
æ±Ł èĭı
å§Ķ ä¼ļ
éĻ µ
Ġscr atch
ch Ã©
åĢĭäºº æĥħåł±
Ġattempt ed
Ġrac ial
Ġpr ensa
å¼ ¯
Ġ ----
clar ation
Des criptor
ĠprÃ©s ente
èĤ ĥ
ok o
Ġper k
Ġf als
Ġmix ing
ÃŃ v
Ġmodel os
!! !
{ (
ĠMan ufact
ĠS ix
ãĥī ãĥ«
ãģı ãģ¨
z ing
Ġstru ck
Ã©rie ure
Î ¼
.m odels
ãģĹãģŁ ãĤī
| $
Ġterk ait
Ġre plic
Ġch ap
EE E
éĤ Ħ
ĠM E
Ġst ere
Ġ% >
å¹³æĸ¹ ç±³
Ġprue ba
Ġcreat ivity
æĺİ æĺŁ
åİ ¦
äº§åĵģ çļĦ
ç»ı åħ¸
s ubs
çĺ ¤
ĠMo on
Ġbe er
Ġimportant ly
ĠØ§ÙĦØª ØŃ
Ġsurve illance
cl are
ØŃØ¯ Ø«
ä¸Ĭ ãģ®
Ġnavig ate
ãĥ¡ ãĥ¼ãĤ«ãĥ¼
Ġreach es
Ġspecial ized
_ X
âĢĻ ab
Ġ{ }Ċ
Ġinstit utional
aut Ã©
Ġdram atic
is asi
ĠT ony
Ġprovin cial
A IL
ĠProduct s
Ġmathemat ical
qu elle
Ġintellig ent
Ġpublish ing
Ġë ĳĲ
T er
åĲĦ ç±»
Ġassum ptions
Ġd ying
p ad
avel ength
ĠB ab
Ð¾Ðº Ð°
Valid ation
am ents
Ġprodu Ã§Ã£o
Ġch amb
ãĤı ãĤĭ
å©ļ å§»
Ġk at
_ group
ĠComm ons
/d ocs
ick ed
Ġ&& Ċ
Ph oto
anÃ§ ois
Ø¨ Ø§Øª
Ġgraph ics
Ġport ions
Ġm s
art o
ĠÙĥØ§ÙĨ Øª
Ġmit ig
ãĤ¹ ãĤ¹ãĥ¡
ĠA vec
ï¼Į èĭ¥
ĠT ool
Ġcon vention
Ġlo ose
Ġnot able
ä¸» æĮģ
inter est
Ġre ch
h el
W atch
Ø· Ø¨ÙĬ
ĠFern ando
Ġcrypt o
23 1
ä¸Ģ è¾¹
Ġens ures
T ax
Ġliter ary
éģİ åİ»
ĠR isk
ĠnÃ©cess aire
ne as
èĽ ĩ
Ġin vert
ÙĪØ± ÙĬØ©
Ġt ied
ãĤī ãģĹ
Ġmeningkat kan
è½¬ ç§»
Ġtok ens
Ġpers en
/ G
( str
> &
Ġpre f
ik ing
çº· çº·
col n
Ġ íķĺëĬĶ
èĴ Ĥ
Ġvess els
Ġtod avÃŃa
oun ce
Ġbu ff
é¢Ħ éĺ²
.. .ĊĊ
R ob
Ġf its
Ġcl ave
ug o
åĨħ åŃĺ
âĢĻ es
ëį Ķ
Ġa wards
ĠAv ailable
Ġwork force
Ġbro thers
er ialize
Ġform ats
sup er
Ġsuppl iers
. equal
Ġfro zen
Ðº Ð¾Ð½
Ġest arÃ¡
ĠÃºlt imas
Ġab rir
ro ck
ĠK ap
æľį è£ħ
íĻ ľ
åİ ¨
Ġd ump
Ġvot ers
çľŁæŃ£ çļĦ
Ġconserv ative
Ġto il
Ġjourn Ã©e
Ġconclus ions
Ġaccompan ied
in ement
( `
ä»ĬåĽŀ ãģ®
al nya
è² ¸
æĹ¥ ãģ¯
=" /
åĽĽ ä¸ª
-cent ury
æĸ¹ ãĤĤ
( !
çĹĽ èĭ¦
l oss
ill Ã©
Ġdol or
Ð¿ Ñĥ
ad Ã©m
æŃ¦ æ±ī
vent ory
. No
Ġfe as
so cial
Ġred irect
Ġe igen
ãģĳ ãģªãģĦ
ĠPh ot
Ġindic Ã³
"" "Ċ
ĠH u
Ġi h
Ġstay ed
Ġimm igration
Ġ è¿Ļ
ĠH ans
ç« ¶
Ġmat iÃ¨re
âĢĻ art
Ġstrength en
ëĭ ´
Ĩ į
ãĤ¹ãĥĿ ãĥ¼ãĥĦ
ĠReg ion
Ġpsych ology
i ados
Ġp d
ç¦ģ æŃ¢
W E
Ġyield s
Ø¸ Ø±
Ġmod ifications
Ġtra its
yn th
ĠR ot
ĠG est
, âĢĻ
ag og
âĢľ S
Ø§ÙĤ Ø©
valid ate
ĉ g
ĠDes de
ĠG B
ì§ ĳ
ĠG un
Ġindic ator
Ġstop s
ĠSim ilarly
æ¡ Ĥ
ä¾ĭ ãģĪãģ°
åĨ³ çŃĸ
ï¼ī ãĢį
ĠJ am
æĦıåĳ³ çĿĢ
ç«ĭ åĪ»
Ġint u
Ġnetwork ing
ĠB anco
st o
ĠF red
æĬ Ľ
Ġoff ici
Ġresol ved
Ġsurv iv
ro se
end ants
ĠR ail
Ġtel Ã©f
ĠØª Ø¯
(m ax
ĠTra vel
ĠC over
Ġcommer ce
Ġpull ing
Ġmet ers
æ·± åĪ»
ĠS L
_n umber
Ġsatell ite
Ġg aming
èª² é¡Į
b age
4 10
åĭķ çĶ£
Ġhom mes
atÃ©g orie
æ¼Ĥ äº®
èı ¯
íķĺ ì§Ģ
ĠEx cel
at um
Ġtr ig
0 21
è£ħ å¤ĩ
Ġw elfare
- team
Ġincluy e
Ġval eur
Ġp ension
V P
ä¸Ģ æĸ¹
åĬ´ åĥį
Ġfore ach
ing ing
è¾ ¨
ab l
å®¹ éĩı
ig ious
ĠÐ· Ð½Ð°
è¾ £
Ġj ed
nes ota
Ġc v
ãĤĤ ãģ£ãģ¨
ras es
Ġb rows
adelph ia
Ġmas cul
ãĤĮ ãģªãģĦ
ĠĠĠĠĠĠĠĠĠĠĠĠ Ċ
A ST
Ġsl a
ĠP uerto
ãĢĤ è¯¥
Ġtrans mitted
Ġnational e
Det ail
Ġph ases
AR R
çĺ ¦
è¿ĺ èĥ½
\ '
Ġcons ci
B i
k om
ï¼Į çĽ´æİ¥
ament al
T ool
Ġg ros
Ġalign ment
ĠK ec
Ġasegur Ã³
â ľ
æ°Ĺ è»½
æŁĲ äºĽ
Ġav is
ĠCont ract
Ġassum ing
ãĤ· ãĥ³ãĤ°
ãģĮ ãģĭ
Ġadoles c
Ġpublic ly
Ġnego cio
Th rough
Ġbro ader
le in
Ĳ ëĭ¤
ä¸Ĭ åįĪ
ãĤ¹ãĥŀ ãĥĽ
Ġdos s
Ġmainten ant
æķĻ æĿĲ
è§Ĥ å¿µ
Ġrel ates
åĮº åĪ«
à¤ ¯
ä¸į å¦Ĥ
_id x
45 6
æµģ è¡Į
################ ################
Ġun to
ãĢĤ çİ°åľ¨
. &
ç¼ Ŀ
``` {
èĩ Ĥ
il io
div ision
ä¾Ŀ éł¼
f ish
appro pri
ĠSar ah
29 0
Ġrec urr
Ġpain ful
ĠH om
| W
ĠPol y
, n
Ġlong ue
Ð¼ ÐµÑĢ
Ġs ÃŃn
ct ic
Ġaccompl ished
è¦Ĩ çĽĸ
åİ ³
æī ĳ
ĠÙĦ ÙĥÙĨ
Ġin ÃŃcio
Ġcuid ado
is ant
æĮ Ļ
aks i
Ã¨ de
| K
on ie
ãģ§ãģ¯ ãģĤãĤĬãģ¾ãģĽãĤĵ
Ġdip ut
ãĤ¦ ãĤ©
form ations
âĦ ĥ
Ġtan pa
Ġê²ĥ ìĿ´
ĠW H
he imer
Ġcred its
ut ing
ä¾¡ åĢ¤
T M
åħį çĸ«
ĠFa ith
- text
br al
è¯ ±
Ġselect ing
ĠÐ §
er ca
Ġsub set
Ġf ired
ãģĭãĤī ãģ¯
ç»Ļ ä»ĸ
ëŀ Ģ
ĠN ev
z ie
Ġof rec
Id s
ĠF ol
w orld
Ø®Øª ÙĦÙģ
. uk
æµ ı
åıĳ è¡Į
Ġ{ %
Ġj elas
D er
Ġì§Ģ ìĽĲ
Ġher itage
Ġ ä»İ
Ġcam eras
Ġf oto
l aw
ä¸ľ æĸ¹
Ġp ython
æĹ¶ åĪ»
Ġg uns
B al
çĽ Ĩ
Ġve ctors
Ġmi Ã©rcoles
Ġhead ing
Ġaccur ately
d ocument
ĠT es
au h
ĠC ela
ãĤ³ãĥŁãĥ¥ ãĥĭ
ug ar
Ï ĥ
reg on
è¡¨ çı¾
Ġr outer
Ø§Ø³ ÙĬ
æĸ ĳ
Ġj ew
ĠM oney
ĠÐ¸ Ð»Ð¸
ou re
Ġheart s
d irect
Ø§Ø¬ ØªÙħØ§Ø¹
iz adas
el ier
unt amiento
Ġentertain ment
Ġarg ues
ass ets
Ġhid up
ä¼ļ åľ¨
Ġn este
Ġharm ful
Ġtrimest re
Ġ ##
ĠÐ² Ð¾
åĲĥ é¥Ń
æ¯ı å¹´
et z
Ġëª ©
è© ²
_n um
Ø§ÙĨ ÙĪÙĨ
ĠX V
èĭ ¹
Ġdiv ulg
ais on
å¤§ åĪ©
ĠT s
ĠJac ob
Ġmill i
ç¬¬ äºĶ
, b
as ync
ãĤĤãģ® ãĤĴ
Ġreg ards
Ġí Ŀ
o ires
ous s
åĲĮ ä¸Ģ
è§£ æĶ¾
å·¥ äºĭ
he ure
Ġarbitr ary
Ġper usahaan
he at
ac ular
Ġpenal ty
æºĸ åĤĻ
Ġpr icing
Ġcelebr ate
Ġcam pe
Ġjorn ada
ãģ« ãģĤ
ar is
.Col umn
Ġins c
ĠE ver
Ġd or
ĠMar ine
Ġsub mission
ĠPat rick
Ġn ord
_t itle
Ġ Ø§Ø¹
Ġin medi
an akan
Ġnur se
Ñħ Ð¾Ð´Ð¸
Ġtrust ed
Ġisol ation
ĠM L
ĠSol utions
åŃ Ł
Ġdire cciÃ³n
Ġspec ification
Ġf t
Ġl ingu
d p
à¯ ģ
èī ³
ä¼ĺ æĥł
æĢİä¹Ī æł·
Ġat oms
ãĥ¼ãĥ« ãĥī
m aster
íĶ ¼
Ġservi Ã§os
Ġspeak ers
oun ced
Ġcons ume
Ġreason ably
ĠrÃ©sult ats
Ġet apa
/ O
éĢ ¸
R ect
åĴĮ è°Ĳ
Ġem ission
Ġm ature
Ġqu adr
ãĤ« ãĥ©
ĠO bserv
Ġtransform ed
ĠAr r
ãģª ãģ®ãģĭ
ou ds
N F
į ãĥĥãĥĪ
Ġsed ang
å£° æĺİ
æ³ķ åĽ½
Ġl ady
å·¨ å¤§
Ġminim ize
Ġpub li
Ġde emed
ĠÙĦÙĦ Øª
Ġconf idential
//////////////// ////////////////
Ġc ats
çħ ®
Ġno ch
Ġsur f
Ġdem ost
s quare
Ġin cons
ãĢĤâĢĿ âĢľ
Ġform ul
C opy
Ġcl usters
Ġd ictionary
Ġy ak
Ġur b
Con structor
Ġmen ores
et on
Ġag gressive
Ã³ t
Ġph ones
Ġt aller
Ð¾Ð² Ð¾
Ġcorrespon ds
å®ĩ å®Ļ
ì¡ ±
ut as
ed o
kt f
av y
M aterial
ĠP ra
z eta
Ġt f
Cont ract
Ġw idget
" github
\ )
è¿Ľ åİ»
æĢ§ è´¨
Ġc ass
GB T
Ġann ivers
Ġg erm
ĠS amsung
Ġ ä¸ª
Ġcomput ed
ĠS urg
ke it
Ġtravel ing
IP T
ï¼Į å¼ł
8 50
kt or
Ġvo or
Ġa esth
Ġvers e
Ġdist inction
Ġint end
Ġreli ability
Ġsem akin
âĢĻ ac
éĵ ĥ
Ġfall en
| style
ĠMon itor
am ount
i ares
iss Ã£o
% ;
cur so
(f ile
- ce
V ert
ĠH it
åĮº çļĦ
ÑĢ Ð¾Ð²Ð°
l ay
es es
Y P
ĠD utch
êµ °
Ġv ocal
.t ime
Ġprodu z
A ug
B UG
ãģĹãģ¦ ãģ¯
çī¹ æĢ§
isp ens
ĠEd ge
Ġindust ria
Ð»Ðµ Ð´
ãĤīãĤĮ ãģ¦ãģĦãĤĭ
éģ £
Ġs int
Ġ[âĢ¦ ]
åĭŁ éĽĨ
Lo ader
Ġmethod ology
ung i
} `
é«ĺ åħ´
ut her
æĭ ¨
@ media
Ġsl ide
è¬ Ŀ
± Ħ
.d omain
Ġoccasion ally
e pt
ou ri
os os
Ġbro ker
Ġver tex
çĶŁ åŃĺ
Ġneces idades
Ġpad res
æķ° ãģ®
ï¼ī ãģĮ
Ġh tml
cul ation
ass es
ĠØ¨ Ø£
ìĨ ¡
åĨį çĶŁ
åĥ ķ
ĠíĻ ĺ
Ġlater al
Ġco leg
iv idades
. User
ä¹Ł åľ¨
åħ³ å¿ĥ
âĢĻ im
Ø§Ø±ÙĬ Ø®
Ġdev ast
Ġg ently
Ġb ags
Ġtrad itions
Ġincorpor ate
ãģĦ ãģ®
Ġle ver
ĉ Ġ
Ġl uar
ĠÃŃn d
Ġt and
Ġperm is
Ġpot encial
åİ Į
Ġmob ility
ĠR AM
Ġind ica
Ġkas us
ĠR ow
ãģªãģ© ãģĮ
å¼ ¥
iv ial
Ġd iber
ad t
é¥ ±
è½¬ æį¢
è£ ¤
art ers
om ething
Ġdef ining
Ġmad re
Ġrapid ement
am ic
Ġrespond ed
Ġlaw yers
Ġrow span
Ġg Ã©
Ø° Ùĩ
ĠUn tuk
Ġw idespread
ĠComp et
Ġëª ħ
p uÃ©s
Ġshould n't
Ġtrait ement
ë§ Ŀ
Ġs ake
Ġbe gun
. Equal
z ed
Ø· Ùģ
Ġc ine
Ġdel icious
Ġdes erve
ro d
M sg
ig t
Ġpour ra
f d
å¤§ éĺª
vern ment
ĠC arm
-part y
Ġut ter
M eta
Ġwork flow
ä¸» ä½ĵ
ĠMal ays
Ġc arga
up port
ĠL oc
Ġest ava
èĪŀ åı°
Ġv ine
Ġse al
íķĺ ëĭ¤
Ġí Ī¬
Ġ Ø§Ø®
Ġem pir
D L
Ġpack aging
Stat ement
Ġaument ar
ĠDe ep
Ġvo ices
Ġch ains
ãģķãĤĮ ãģ¾ãģĹãģŁ
Ġauc un
æĪ¿ å±ĭ
Ġsent ences
éļľ å®³
éħ ¬
ĠAb d
Ġcuis ine
ĠTrad itional
èµ «
est ination
Å ¯
J ECT
Ġf usion
Ġpubl isher
ĠGrup o
Ġmod Ã¨le
olog ically
Ġobtain ing
a ques
Ġun re
Ġfuer te
åį° åĪ·
Bo olean
ĠD rive
æłĦ é¤Ĭ
an ha
Ġpros per
Ġd ried
ĠrÃ¡p ido
lic t
Ġtem pt
0 80
Ġalg umas
/ o
Ġdeliver ing
Ġent ender
') ->
ãĤ¤ ãĤ¯
ĠSil ver
ï¼Į å¿ħé¡»
Ġcom press
ĠB h
em ony
Ġextract ed
Ġrefer ring
() ));Ċ
ue ill
ĠM T
ãĥķ ãĥŃ
Ġactiv itÃ©s
Ġren contr
Ġm ales
ĠprÃ³xim os
D avid
Ġter cer
âĢ¦âĢ¦ Ċ
æĮĩ æĮ¥
in stall
ãĤ¹ ãĤ¿ãĥ¼
Ġyou 'd
Ġaff airs
çİ» çĴĥ
Sec urity
Ġrecommend ation
ï¼ĮæĹł è®º
Ġim Ã¡genes
. pl
ï¼Į åİ»
ä¹Ł å¾Ī
Cons ider
æĬķèµĦ èĢħ
Ġconf igure
ĠV I
ãģĹãģ¦ãģĬ ãĤĬ
ĠB lood
Time out
ĠKore an
æĻĤ ãģ¯
Ġbenef icios
c n
Ø¹ ÙĬ
i Ã©
Ġtail le
ism os
and ro
ĠSant iago
Ġc Åĵur
Ġprogress ive
onom y
urch ase
ĠHol lywood
L ight
am el
ĠLim ited
ON G
èĢħ ãģ¯
ation ally
Ġcap az
-st ate
Ġcritic ism
çłĶ ä¿®
clos ed
Ġr endre
}\ \Ċ
å¼ Ĺ
ĠI o
Ġbel t
Ġplut Ã´t
ĠĠĠĠĠĠĠĠĠĠĠĠĠĠĠĠ ĠĠĠĠĠĠĠĠĠĠĠĠĠĠ
Ġsure ly
_l en
ä¿Ħ ç½Ĺæĸ¯
Eng lish
ĠB rian
Ġpo ison
Ġper nah
åįĥ ä¸ĩ
-p oint
37 5
Ġfunction ing
Ġout re
Ġden unci
ak h
We ight
Al g
EN CE
Ġalcan z
EN SE
æĻ °
ĠL yn
Ġphot ography
Ġdisput e
gin as
ĠBr and
Ġf ool
eto oth
ĠF err
Ġpar as
éĻ ½
æİ¥ è¿ĳ
Ġt ends
uk um
Ġachie vement
cons cious
éĨ ī
A merican
Ġcor ruption
Ġinequ ality
ĠK y
Ġpart idos
ĠAtt orney
åŀĭ çļĦ
èī °
. pre
Ġpr end
ĠS ky
ios o
ul us
Ġsu ck
at om
å¾Į ãģ¯
è¡¥ åħħ
Ġwh ilst
Ġgrav ity
çĭ¬ èĩª
Ã³g ica
æľī ä¸ª
] ).
Ġentrev ista
ĠSing le
24 5
Ġr Ã´le
æ¡ ĳ
Ġpress ed
Ġd w
ol ine
Ġdom ains
Ġcom Ãºn
ìħ ĺ
50 1
èŀį åĲĪ
ĠF DA
ãģĮ é«ĺ
ä¸» äºº
H elp
-h and
ĠX ML
Ġent Ã£o
Ġprotect ive
Ġacknow ledge
S ave
'' '''
Ġter c
Ġcri anÃ§as
Ġ ud
' am
art en
Ġencour aging
ä¸Ĭ ãģ§
Ġkid ney
Ġlo ving
ãģª ãģľ
æĸĩ çĮ®
é ĳ
Post ed
Ġhors es
ëħ ¸
ä¼ļ åĦ¿
Ġhe x
ograp her
Ð¾Ð¼ Ñĥ
ind ic
Ġpass Ã©
Ġpro xy
ara an
Ġtim ely
ĠëĮĢ íķ´
ä¸ §
Ø¹ Ø§Øª
åĤ ħ
all back
Ġman ually
-d es
ĠCh annel
ãĢĤ èĻ½çĦ¶
S N
Ġinform asi
it re
Ġp iv
Cl uster
Ġperm ainan
s ur
iss a
éĽ ķ
_ col
ĠB lu
ĠB og
Ġcons ensus
ä¾ ¯
ather ine
ä¹ī åĬ¡
ĠM ust
P ackage
æµģ åĬ¨
é½ ¿
ï¼Į å¼Ģ
ĠâĤ¬ Ċ
Ġhand led
L ayer
C rit
In stit
çĪ ¬
ĠâĨ ĳ
éħį ä¿¡
ard ed
) ãĢĤ
ä¸į åĩº
Ġple ased
å°Ĭ éĩį
åİŁ çĲĨ
Ã¼ h
is ible
Ap pend
[ t
re tt
ĠrÃ©g ul
Ð¾Ð¼ Ð°
æĬ ¹
Ġp ir
èĭ¹ æŀľ
Ġcon ced
åĤ »
Ġsh ield
ĠAnd erson
Ġorig en
p us
ä¼ļ åĳĺ
Ġde ver
ĠM other
Ġrepresent a
ĠLo an
Ġber ada
ĠDet ails
ãĢģ æīĭ
Ġb iod
åŃ¦ æľ¯
t u
log in
ĠM use
. en
æ¶Ī éĺ²
æŃ» äºĨ
Ġprogram m
Ġir r
íĻ ©
Ġsystem atic
è¦³ åħī
æłĩ å¿Ĺ
ir y
ãģ«ãģª ãģ£ãģ¦ãģĦãĤĭ
Ġfail ing
sh ort
- value
_ pos
ãĥĨ ãĥ¬ãĥĵ
ĠQuest ion
ĠG i
Ġup coming
ah n
ĠØ§ÙĦØª ÙĨ
. He
Ġsee ks
ÅĤ a
ĠPer iod
ëŁ °
Ġt id
ĠmÃŃn imo
Ġco aching
Ġinvest or
Ġp ai
Ġar med
éĽ£ ãģĹãģĦ
Ġ Ø§ØŃ
Ġl ag
Ġreal istic
æŀĦ å»º
.. ...
Ġup set
åĩ ¶
ĠBu enos
Ġlist e
sk y
Ġint ra
Ġmakan an
Ġlim itation
åĲİ éĿ¢
ĠE rr
Ġtotal mente
EM ENT
Ġexc it
ay an
ĠSt ream
Ġcard iovascular
Ġserv ir
å·¨ å¤§çļĦ
Ġd ell
Ġmount ains
ograf ia
ãĢģ ãģĦ
Ġproject ion
and al
çł´ åĿı
agon al
Ġc ure
ä¹Ł å°±æĺ¯
Ġp ixels
æµģ éĩı
ĠÐ´ ÑĢÑĥ
Ġcorpor ation
ĠA V
ĠDes a
Ġprom ised
Ġmon ument
Ġextra ction
EN G
LO W
å§Ĳ å§Ĳ
Ġsepar ately
ãģ¤ ãģĭ
æĻº æħ§
åıĳ çļĦ
åī ª
or as
Ġnego ci
24 1
Ġgather ing
HER E
Ġinterv als
Ġad hes
Ġ æĸ°
ĠS U
Ġvis a
å®¶ åħ·
ĠG O
ãĢģ ä¸Ĭ
agn etic
ĠCommunic ation
Ġsub reddit
ific aÃ§Ã£o
èº ²
Sel ected
Ġland ing
ent emente
Ġstart up
Ġ( +
æ¶ Į
Ġcont ag
ãģ¨ ãģ«
èĬ Ŀ
Ġto wer
ĠG T
Ġm ile
Ex per
ĠNav y
ĠF u
Ġg it
Ġmeille ur
l ete
OM E
Ġrece ipt
-l ink
Ġgr ay
ens itive
ï¼ģ ãĢį
Ġterm e
ĠR u
æµı è§Ī
ĠR af
be ing
ä¸į è§ģ
2 18
claim ed
Ġpar fois
f re
Ġdis adv
ĠF iscal
çĹ ķ
ãĢį ãģ§
ĠÐ¼ Ð¾Ð¶
è§Ħ å¾ĭ
Ġcomm od
. Type
âĢĻ E
åħ± åĴĮ
Ġb od
åĩºçİ° äºĨ
Ġdro its
. ui
çĶµ æ±ł
ĠC SS
Ġguer re
ãĤ· ãĤ¢
Ġt ensor
Ġ ```
n at
èĲ¥ ä¸ļ
Ġt s
éĸĵ ãģ«
Ġgl obe
Ã© ger
æł¡ åĽŃ
Ġcoe fficients
ãĤĴ åĲ«
Ø¹ ÙĬØ©
Ġj ar
ik el
{ u
Å į
fa at
éģķ ãģĨ
Ġle ague
V o
íļ į
F M
en y
Ġh oney
çĽ® å½ķ
ï¼Į çİĭ
ì¶ ķ
co ol
Ġo cur
Øº ÙĬØ±
-de pend
è¿Ľ äºĨ
AD E
è¿Ľ ç¨ĭ
lin ks
Ġsect eur
Ġb ij
ogr Ã¡
ar ma
Ġshould n
ĠD A
æĤ Ħ
ĠB us
ĠC in
ĠOnt ario
C atÃ©gorie
ä¸Ģ åĲį
occ asion
ãĥª ãĥ³
}^{ (
Ø´ Ùģ
è§ģ åĪ°
ol ly
25 2
orm ais
ĠmÃ© dec
ãĢģ ãĥĳ
Ġterm asuk
ãģĮ å¢Ĺ
Ġ< !--
èĩªåĭķ è»Ĭ
ãģ¿ ãģ®
OW N
EN S
L ib
ï¼Į ä½ľä¸º
Ġdiscret ion
Ġlegit imate
Ġay er
Ġro yal
ä¸Ń éĹ´
us age
Ġinter pre
Ġnutri ents
æŃ´ åı²
ä¾Ŀ æĹ§
éģĵ çĲĨ
us ive
add r
Ġf lesh
Ġg ifts
arn a
ĠBr ad
ĠFollow ing
Ð³ Ñĥ
ur ban
Ġpe int
2 19
Ch ildren
Ġsc ales
. Value
Ġutil izing
åľ° è¯´
å¤§ æ¦Ĥ
ĠÂ °
Ġsp Ã©c
ĠD raw
ĠS EC
Ġinstance of
/com ments
Ġdesign ers
ãģĬ åķıãģĦåĲĪãĤıãģĽ
P Y
Ġroll ed
Ġmark er
. tr
in h
3 12
Ġcl Ã¡s
ĠP E
ĠDe us
è£ħ ä¿®
Ġarrang ements
å¨ ĥ
ĠÃ© lev
Ġì§Ħ íĸī
ĠÎ ±
art u
{ i
Ġenorm ous
( H
ra ham
Ġc urs
]{ }
ĠA soci
ĠR ap
ï¼Įä¸Ģ å®ļ
Ġatt ending
Ġla ke
åĳ¨ æľŁ
Ġpred omin
Ġ ile
order ed
Ñĸ Ð½
ãĤĬ è¿Ķ
Ġb ail
Ġengine er
- pr
èĦ Ĩ
{ y
[...]
